{
  "version": "1.0",
  "truncation": null,
  "padding": null,
  "added_tokens": [
    {
      "id": 0,
      "content": "<pad>",
      "single_word": false,
      "lstrip": false,
      "rstrip": false,
      "normalized": false,
      "special": true
    },
    {
      "id": 1,
      "content": "<sos>",
      "single_word": false,
      "lstrip": false,
      "rstrip": false,
      "normalized": false,
      "special": true
    },
    {
      "id": 2,
      "content": "<eos>",
      "single_word": false,
      "lstrip": false,
      "rstrip": false,
      "normalized": false,
      "special": true
    },
    {
      "id": 3,
      "content": "<unk>",
      "single_word": false,
      "lstrip": false,
      "rstrip": false,
      "normalized": false,
      "special": true
    }
  ],
  "normalizer": null,
  "pre_tokenizer": {
    "type": "Whitespace"
  },
  "post_processor": null,
  "decoder": null,
  "model": {
    "type": "BPE",
    "dropout": null,
    "unk_token": null,
    "continuing_subword_prefix": null,
    "end_of_word_suffix": null,
    "fuse_unk": false,
    "byte_fallback": false,
    "ignore_merges": false,
    "vocab": {
      "<pad>": 0,
      "<sos>": 1,
      "<eos>": 2,
      "<unk>": 3,
      "!": 4,
      "\"": 5,
      "#": 6,
      "$": 7,
      "%": 8,
      "&": 9,
      "'": 10,
      "(": 11,
      ")": 12,
      ",": 13,
      "-": 14,
      ".": 15,
      "0": 16,
      "1": 17,
      "2": 18,
      "3": 19,
      "4": 20,
      "5": 21,
      "6": 22,
      "7": 23,
      "8": 24,
      "9": 25,
      ":": 26,
      ";": 27,
      "=": 28,
      "?": 29,
      "`": 30,
      "a": 31,
      "b": 32,
      "c": 33,
      "d": 34,
      "e": 35,
      "f": 36,
      "g": 37,
      "h": 38,
      "i": 39,
      "j": 40,
      "k": 41,
      "l": 42,
      "m": 43,
      "n": 44,
      "o": 45,
      "p": 46,
      "q": 47,
      "r": 48,
      "s": 49,
      "t": 50,
      "u": 51,
      "v": 52,
      "w": 53,
      "x": 54,
      "y": 55,
      "z": 56,
      "in": 57,
      "an": 58,
      "ing": 59,
      "th": 60,
      "re": 61,
      "er": 62,
      "on": 63,
      "le": 64,
      "the": 65,
      "man": 66,
      "ar": 67,
      "hi": 68,
      "ou": 69,
      "and": 70,
      "at": 71,
      "st": 72,
      "wo": 73,
      "al": 74,
      "is": 75,
      "la": 76,
      "en": 77,
      "of": 78,
      "it": 79,
      "wi": 80,
      "ow": 81,
      "ck": 82,
      "with": 83,
      "to": 84,
      "ld": 85,
      "or": 86,
      "ir": 87,
      "es": 88,
      "ch": 89,
      "et": 90,
      "op": 91,
      "id": 92,
      "oun": 93,
      "are": 94,
      "whi": 95,
      "pe": 96,
      "bo": 97,
      "as": 98,
      "king": 99,
      "gr": 100,
      "woman": 101,
      "two": 102,
      "ear": 103,
      "te": 104,
      "oo": 105,
      "pla": 106,
      "all": 107,
      "men": 108,
      "ed": 109,
      "ic": 110,
      "do": 111,
      "ople": 112,
      "people": 113,
      "play": 114,
      "ro": 115,
      "ho": 116,
      "ers": 117,
      "un": 118,
      "ge": 119,
      "ting": 120,
      "ts": 121,
      "shi": 122,
      "bl": 123,
      "ss": 124,
      "wal": 125,
      "wear": 126,
      "red": 127,
      "shir": 128,
      "sit": 129,
      "wearing": 130,
      "stand": 131,
      "el": 132,
      "ad": 133,
      "shirt": 134,
      "own": 135,
      "ra": 136,
      "ide": 137,
      "oung": 138,
      "young": 139,
      "gh": 140,
      "white": 141,
      "me": 142,
      "irl": 143,
      "girl": 144,
      "boy": 145,
      "be": 146,
      "sh": 147,
      "ue": 148,
      "dog": 149,
      "bla": 150,
      "one": 151,
      "black": 152,
      "ri": 153,
      "lding": 154,
      "his": 155,
      "co": 156,
      "ack": 157,
      "while": 158,
      "ce": 159,
      "for": 160,
      "ther": 161,
      "wat": 162,
      "oup": 163,
      "blue": 164,
      "mp": 165,
      "se": 166,
      "ta": 167,
      "ur": 168,
      "so": 169,
      "ver": 170,
      "sitting": 171,
      "chi": 172,
      "ball": 173,
      "loo": 174,
      "air": 175,
      "ound": 176,
      "child": 177,
      "fr": 178,
      "il": 179,
      "li": 180,
      "stre": 181,
      "standing": 182,
      "playing": 183,
      "group": 184,
      "bu": 185,
      "ve": 186,
      "am": 187,
      "lo": 188,
      "ard": 189,
      "street": 190,
      "by": 191,
      "down": 192,
      "out": 193,
      "ree": 194,
      "her": 195,
      "walking": 196,
      "sm": 197,
      "ont": 198,
      "ay": 199,
      "walk": 200,
      "br": 201,
      "ti": 202,
      "front": 203,
      "up": 204,
      "other": 205,
      "ma": 206,
      "holding": 207,
      "car": 208,
      "po": 209,
      "ke": 210,
      "ap": 211,
      "fi": 212,
      "ne": 213,
      "ell": 214,
      "ress": 215,
      "water": 216,
      "some": 217,
      "he": 218,
      "ju": 219,
      "tle": 220,
      "ul": 221,
      "dress": 222,
      "side": 223,
      "wor": 224,
      "run": 225,
      "three": 226,
      "ach": 227,
      "ying": 228,
      "par": 229,
      "thr": 230,
      "lit": 231,
      "gre": 232,
      "back": 233,
      "ind": 234,
      "women": 235,
      "hat": 236,
      "ru": 237,
      "sk": 238,
      "looking": 239,
      "uit": 240,
      "green": 241,
      "jump": 242,
      "lar": 243,
      "little": 244,
      "bi": 245,
      "ga": 246,
      "ren": 247,
      "form": 248,
      "ght": 249,
      "outs": 250,
      "ass": 251,
      "rid": 252,
      "ble": 253,
      "outside": 254,
      "cle": 255,
      "ough": 256,
      "sn": 257,
      "fe": 258,
      "ground": 259,
      "large": 260,
      "pa": 261,
      "ks": 262,
      "cr": 263,
      "old": 264,
      "sing": 265,
      "through": 266,
      "ba": 267,
      "ong": 268,
      "brown": 269,
      "yell": 270,
      "con": 271,
      "snow": 272,
      "pers": 273,
      "yellow": 274,
      "children": 275,
      "person": 276,
      "over": 277,
      "eld": 278,
      "fro": 279,
      "board": 280,
      "lass": 281,
      "mb": 282,
      "tu": 283,
      "from": 284,
      "ter": 285,
      "their": 286,
      "ian": 287,
      "di": 288,
      "into": 289,
      "ly": 290,
      "foo": 291,
      "hand": 292,
      "ning": 293,
      "watch": 294,
      "xt": 295,
      "small": 296,
      "thing": 297,
      "bui": 298,
      "tra": 299,
      "ink": 300,
      "building": 301,
      "ac": 302,
      "mo": 303,
      "ate": 304,
      "next": 305,
      "owd": 306,
      "our": 307,
      "crowd": 308,
      "near": 309,
      "jack": 310,
      "dressed": 311,
      "ion": 312,
      "ll": 313,
      "jacket": 314,
      "dy": 315,
      "glass": 316,
      "grass": 317,
      "male": 318,
      "ving": 319,
      "wa": 320,
      "sc": 321,
      "riding": 322,
      "ange": 323,
      "running": 324,
      "bas": 325,
      "ha": 326,
      "ture": 327,
      "off": 328,
      "sw": 329,
      "work": 330,
      "cli": 331,
      "another": 332,
      "around": 333,
      "sta": 334,
      "amer": 335,
      "ep": 336,
      "field": 337,
      "tr": 338,
      "cer": 339,
      "ycle": 340,
      "table": 341,
      "per": 342,
      "eat": 343,
      "clo": 344,
      "sidewalk": 345,
      "tal": 346,
      "top": 347,
      "ket": 348,
      "sp": 349,
      "read": 350,
      "orange": 351,
      "glasses": 352,
      "ity": 353,
      "beach": 354,
      "head": 355,
      "ore": 356,
      "ine": 357,
      "hone": 358,
      "ig": 359,
      "ross": 360,
      "way": 361,
      "hair": 362,
      "hind": 363,
      "je": 364,
      "stands": 365,
      "pink": 366,
      "sun": 367,
      "sits": 368,
      "jumping": 369,
      "behind": 370,
      "stru": 371,
      "gu": 372,
      "ful": 373,
      "ice": 374,
      "iling": 375,
      "go": 376,
      "pu": 377,
      "pic": 378,
      "park": 379,
      "der": 380,
      "tain": 381,
      "bike": 382,
      "mar": 383,
      "door": 384,
      "ick": 385,
      "background": 386,
      "fa": 387,
      "de": 388,
      "asian": 389,
      "ond": 390,
      "city": 391,
      "us": 392,
      "ment": 393,
      "ten": 394,
      "wall": 395,
      "rock": 396,
      "girls": 397,
      "ms": 398,
      "bic": 399,
      "od": 400,
      "dan": 401,
      "player": 402,
      "ans": 403,
      "picture": 404,
      "fl": 405,
      "perform": 406,
      "sur": 407,
      "looks": 408,
      "dle": 409,
      "ben": 410,
      "camer": 411,
      "ool": 412,
      "met": 413,
      "ves": 414,
      "tion": 415,
      "dogs": 416,
      "four": 417,
      "shor": 418,
      "guit": 419,
      "guitar": 420,
      "rop": 421,
      "that": 422,
      "veral": 423,
      "camera": 424,
      "several": 425,
      "ped": 426,
      "older": 427,
      "wood": 428,
      "mid": 429,
      "suit": 430,
      "get": 431,
      "ie": 432,
      "ountain": 433,
      "irt": 434,
      "soc": 435,
      "stu": 436,
      "ca": 437,
      "hold": 438,
      "talking": 439,
      "sho": 440,
      "tor": 441,
      "something": 442,
      "lady": 443,
      "cing": 444,
      "blond": 445,
      "ff": 446,
      "boys": 447,
      "ling": 448,
      "pan": 449,
      "oom": 450,
      "soccer": 451,
      "col": 452,
      "food": 453,
      "along": 454,
      "road": 455,
      "walks": 456,
      "guy": 457,
      "bri": 458,
      "ish": 459,
      "bus": 460,
      "working": 461,
      "ct": 462,
      "hel": 463,
      "skate": 464,
      "jo": 465,
      "toge": 466,
      "together": 467,
      "gray": 468,
      "gg": 469,
      "hor": 470,
      "smiling": 471,
      "end": 472,
      "uni": 473,
      "les": 474,
      "che": 475,
      "bicycle": 476,
      "kid": 477,
      "kes": 478,
      "ign": 479,
      "dr": 480,
      "ey": 481,
      "plays": 482,
      "game": 483,
      "has": 484,
      "ant": 485,
      "stri": 486,
      "comp": 487,
      "boo": 488,
      "bench": 489,
      "pre": 490,
      "qu": 491,
      "uniform": 492,
      "its": 493,
      "sand": 494,
      "led": 495,
      "swi": 496,
      "holds": 497,
      "ation": 498,
      "foot": 499,
      "skateboard": 500,
      "face": 501,
      "ction": 502,
      "atch": 503,
      "carr": 504,
      "pants": 505,
      "climb": 506,
      "cu": 507,
      "him": 508,
      "chair": 509,
      "coup": 510,
      "mm": 511,
      "sa": 512,
      "spe": 513,
      "pain": 514,
      "room": 515,
      "dirt": 516,
      "under": 517,
      "shorts": 518,
      "stage": 519,
      "pur": 520,
      "ping": 521,
      "umb": 522,
      "boat": 523,
      "carrying": 524,
      "baby": 525,
      "couple": 526,
      "ent": 527,
      "pl": 528,
      "band": 529,
      "ol": 530,
      "them": 531,
      "female": 532,
      "gs": 533,
      "set": 534,
      "base": 535,
      "race": 536,
      "tan": 537,
      "tri": 538,
      "outdoor": 539,
      "tree": 540,
      "look": 541,
      "day": 542,
      "shop": 543,
      "dar": 544,
      "mic": 545,
      "ple": 546,
      "mountain": 547,
      "pro": 548,
      "long": 549,
      "coat": 550,
      "pool": 551,
      "basket": 552,
      "taking": 553,
      "owing": 554,
      "phone": 555,
      "sign": 556,
      "dark": 557,
      "each": 558,
      "tow": 559,
      "middle": 560,
      "ted": 561,
      "bar": 562,
      "doing": 563,
      "cor": 564,
      "pho": 565,
      "ty": 566,
      "photo": 567,
      "team": 568,
      "watching": 569,
      "across": 570,
      "there": 571,
      "iting": 572,
      "ican": 573,
      "au": 574,
      "jeans": 575,
      "area": 576,
      "outh": 577,
      "who": 578,
      "store": 579,
      "fore": 580,
      "jumps": 581,
      "mus": 582,
      "we": 583,
      "hands": 584,
      "cross": 585,
      "sl": 586,
      "su": 587,
      "helmet": 588,
      "horse": 589,
      "ex": 590,
      "flo": 591,
      "ence": 592,
      "ni": 593,
      "wind": 594,
      "toy": 595,
      "sts": 596,
      "performing": 597,
      "roll": 598,
      "swing": 599,
      "eating": 600,
      "music": 601,
      "baseball": 602,
      "motor": 603,
      "color": 604,
      "being": 605,
      "sweat": 606,
      "striped": 607,
      "football": 608,
      "uring": 609,
      "ag": 610,
      "cre": 611,
      "using": 612,
      "whe": 613,
      "mouth": 614,
      "ses": 615,
      "rel": 616,
      "kids": 617,
      "ab": 618,
      "cl": 619,
      "many": 620,
      "ding": 621,
      "ired": 622,
      "sle": 623,
      "adul": 624,
      "itch": 625,
      "purple": 626,
      "microp": 627,
      "pi": 628,
      "light": 629,
      "constru": 630,
      "hu": 631,
      "cks": 632,
      "ating": 633,
      "surf": 634,
      "fla": 635,
      "this": 636,
      "haired": 637,
      "toward": 638,
      "fire": 639,
      "nis": 640,
      "enjo": 641,
      "train": 642,
      "ob": 643,
      "arm": 644,
      "ess": 645,
      "posing": 646,
      "aper": 647,
      "runs": 648,
      "tennis": 649,
      "window": 650,
      "can": 651,
      "na": 652,
      "reading": 653,
      "players": 654,
      "sunglasses": 655,
      "construction": 656,
      "tru": 657,
      "um": 658,
      "ner": 659,
      "swimm": 660,
      "dri": 661,
      "clothing": 662,
      "bow": 663,
      "stick": 664,
      "basketball": 665,
      "microphone": 666,
      "ash": 667,
      "cean": 668,
      "vered": 669,
      "past": 670,
      "flow": 671,
      "fish": 672,
      "ocean": 673,
      "she": 674,
      "des": 675,
      "tre": 676,
      "ade": 677,
      "covered": 678,
      "elder": 679,
      "catch": 680,
      "during": 681,
      "pass": 682,
      "tting": 683,
      "inst": 684,
      "workers": 685,
      "motorc": 686,
      "no": 687,
      "ouch": 688,
      "watches": 689,
      "bright": 690,
      "climbing": 691,
      "resta": 692,
      "bag": 693,
      "dancing": 694,
      "restaur": 695,
      "aga": 696,
      "ill": 697,
      "bal": 698,
      "cap": 699,
      "mu": 700,
      "hill": 701,
      "elderly": 702,
      "restaurant": 703,
      "round": 704,
      "vel": 705,
      "high": 706,
      "outf": 707,
      "against": 708,
      "pack": 709,
      "si": 710,
      "ley": 711,
      "smi": 712,
      "ath": 713,
      "ated": 714,
      "shirts": 715,
      "new": 716,
      "umbrel": 717,
      "umbrella": 718,
      "open": 719,
      "ev": 720,
      "ft": 721,
      "ski": 722,
      "rides": 723,
      "market": 724,
      "du": 725,
      "vers": 726,
      "they": 727,
      "very": 728,
      "about": 729,
      "bear": 730,
      "ang": 731,
      "lored": 732,
      "ak": 733,
      "wooden": 734,
      "trees": 735,
      "instru": 736,
      "five": 737,
      "waiting": 738,
      "having": 739,
      "book": 740,
      "floor": 741,
      "colorful": 742,
      "ouse": 743,
      "thers": 744,
      "drin": 745,
      "swimming": 746,
      "getting": 747,
      "lea": 748,
      "costu": 749,
      "line": 750,
      "truck": 751,
      "pul": 752,
      "pol": 753,
      "trying": 754,
      "motorcycle": 755,
      "aning": 756,
      "sha": 757,
      "ily": 758,
      "cart": 759,
      "shing": 760,
      "night": 761,
      "rest": 762,
      "cell": 763,
      "dis": 764,
      "ous": 765,
      "age": 766,
      "bes": 767,
      "ycli": 768,
      "busy": 769,
      "fence": 770,
      "ows": 771,
      "singing": 772,
      "cket": 773,
      "ride": 774,
      "gi": 775,
      "pie": 776,
      "beard": 777,
      "stair": 778,
      "body": 779,
      "eps": 780,
      "ance": 781,
      "mach": 782,
      "path": 783,
      "less": 784,
      "compet": 785,
      "clothe": 786,
      "ler": 787,
      "laying": 788,
      "kitch": 789,
      "hats": 790,
      "kitchen": 791,
      "track": 792,
      "ip": 793,
      "paper": 794,
      "inside": 795,
      "stic": 796,
      "bik": 797,
      "kick": 798,
      "others": 799,
      "tur": 800,
      "ons": 801,
      "cour": 802,
      "grassy": 803,
      "eping": 804,
      "surround": 805,
      "gging": 806,
      "cellphone": 807,
      "ser": 808,
      "lau": 809,
      "making": 810,
      "someone": 811,
      "big": 812,
      "brick": 813,
      "aff": 814,
      "fac": 815,
      "ort": 816,
      "river": 817,
      "ny": 818,
      "vie": 819,
      "grap": 820,
      "backpack": 821,
      "clothes": 822,
      "als": 823,
      "takes": 824,
      "ban": 825,
      "sell": 826,
      "ject": 827,
      "metal": 828,
      "outfit": 829,
      "coun": 830,
      "im": 831,
      "rain": 832,
      "full": 833,
      "towards": 834,
      "laugh": 835,
      "stone": 836,
      "ckey": 837,
      "enjoying": 838,
      "fli": 839,
      "star": 840,
      "vest": 841,
      "ces": 842,
      "mas": 843,
      "tic": 844,
      "iti": 845,
      "box": 846,
      "colored": 847,
      "police": 848,
      "dd": 849,
      "pare": 850,
      "cow": 851,
      "hard": 852,
      "ready": 853,
      "sub": 854,
      "wheel": 855,
      "ope": 856,
      "raw": 857,
      "tank": 858,
      "piece": 859,
      "lap": 860,
      "house": 861,
      "afr": 862,
      "vol": 863,
      "ines": 864,
      "inter": 865,
      "ates": 866,
      "ster": 867,
      "photograp": 868,
      "ition": 869,
      "ors": 870,
      "unch": 871,
      "painting": 872,
      "dru": 873,
      "gy": 874,
      "hang": 875,
      "ring": 876,
      "ite": 877,
      "teen": 878,
      "view": 879,
      "abo": 880,
      "ood": 881,
      "brid": 882,
      "tire": 883,
      "worker": 884,
      "sweater": 885,
      "fri": 886,
      "lec": 887,
      "lake": 888,
      "trick": 889,
      "above": 890,
      "af": 891,
      "cal": 892,
      "gen": 893,
      "bles": 894,
      "african": 895,
      "thered": 896,
      "american": 897,
      "going": 898,
      "roller": 899,
      "adults": 900,
      "class": 901,
      "kne": 902,
      "mer": 903,
      "chas": 904,
      "onto": 905,
      "ird": 906,
      "bot": 907,
      "temp": 908,
      "snowy": 909,
      "snowboard": 910,
      "dance": 911,
      "coo": 912,
      "todd": 913,
      "wave": 914,
      "shopping": 915,
      "surrounded": 916,
      "fo": 917,
      "ones": 918,
      "uniforms": 919,
      "friend": 920,
      "fam": 921,
      "sto": 922,
      "like": 923,
      "gather": 924,
      "crowded": 925,
      "outdoors": 926,
      "gear": 927,
      "poin": 928,
      "pra": 929,
      "smiles": 930,
      "beside": 931,
      "pole": 932,
      "convers": 933,
      "mon": 934,
      "cur": 935,
      "hockey": 936,
      "app": 937,
      "plan": 938,
      "drinking": 939,
      "subway": 940,
      "after": 941,
      "den": 942,
      "yard": 943,
      "lot": 944,
      "shoes": 945,
      "family": 946,
      "mes": 947,
      "art": 948,
      "ments": 949,
      "beau": 950,
      "flowers": 951,
      "bridge": 952,
      "cas": 953,
      "fall": 954,
      "iv": 955,
      "scar": 956,
      "prepar": 957,
      "toddler": 958,
      "fountain": 959,
      "arms": 960,
      "tiful": 961,
      "gathered": 962,
      "guys": 963,
      "event": 964,
      "gym": 965,
      "beautiful": 966,
      "fil": 967,
      "hanging": 968,
      "away": 969,
      "ary": 970,
      "smo": 971,
      "prepare": 972,
      "leap": 973,
      "ould": 974,
      "graff": 975,
      "carri": 976,
      "preparing": 977,
      "mat": 978,
      "pr": 979,
      "xing": 980,
      "pear": 981,
      "racing": 982,
      "ballo": 983,
      "rope": 984,
      "ph": 985,
      "leaning": 986,
      "steps": 987,
      "ening": 988,
      "rap": 989,
      "take": 990,
      "offic": 991,
      "compu": 992,
      "sleeping": 993,
      "object": 994,
      "costume": 995,
      "attemp": 996,
      "make": 997,
      "short": 998,
      "forest": 999,
      "fishing": 1000,
      "graffiti": 1001,
      "does": 1002,
      "appear": 1003,
      "trail": 1004,
      "machine": 1005,
      "bat": 1006,
      "kis": 1007,
      "plaid": 1008,
      "sky": 1009,
      "shirtless": 1010,
      "rail": 1011,
      "dies": 1012,
      "adult": 1013,
      "stairs": 1014,
      "cup": 1015,
      "chairs": 1016,
      "bed": 1017,
      "ste": 1018,
      "bre": 1019,
      "sil": 1020,
      "ved": 1021,
      "try": 1022,
      "rocks": 1023,
      "squ": 1024,
      "tall": 1025,
      "bee": 1026,
      "gentle": 1027,
      "jers": 1028,
      "land": 1029,
      "ven": 1030,
      "wet": 1031,
      "ys": 1032,
      "ined": 1033,
      "cking": 1034,
      "too": 1035,
      "just": 1036,
      "sunny": 1037,
      "selling": 1038,
      "pract": 1039,
      "jersey": 1040,
      "bet": 1041,
      "ming": 1042,
      "vend": 1043,
      "lead": 1044,
      "stat": 1045,
      "list": 1046,
      "pot": 1047,
      "setting": 1048,
      "aged": 1049,
      "equ": 1050,
      "ise": 1051,
      "fris": 1052,
      "pose": 1053,
      "parade": 1054,
      "yclist": 1055,
      "volley": 1056,
      "net": 1057,
      "vi": 1058,
      "ati": 1059,
      "stance": 1060,
      "scarf": 1061,
      "happ": 1062,
      "match": 1063,
      "numb": 1064,
      "ps": 1065,
      "tch": 1066,
      "ari": 1067,
      "both": 1068,
      "time": 1069,
      "putting": 1070,
      "tent": 1071,
      "corner": 1072,
      "clu": 1073,
      "equip": 1074,
      "volleyball": 1075,
      "bor": 1076,
      "ron": 1077,
      "ery": 1078,
      "stop": 1079,
      "throwing": 1080,
      "pushing": 1081,
      "frisbee": 1082,
      "fet": 1083,
      "ial": 1084,
      "row": 1085,
      "ladies": 1086,
      "home": 1087,
      "blic": 1088,
      "ramp": 1089,
      "have": 1090,
      "public": 1091,
      "drink": 1092,
      "ween": 1093,
      "slide": 1094,
      "flag": 1095,
      "photograph": 1096,
      "between": 1097,
      "cra": 1098,
      "couch": 1099,
      "gar": 1100,
      "pick": 1101,
      "hicle": 1102,
      "show": 1103,
      "fruit": 1104,
      "vehicle": 1105,
      "scen": 1106,
      "laughing": 1107,
      "computer": 1108,
      "pad": 1109,
      "sch": 1110,
      "reads": 1111,
      "pictures": 1112,
      "cheer": 1113,
      "where": 1114,
      "instruments": 1115,
      "equipment": 1116,
      "bird": 1117,
      "glo": 1118,
      "ls": 1119,
      "should": 1120,
      "bikes": 1121,
      "prote": 1122,
      "school": 1123,
      "gold": 1124,
      "mul": 1125,
      "plastic": 1126,
      "ally": 1127,
      "party": 1128,
      "spor": 1129,
      "woods": 1130,
      "spea": 1131,
      "cowboy": 1132,
      "bottle": 1133,
      "mi": 1134,
      "mil": 1135,
      "reach": 1136,
      "which": 1137,
      "playground": 1138,
      "poses": 1139,
      "works": 1140,
      "concre": 1141,
      "spect": 1142,
      "sweatshirt": 1143,
      "concrete": 1144,
      "cig": 1145,
      "ure": 1146,
      "ward": 1147,
      "dock": 1148,
      "feren": 1149,
      "statue": 1150,
      "bel": 1151,
      "ctor": 1152,
      "din": 1153,
      "winter": 1154,
      "midair": 1155,
      "ggles": 1156,
      "emp": 1157,
      "ium": 1158,
      "wr": 1159,
      "what": 1160,
      "blo": 1161,
      "shovel": 1162,
      "number": 1163,
      "ini": 1164,
      "seated": 1165,
      "bucket": 1166,
      "veget": 1167,
      "skirt": 1168,
      "scope": 1169,
      "tat": 1170,
      "ators": 1171,
      "distance": 1172,
      "tte": 1173,
      "ins": 1174,
      "anim": 1175,
      "attire": 1176,
      "station": 1177,
      "ops": 1178,
      "place": 1179,
      "shes": 1180,
      "bags": 1181,
      "six": 1182,
      "vari": 1183,
      "left": 1184,
      "lad": 1185,
      "enter": 1186,
      "site": 1187,
      "beer": 1188,
      "rist": 1189,
      "right": 1190,
      "ligh": 1191,
      "wait": 1192,
      "slid": 1193,
      "musician": 1194,
      "cream": 1195,
      "flip": 1196,
      "cooking": 1197,
      "ger": 1198,
      "lined": 1199,
      "edge": 1200,
      "blan": 1201,
      "vests": 1202,
      "rider": 1203,
      "scre": 1204,
      "cutting": 1205,
      "turn": 1206,
      "kneel": 1207,
      "filled": 1208,
      "bare": 1209,
      "draw": 1210,
      "alley": 1211,
      "grill": 1212,
      "hot": 1213,
      "buildings": 1214,
      "cliff": 1215,
      "newsp": 1216,
      "pulling": 1217,
      "cture": 1218,
      "med": 1219,
      "mother": 1220,
      "ry": 1221,
      "let": 1222,
      "paint": 1223,
      "cigare": 1224,
      "vegeta": 1225,
      "tattoo": 1226,
      "pet": 1227,
      "wrest": 1228,
      "roof": 1229,
      "but": 1230,
      "skateboarder": 1231,
      "friends": 1232,
      "appears": 1233,
      "break": 1234,
      "practic": 1235,
      "ds": 1236,
      "showing": 1237,
      "bub": 1238,
      "few": 1239,
      "close": 1240,
      "horses": 1241,
      "mountains": 1242,
      "crossing": 1243,
      "instrument": 1244,
      "court": 1245,
      "spectators": 1246,
      "blanket": 1247,
      "pair": 1248,
      "ical": 1249,
      "cars": 1250,
      "fight": 1251,
      "bathing": 1252,
      "structure": 1253,
      "uses": 1254,
      "cut": 1255,
      "bearded": 1256,
      "elec": 1257,
      "ham": 1258,
      "ters": 1259,
      "wash": 1260,
      "rela": 1261,
      "len": 1262,
      "sty": 1263,
      "offe": 1264,
      "dresses": 1265,
      "concer": 1266,
      "nearby": 1267,
      "performs": 1268,
      "suits": 1269,
      "country": 1270,
      "electr": 1271,
      "iz": 1272,
      "see": 1273,
      "apron": 1274,
      "goal": 1275,
      "driving": 1276,
      "bowling": 1277,
      "flower": 1278,
      "yclists": 1279,
      "snowboarder": 1280,
      "carries": 1281,
      "concert": 1282,
      "wing": 1283,
      "res": 1284,
      "bull": 1285,
      "tial": 1286,
      "shore": 1287,
      "leaves": 1288,
      "offee": 1289,
      "coffee": 1290,
      "hood": 1291,
      "hik": 1292,
      "law": 1293,
      "tele": 1294,
      "rode": 1295,
      "sold": 1296,
      "bru": 1297,
      "key": 1298,
      "parked": 1299,
      "studen": 1300,
      "boots": 1301,
      "painted": 1302,
      "mud": 1303,
      "vendor": 1304,
      "various": 1305,
      "cigarette": 1306,
      "students": 1307,
      "mir": 1308,
      "vis": 1309,
      "hit": 1310,
      "elf": 1311,
      "railing": 1312,
      "younger": 1313,
      "tive": 1314,
      "indian": 1315,
      "goggles": 1316,
      "cake": 1317,
      "shot": 1318,
      "swims": 1319,
      "surfer": 1320,
      "smile": 1321,
      "display": 1322,
      "gentleman": 1323,
      "gun": 1324,
      "pitch": 1325,
      "wed": 1326,
      "arti": 1327,
      "talks": 1328,
      "martial": 1329,
      "flying": 1330,
      "drums": 1331,
      "smoking": 1332,
      "phones": 1333,
      "bunch": 1334,
      "fun": 1335,
      "lying": 1336,
      "spla": 1337,
      "arts": 1338,
      "gaz": 1339,
      "dire": 1340,
      "rocky": 1341,
      "eyes": 1342,
      "flags": 1343,
      "kicking": 1344,
      "fferen": 1345,
      "ist": 1346,
      "ight": 1347,
      "onlook": 1348,
      "coming": 1349,
      "tie": 1350,
      "parking": 1351,
      "differen": 1352,
      "jackets": 1353,
      "waves": 1354,
      "scoo": 1355,
      "cau": 1356,
      "safet": 1357,
      "audi": 1358,
      "swinging": 1359,
      "conversation": 1360,
      "prepares": 1361,
      "newspaper": 1362,
      "rodeo": 1363,
      "safety": 1364,
      "av": 1365,
      "fen": 1366,
      "nic": 1367,
      "por": 1368,
      "ats": 1369,
      "scul": 1370,
      "costumes": 1371,
      "case": 1372,
      "ivid": 1373,
      "gloves": 1374,
      "practicing": 1375,
      "different": 1376,
      "cy": 1377,
      "kay": 1378,
      "sed": 1379,
      "cement": 1380,
      "cleaning": 1381,
      "pres": 1382,
      "competition": 1383,
      "listening": 1384,
      "scene": 1385,
      "ladder": 1386,
      "say": 1387,
      "cha": 1388,
      "memb": 1389,
      "neck": 1390,
      "swe": 1391,
      "spra": 1392,
      "skateboarding": 1393,
      "staring": 1394,
      "mask": 1395,
      "items": 1396,
      "teenag": 1397,
      "happy": 1398,
      "sports": 1399,
      "onlookers": 1400,
      "ber": 1401,
      "ned": 1402,
      "zz": 1403,
      "rais": 1404,
      "meal": 1405,
      "individ": 1406,
      "check": 1407,
      "bicycles": 1408,
      "dry": 1409,
      "plat": 1410,
      "pile": 1411,
      "surfboard": 1412,
      "desk": 1413,
      "giving": 1414,
      "bikini": 1415,
      "balloon": 1416,
      "milit": 1417,
      "empty": 1418,
      "lawn": 1419,
      "audience": 1420,
      "individu": 1421,
      "cir": 1422,
      "ki": 1423,
      "ken": 1424,
      "ette": 1425,
      "among": 1426,
      "gets": 1427,
      "drinks": 1428,
      "leaps": 1429,
      "viol": 1430,
      "military": 1431,
      "cam": 1432,
      "card": 1433,
      "eth": 1434,
      "ered": 1435,
      "fing": 1436,
      "waters": 1437,
      "trad": 1438,
      "obser": 1439,
      "bowl": 1440,
      "gathering": 1441,
      "pointing": 1442,
      "silver": 1443,
      "sliding": 1444,
      "vegetables": 1445,
      "platform": 1446,
      "cers": 1447,
      "made": 1448,
      "nel": 1449,
      "sof": 1450,
      "iness": 1451,
      "before": 1452,
      "shoo": 1453,
      "ural": 1454,
      "streets": 1455,
      "feet": 1456,
      "athle": 1457,
      "competing": 1458,
      "biker": 1459,
      "facing": 1460,
      "counter": 1461,
      "chasing": 1462,
      "screen": 1463,
      "wedding": 1464,
      "pon": 1465,
      "stretch": 1466,
      "crouch": 1467,
      "business": 1468,
      "helmets": 1469,
      "huge": 1470,
      "speaking": 1471,
      "sled": 1472,
      "ton": 1473,
      "well": 1474,
      "sting": 1475,
      "ely": 1476,
      "bride": 1477,
      "father": 1478,
      "chef": 1479,
      "mmer": 1480,
      "tries": 1481,
      "teams": 1482,
      "surfing": 1483,
      "cano": 1484,
      "laptop": 1485,
      "classroom": 1486,
      "lights": 1487,
      "soldi": 1488,
      "sculp": 1489,
      "tradition": 1490,
      "bur": 1491,
      "ced": 1492,
      "gard": 1493,
      "pes": 1494,
      "que": 1495,
      "tun": 1496,
      "vide": 1497,
      "wrap": 1498,
      "ining": 1499,
      "ghting": 1500,
      "seen": 1501,
      "life": 1502,
      "fighting": 1503,
      "sings": 1504,
      "waits": 1505,
      "marath": 1506,
      "decor": 1507,
      "climbs": 1508,
      "purse": 1509,
      "produ": 1510,
      "sticks": 1511,
      "skier": 1512,
      "traditional": 1513,
      "marathon": 1514,
      "son": 1515,
      "shad": 1516,
      "urban": 1517,
      "part": 1518,
      "talk": 1519,
      "custo": 1520,
      "spec": 1521,
      "clown": 1522,
      "plane": 1523,
      "kissing": 1524,
      "animal": 1525,
      "musicians": 1526,
      "ien": 1527,
      "town": 1528,
      "trun": 1529,
      "stroller": 1530,
      "oper": 1531,
      "allow": 1532,
      "cover": 1533,
      "walkway": 1534,
      "throw": 1535,
      "skating": 1536,
      "camp": 1537,
      "same": 1538,
      "females": 1539,
      "writing": 1540,
      "cand": 1541,
      "har": 1542,
      "ked": 1543,
      "lf": 1544,
      "pat": 1545,
      "sup": 1546,
      "use": 1547,
      "val": 1548,
      "indoor": 1549,
      "christ": 1550,
      "hole": 1551,
      "runner": 1552,
      "partic": 1553,
      "diving": 1554,
      "sunset": 1555,
      "exam": 1556,
      "shoulder": 1557,
      "kneeling": 1558,
      "video": 1559,
      "hoo": 1560,
      "ia": 1561,
      "pen": 1562,
      "ror": 1563,
      "sort": 1564,
      "touch": 1565,
      "lebr": 1566,
      "ator": 1567,
      "blowing": 1568,
      "els": 1569,
      "waving": 1570,
      "golf": 1571,
      "chest": 1572,
      "swim": 1573,
      "bald": 1574,
      "gymna": 1575,
      "attempting": 1576,
      "scooter": 1577,
      "violin": 1578,
      "christmas": 1579,
      "gian": 1580,
      "lan": 1581,
      "rink": 1582,
      "leash": 1583,
      "makes": 1584,
      "overlooking": 1585,
      "tables": 1586,
      "cloth": 1587,
      "signs": 1588,
      "clou": 1589,
      "enjoy": 1590,
      "balan": 1591,
      "outfits": 1592,
      "resting": 1593,
      "course": 1594,
      "electric": 1595,
      "cat": 1596,
      "fin": 1597,
      "good": 1598,
      "leg": 1599,
      "chines": 1600,
      "adver": 1601,
      "celebr": 1602,
      "cuss": 1603,
      "officer": 1604,
      "cheerlead": 1605,
      "multic": 1606,
      "bubbles": 1607,
      "washing": 1608,
      "mirror": 1609,
      "artist": 1610,
      "says": 1611,
      "chinese": 1612,
      "advert": 1613,
      "cont": 1614,
      "farm": 1615,
      "ies": 1616,
      "min": 1617,
      "port": 1618,
      "ref": 1619,
      "leans": 1620,
      "atten": 1621,
      "stun": 1622,
      "lay": 1623,
      "tool": 1624,
      "ching": 1625,
      "brun": 1626,
      "fixing": 1627,
      "cafe": 1628,
      "collar": 1629,
      "rolling": 1630,
      "pier": 1631,
      "brightly": 1632,
      "faces": 1633,
      "foll": 1634,
      "prin": 1635,
      "balloons": 1636,
      "square": 1637,
      "giant": 1638,
      "ast": 1639,
      "del": 1640,
      "tack": 1641,
      "ert": 1642,
      "alone": 1643,
      "gro": 1644,
      "heav": 1645,
      "rub": 1646,
      "die": 1647,
      "helping": 1648,
      "micro": 1649,
      "foreground": 1650,
      "ession": 1651,
      "not": 1652,
      "umbrellas": 1653,
      "leather": 1654,
      "discuss": 1655,
      "teenage": 1656,
      "brunette": 1657,
      "able": 1658,
      "dau": 1659,
      "ges": 1660,
      "mers": 1661,
      "ners": 1662,
      "van": 1663,
      "vice": 1664,
      "repair": 1665,
      "ering": 1666,
      "leep": 1667,
      "legs": 1668,
      "stad": 1669,
      "chur": 1670,
      "asleep": 1671,
      "meat": 1672,
      "sea": 1673,
      "lies": 1674,
      "load": 1675,
      "headphones": 1676,
      "guard": 1677,
      "dancers": 1678,
      "plate": 1679,
      "ative": 1680,
      "canoe": 1681,
      "sculpture": 1682,
      "daught": 1683,
      "dra": 1684,
      "dish": 1685,
      "fts": 1686,
      "str": 1687,
      "string": 1688,
      "ese": 1689,
      "ched": 1690,
      "wears": 1691,
      "tail": 1692,
      "office": 1693,
      "trash": 1694,
      "doorway": 1695,
      "stuff": 1696,
      "ffic": 1697,
      "sandals": 1698,
      "swings": 1699,
      "slee": 1700,
      "passing": 1701,
      "falling": 1702,
      "prof": 1703,
      "officers": 1704,
      "drawing": 1705,
      "grocer": 1706,
      "stadium": 1707,
      "ddle": 1708,
      "ele": 1709,
      "fur": 1710,
      "hall": 1711,
      "ima": 1712,
      "lu": 1713,
      "olored": 1714,
      "hiking": 1715,
      "eng": 1716,
      "rol": 1717,
      "held": 1718,
      "accor": 1719,
      "most": 1720,
      "move": 1721,
      "sca": 1722,
      "heads": 1723,
      "shoe": 1724,
      "comple": 1725,
      "booth": 1726,
      "dirty": 1727,
      "toys": 1728,
      "musical": 1729,
      "skiing": 1730,
      "photographer": 1731,
      "block": 1732,
      "barefoot": 1733,
      "hammer": 1734,
      "garden": 1735,
      "particip": 1736,
      "multicolored": 1737,
      "church": 1738,
      "accordi": 1739,
      "fan": 1740,
      "kn": 1741,
      "kar": 1742,
      "low": 1743,
      "ot": 1744,
      "inclu": 1745,
      "mance": 1746,
      "teach": 1747,
      "formance": 1748,
      "throws": 1749,
      "singer": 1750,
      "traffic": 1751,
      "males": 1752,
      "performance": 1753,
      "spend": 1754,
      "picking": 1755,
      "reaching": 1756,
      "finish": 1757,
      "accordion": 1758,
      "don": 1759,
      "fra": 1760,
      "hou": 1761,
      "hear": 1762,
      "kha": 1763,
      "py": 1764,
      "pond": 1765,
      "pati": 1766,
      "stor": 1767,
      "straw": 1768,
      "laun": 1769,
      "elves": 1770,
      "shallow": 1771,
      "clean": 1772,
      "digging": 1773,
      "flu": 1774,
      "drum": 1775,
      "below": 1776,
      "relaxing": 1777,
      "members": 1778,
      "daughter": 1779,
      "cts": 1780,
      "cul": 1781,
      "how": 1782,
      "ige": 1783,
      "nap": 1784,
      "pup": 1785,
      "pour": 1786,
      "tou": 1787,
      "atop": 1788,
      "lab": 1789,
      "pea": 1790,
      "seat": 1791,
      "upside": 1792,
      "fest": 1793,
      "moving": 1794,
      "deep": 1795,
      "bicyclist": 1796,
      "stud": 1797,
      "eye": 1798,
      "hugging": 1799,
      "catching": 1800,
      "catches": 1801,
      "passes": 1802,
      "gives": 1803,
      "direction": 1804,
      "soft": 1805,
      "tunnel": 1806,
      "microscope": 1807,
      "bro": 1808,
      "cri": 1809,
      "ctive": 1810,
      "dun": 1811,
      "fair": 1812,
      "ness": 1813,
      "ature": 1814,
      "step": 1815,
      "allen": 1816,
      "ches": 1817,
      "pede": 1818,
      "robe": 1819,
      "hoop": 1820,
      "bly": 1821,
      "beige": 1822,
      "shows": 1823,
      "cold": 1824,
      "balls": 1825,
      "post": 1826,
      "here": 1827,
      "paved": 1828,
      "sleeps": 1829,
      "flies": 1830,
      "leaping": 1831,
      "present": 1832,
      "sweeping": 1833,
      "stunt": 1834,
      "aster": 1835,
      "bin": 1836,
      "gate": 1837,
      "hur": 1838,
      "ater": 1839,
      "ens": 1840,
      "ital": 1841,
      "teeth": 1842,
      "hose": 1843,
      "lots": 1844,
      "skin": 1845,
      "scaff": 1846,
      "flat": 1847,
      "speed": 1848,
      "coats": 1849,
      "desert": 1850,
      "conversing": 1851,
      "wards": 1852,
      "swimsuit": 1853,
      "splashing": 1854,
      "kayak": 1855,
      "chain": 1856,
      "individuals": 1857,
      "circle": 1858,
      "trunks": 1859,
      "hoodie": 1860,
      "karate": 1861,
      "pedestri": 1862,
      "fre": 1863,
      "igh": 1864,
      "lone": 1865,
      "these": 1866,
      "stack": 1867,
      "cho": 1868,
      "alls": 1869,
      "racket": 1870,
      "ried": 1871,
      "stream": 1872,
      "appro": 1873,
      "neath": 1874,
      "formal": 1875,
      "contain": 1876,
      "closed": 1877,
      "sport": 1878,
      "fully": 1879,
      "deck": 1880,
      "jogging": 1881,
      "sax": 1882,
      "underneath": 1883,
      "wea": 1884,
      "suspend": 1885,
      "exc": 1886,
      "balcon": 1887,
      "points": 1888,
      "plants": 1889,
      "padd": 1890,
      "wrestling": 1891,
      "telescope": 1892,
      "customers": 1893,
      "covering": 1894,
      "heavy": 1895,
      "sleeve": 1896,
      "bb": 1897,
      "bun": 1898,
      "cyclist": 1899,
      "fting": 1900,
      "fant": 1901,
      "lers": 1902,
      "wine": 1903,
      "thems": 1904,
      "without": 1905,
      "ophone": 1906,
      "opposing": 1907,
      "gra": 1908,
      "local": 1909,
      "magaz": 1910,
      "carni": 1911,
      "rug": 1912,
      "gage": 1913,
      "clear": 1914,
      "tramp": 1915,
      "dances": 1916,
      "oline": 1917,
      "project": 1918,
      "hula": 1919,
      "cane": 1920,
      "opening": 1921,
      "curly": 1922,
      "shoulders": 1923,
      "hiker": 1924,
      "spray": 1925,
      "including": 1926,
      "themselves": 1927,
      "carnival": 1928,
      "ka": 1929,
      "kind": 1930,
      "mural": 1931,
      "pin": 1932,
      "tong": 1933,
      "zed": 1934,
      "infant": 1935,
      "atta": 1936,
      "entr": 1937,
      "ork": 1938,
      "ung": 1939,
      "taken": 1940,
      "runners": 1941,
      "crying": 1942,
      "bath": 1943,
      "moto": 1944,
      "wooded": 1945,
      "ggling": 1946,
      "tricks": 1947,
      "crosswalk": 1948,
      "nav": 1949,
      "sheet": 1950,
      "must": 1951,
      "pulled": 1952,
      "makeup": 1953,
      "matching": 1954,
      "dinner": 1955,
      "produce": 1956,
      "trampoline": 1957,
      "bra": 1958,
      "center": 1959,
      "fly": 1960,
      "lunch": 1961,
      "spot": 1962,
      "ina": 1963,
      "rece": 1964,
      "stroll": 1965,
      "sewing": 1966,
      "tub": 1967,
      "picnic": 1968,
      "bicyclists": 1969,
      "performer": 1970,
      "surface": 1971,
      "dles": 1972,
      "books": 1973,
      "firefight": 1974,
      "driver": 1975,
      "nose": 1976,
      "vely": 1977,
      "knee": 1978,
      "attempts": 1979,
      "brush": 1980,
      "athlete": 1981,
      "gymnast": 1982,
      "stuffed": 1983,
      "profession": 1984,
      "festiv": 1985,
      "drop": 1986,
      "oly": 1987,
      "pit": 1988,
      "press": 1989,
      "sid": 1990,
      "sco": 1991,
      "ual": 1992,
      "inning": 1993,
      "third": 1994,
      "hims": 1995,
      "lays": 1996,
      "ower": 1997,
      "orien": 1998,
      "blouse": 1999,
      "bever": 2000,
      "log": 2001,
      "goes": 2002,
      "pushes": 2003,
      "help": 2004,
      "compan": 2005,
      "sandy": 2006,
      "slope": 2007,
      "boxes": 2008,
      "chases": 2009,
      "botto": 2010,
      "club": 2011,
      "button": 2012,
      "style": 2013,
      "hikers": 2014,
      "pitcher": 2015,
      "teenagers": 2016,
      "cheerleaders": 2017,
      "softball": 2018,
      "pedestrians": 2019,
      "approach": 2020,
      "balcony": 2021,
      "himself": 2022,
      "oriental": 2023,
      "care": 2024,
      "gon": 2025,
      "hal": 2026,
      "jam": 2027,
      "lid": 2028,
      "mop": 2029,
      "mate": 2030,
      "pal": 2031,
      "san": 2032,
      "war": 2033,
      "wel": 2034,
      "inspec": 2035,
      "ited": 2036,
      "ares": 2037,
      "icycle": 2038,
      "ship": 2039,
      "seven": 2040,
      "lift": 2041,
      "waterfall": 2042,
      "skis": 2043,
      "sprink": 2044,
      "put": 2045,
      "puts": 2046,
      "device": 2047,
      "bent": 2048,
      "type": 2049,
      "design": 2050,
      "pulls": 2051,
      "staircase": 2052,
      "rollerbla": 2053,
      "steep": 2054,
      "multi": 2055,
      "speaks": 2056,
      "advertise": 2057,
      "festival": 2058,
      "da": 2059,
      "fallen": 2060,
      "ns": 2061,
      "vil": 2062,
      "warm": 2063,
      "angs": 2064,
      "atting": 2065,
      "stool": 2066,
      "irts": 2067,
      "ashi": 2068,
      "ics": 2069,
      "robes": 2070,
      "shar": 2071,
      "podi": 2072,
      "overalls": 2073,
      "travel": 2074,
      "puddle": 2075,
      "marching": 2076,
      "dancer": 2077,
      "cast": 2078,
      "boats": 2079,
      "enjoys": 2080,
      "drives": 2081,
      "evening": 2082,
      "shaking": 2083,
      "gentlemen": 2084,
      "wetsuit": 2085,
      "golden": 2086,
      "keyboard": 2087,
      "grocery": 2088,
      "scape": 2089,
      "fresh": 2090,
      "cted": 2091,
      "fashi": 2092,
      "hangs": 2093,
      "jap": 2094,
      "mound": 2095,
      "nice": 2096,
      "native": 2097,
      "pian": 2098,
      "sy": 2099,
      "ars": 2100,
      "chal": 2101,
      "grind": 2102,
      "vement": 2103,
      "apers": 2104,
      "figu": 2105,
      "tracks": 2106,
      "headed": 2107,
      "jean": 2108,
      "fast": 2109,
      "ledge": 2110,
      "barbe": 2111,
      "foreign": 2112,
      "ages": 2113,
      "windows": 2114,
      "sheep": 2115,
      "shaving": 2116,
      "kicks": 2117,
      "curb": 2118,
      "garb": 2119,
      "birds": 2120,
      "protective": 2121,
      "porch": 2122,
      "teenager": 2123,
      "fingers": 2124,
      "wrapped": 2125,
      "cloudy": 2126,
      "khaki": 2127,
      "laundry": 2128,
      "pouring": 2129,
      "japan": 2130,
      "bit": 2131,
      "bread": 2132,
      "cting": 2133,
      "ei": 2134,
      "emer": 2135,
      "ggage": 2136,
      "ker": 2137,
      "mess": 2138,
      "za": 2139,
      "enga": 2140,
      "oppo": 2141,
      "arena": 2142,
      "tex": 2143,
      "airplane": 2144,
      "polo": 2145,
      "poles": 2146,
      "apart": 2147,
      "backyard": 2148,
      "feed": 2149,
      "moves": 2150,
      "tran": 2151,
      "checking": 2152,
      "saw": 2153,
      "sale": 2154,
      "colors": 2155,
      "pipe": 2156,
      "chase": 2157,
      "protest": 2158,
      "reaches": 2159,
      "blocks": 2160,
      "shoveling": 2161,
      "shooting": 2162,
      "soldiers": 2163,
      "luggage": 2164,
      "saxophone": 2165,
      "paddling": 2166,
      "attached": 2167,
      "palm": 2168,
      "podium": 2169,
      "fashion": 2170,
      "piano": 2171,
      "chalk": 2172,
      "opposite": 2173,
      "ged": 2174,
      "pill": 2175,
      "swor": 2176,
      "tar": 2177,
      "vac": 2178,
      "was": 2179,
      "york": 2180,
      "inflat": 2181,
      "recor": 2182,
      "arrow": 2183,
      "oufla": 2184,
      "ising": 2185,
      "itor": 2186,
      "oppon": 2187,
      "grab": 2188,
      "ears": 2189,
      "sition": 2190,
      "rack": 2191,
      "raft": 2192,
      "oney": 2193,
      "bran": 2194,
      "bric": 2195,
      "poss": 2196,
      "poster": 2197,
      "position": 2198,
      "fix": 2199,
      "skirts": 2200,
      "pajam": 2201,
      "pavement": 2202,
      "bage": 2203,
      "cones": 2204,
      "flor": 2205,
      "bandan": 2206,
      "rollers": 2207,
      "wheelchair": 2208,
      "denim": 2209,
      "kiss": 2210,
      "railroad": 2211,
      "goalie": 2212,
      "fenced": 2213,
      "camoufla": 2214,
      "soldier": 2215,
      "balancing": 2216,
      "image": 2217,
      "rugby": 2218,
      "tongue": 2219,
      "inflatable": 2220,
      "camouflage": 2221,
      "aks": 2222,
      "bm": 2223,
      "ci": 2224,
      "cool": 2225,
      "cyclists": 2226,
      "ef": 2227,
      "fans": 2228,
      "flight": 2229,
      "sal": 2230,
      "tro": 2231,
      "refe": 2232,
      "wild": 2233,
      "escal": 2234,
      "char": 2235,
      "meet": 2236,
      "beam": 2237,
      "shade": 2238,
      "buying": 2239,
      "juggling": 2240,
      "riders": 2241,
      "tractor": 2242,
      "eats": 2243,
      "tops": 2244,
      "married": 2245,
      "fabric": 2246,
      "walls": 2247,
      "jockey": 2248,
      "sail": 2249,
      "speak": 2250,
      "tyard": 2251,
      "floating": 2252,
      "motorcycles": 2253,
      "bikers": 2254,
      "courtyard": 2255,
      "laughs": 2256,
      "happily": 2257,
      "entertain": 2258,
      "ized": 2259,
      "raised": 2260,
      "finger": 2261,
      "super": 2262,
      "tools": 2263,
      "frame": 2264,
      "student": 2265,
      "skinned": 2266,
      "mustach": 2267,
      "professional": 2268,
      "bottom": 2269,
      "rollersk": 2270,
      "amp": 2271,
      "bble": 2272,
      "cus": 2273,
      "fis": 2274,
      "fir": 2275,
      "free": 2276,
      "fold": 2277,
      "ging": 2278,
      "olding": 2279,
      "pig": 2280,
      "spo": 2281,
      "vic": 2282,
      "wk": 2283,
      "you": 2284,
      "onic": 2285,
      "oustic": 2286,
      "toss": 2287,
      "ids": 2288,
      "gril": 2289,
      "groom": 2290,
      "doctor": 2291,
      "rac": 2292,
      "shown": 2293,
      "rists": 2294,
      "com": 2295,
      "coach": 2296,
      "socks": 2297,
      "live": 2298,
      "living": 2299,
      "bucking": 2300,
      "carpet": 2301,
      "backwards": 2302,
      "tube": 2303,
      "action": 2304,
      "acoustic": 2305,
      "tory": 2306,
      "colle": 2307,
      "plant": 2308,
      "towel": 2309,
      "eved": 2310,
      "marketplace": 2311,
      "paren": 2312,
      "carriage": 2313,
      "jerseys": 2314,
      "garbage": 2315,
      "cheering": 2316,
      "mix": 2317,
      "bubble": 2318,
      "closeup": 2319,
      "relax": 2320,
      "stretched": 2321,
      "touching": 2322,
      "goods": 2323,
      "peace": 2324,
      "hurdle": 2325,
      "scaffolding": 2326,
      "suspended": 2327,
      "excited": 2328,
      "santa": 2329,
      "multiple": 2330,
      "either": 2331,
      "pajamas": 2332,
      "floral": 2333,
      "bandanna": 2334,
      "boun": 2335,
      "cue": 2336,
      "casian": 2337,
      "egg": 2338,
      "hay": 2339,
      "hones": 2340,
      "spa": 2341,
      "yo": 2342,
      "invol": 2343,
      "ane": 2344,
      "thumb": 2345,
      "orn": 2346,
      "chop": 2347,
      "plaza": 2348,
      "bling": 2349,
      "ribb": 2350,
      "airport": 2351,
      "main": 2352,
      "achu": 2353,
      "parachu": 2354,
      "snack": 2355,
      "act": 2356,
      "acting": 2357,
      "mom": 2358,
      "model": 2359,
      "scu": 2360,
      "stacle": 2361,
      "ations": 2362,
      "climber": 2363,
      "paints": 2364,
      "underwater": 2365,
      "barrel": 2366,
      "corn": 2367,
      "welding": 2368,
      "summer": 2369,
      "sleeved": 2370,
      "pige": 2371,
      "obstacle": 2372,
      "desc": 2373,
      "serving": 2374,
      "backpacks": 2375,
      "bank": 2376,
      "stove": 2377,
      "landscape": 2378,
      "sporting": 2379,
      "dining": 2380,
      "animals": 2381,
      "german": 2382,
      "kneels": 2383,
      "hooded": 2384,
      "caught": 2385,
      "caucasian": 2386,
      "athletic": 2387,
      "magazine": 2388,
      "recei": 2389,
      "olymp": 2390,
      "half": 2391,
      "advertisement": 2392,
      "japanese": 2393,
      "escalator": 2394,
      "fisher": 2395,
      "cling": 2396,
      "easter": 2397,
      "gas": 2398,
      "hy": 2399,
      "mor": 2400,
      "money": 2401,
      "oc": 2402,
      "youth": 2403,
      "ze": 2404,
      "rests": 2405,
      "erc": 2406,
      "orchest": 2407,
      "iron": 2408,
      "grand": 2409,
      "cere": 2410,
      "mpet": 2411,
      "liqu": 2412,
      "amuse": 2413,
      "loc": 2414,
      "apple": 2415,
      "neon": 2416,
      "thrown": 2417,
      "tery": 2418,
      "dio": 2419,
      "acti": 2420,
      "mobi": 2421,
      "hawk": 2422,
      "bending": 2423,
      "ropes": 2424,
      "ffy": 2425,
      "sandwi": 2426,
      "weight": 2427,
      "trumpet": 2428,
      "drive": 2429,
      "muzz": 2430,
      "polka": 2431,
      "shaw": 2432,
      "shaped": 2433,
      "vehicles": 2434,
      "seems": 2435,
      "brushing": 2436,
      "neckla": 2437,
      "checkered": 2438,
      "individual": 2439,
      "pony": 2440,
      "decorated": 2441,
      "operating": 2442,
      "candy": 2443,
      "harness": 2444,
      "examining": 2445,
      "participating": 2446,
      "teacher": 2447,
      "gravel": 2448,
      "bmx": 2449,
      "referee": 2450,
      "grilling": 2451,
      "orchestra": 2452,
      "amusement": 2453,
      "bir": 2454,
      "cone": 2455,
      "fle": 2456,
      "hound": 2457,
      "jung": 2458,
      "pop": 2459,
      "pil": 2460,
      "pine": 2461,
      "rout": 2462,
      "rowing": 2463,
      "twi": 2464,
      "zer": 2465,
      "thin": 2466,
      "only": 2467,
      "hitting": 2468,
      "atv": 2469,
      "wire": 2470,
      "wide": 2471,
      "pee": 2472,
      "doll": 2473,
      "gestu": 2474,
      "racer": 2475,
      "beg": 2476,
      "shed": 2477,
      "shep": 2478,
      "ilt": 2479,
      "map": 2480,
      "neigh": 2481,
      "heels": 2482,
      "bathr": 2483,
      "things": 2484,
      "wagon": 2485,
      "headscarf": 2486,
      "haircut": 2487,
      "jewel": 2488,
      "studio": 2489,
      "benches": 2490,
      "sets": 2491,
      "exerc": 2492,
      "sticking": 2493,
      "passeng": 2494,
      "dump": 2495,
      "compete": 2496,
      "turning": 2497,
      "boxing": 2498,
      "attempt": 2499,
      "practice": 2500,
      "photographs": 2501,
      "craft": 2502,
      "muddy": 2503,
      "vision": 2504,
      "presen": 2505,
      "crouches": 2506,
      "patter": 2507,
      "reflec": 2508,
      "print": 2509,
      "hallway": 2510,
      "knit": 2511,
      "heart": 2512,
      "tourists": 2513,
      "presentation": 2514,
      "firefighters": 2515,
      "sharing": 2516,
      "barbecue": 2517,
      "feeding": 2518,
      "opponent": 2519,
      "possi": 2520,
      "scuba": 2521,
      "mobile": 2522,
      "jungle": 2523,
      "passengers": 2524,
      "ais": 2525,
      "bill": 2526,
      "ech": 2527,
      "emb": 2528,
      "eight": 2529,
      "gan": 2530,
      "nur": 2531,
      "prop": 2532,
      "range": 2533,
      "sack": 2534,
      "sink": 2535,
      "wad": 2536,
      "xi": 2537,
      "yhound": 2538,
      "iny": 2539,
      "inery": 2540,
      "inters": 2541,
      "stones": 2542,
      "also": 2543,
      "order": 2544,
      "etrack": 2545,
      "come": 2546,
      "comm": 2547,
      "ceiling": 2548,
      "baller": 2549,
      "ility": 2550,
      "groups": 2551,
      "herd": 2552,
      "tile": 2553,
      "keep": 2554,
      "greyhound": 2555,
      "jumpsuit": 2556,
      "rench": 2557,
      "cleans": 2558,
      "crash": 2559,
      "tum": 2560,
      "trop": 2561,
      "guitars": 2562,
      "ggy": 2563,
      "gged": 2564,
      "skateboards": 2565,
      "speech": 2566,
      "bars": 2567,
      "motorcyclist": 2568,
      "sized": 2569,
      "leaf": 2570,
      "pull": 2571,
      "ously": 2572,
      "machinery": 2573,
      "surrounding": 2574,
      "start": 2575,
      "policeman": 2576,
      "drummer": 2577,
      "viewing": 2578,
      "snowboarding": 2579,
      "cook": 2580,
      "garage": 2581,
      "fruits": 2582,
      "slides": 2583,
      "turns": 2584,
      "ethnic": 2585,
      "loading": 2586,
      "eleph": 2587,
      "patio": 2588,
      "motocross": 2589,
      "navy": 2590,
      "figure": 2591,
      "sword": 2592,
      "mustache": 2593,
      "racetrack": 2594,
      "sandwich": 2595,
      "bathroom": 2596,
      "ahead": 2597,
      "aqu": 2598,
      "cess": 2599,
      "dread": 2600,
      "ext": 2601,
      "ection": 2602,
      "hers": 2603,
      "if": 2604,
      "ience": 2605,
      "moun": 2606,
      "mall": 2607,
      "nas": 2608,
      "num": 2609,
      "narrow": 2610,
      "rough": 2611,
      "spar": 2612,
      "song": 2613,
      "erial": 2614,
      "aters": 2615,
      "lamp": 2616,
      "itten": 2617,
      "oping": 2618,
      "test": 2619,
      "hosp": 2620,
      "blow": 2621,
      "rier": 2622,
      "seum": 2623,
      "tag": 2624,
      "bushes": 2625,
      "loy": 2626,
      "locks": 2627,
      "brow": 2628,
      "great": 2629,
      "boardwalk": 2630,
      "headband": 2631,
      "ways": 2632,
      "jects": 2633,
      "puck": 2634,
      "surg": 2635,
      "cape": 2636,
      "baskets": 2637,
      "horseback": 2638,
      "exhi": 2639,
      "nail": 2640,
      "swimmer": 2641,
      "drill": 2642,
      "museum": 2643,
      "hillside": 2644,
      "newly": 2645,
      "leaving": 2646,
      "sells": 2647,
      "smoke": 2648,
      "vendors": 2649,
      "borhood": 2650,
      "stopped": 2651,
      "medical": 2652,
      "tattooed": 2653,
      "petting": 2654,
      "member": 2655,
      "observe": 2656,
      "shoot": 2657,
      "crouching": 2658,
      "indoors": 2659,
      "lane": 2660,
      "discussion": 2661,
      "fancy": 2662,
      "cricket": 2663,
      "dune": 2664,
      "entrance": 2665,
      "beverage": 2666,
      "villa": 2667,
      "first": 2668,
      "college": 2669,
      "eastern": 2670,
      "ceremon": 2671,
      "birth": 2672,
      "routine": 2673,
      "neighborhood": 2674,
      "possibly": 2675,
      "intersection": 2676,
      "herself": 2677,
      "hospital": 2678,
      "cru": 2679,
      "clap": 2680,
      "clay": 2681,
      "loung": 2682,
      "mel": 2683,
      "mly": 2684,
      "oon": 2685,
      "tes": 2686,
      "strap": 2687,
      "labor": 2688,
      "enger": 2689,
      "dot": 2690,
      "hoops": 2691,
      "cobble": 2692,
      "seats": 2693,
      "buy": 2694,
      "outstretched": 2695,
      "tight": 2696,
      "skates": 2697,
      "cond": 2698,
      "condu": 2699,
      "spi": 2700,
      "maroon": 2701,
      "odd": 2702,
      "guitarist": 2703,
      "helps": 2704,
      "uniformed": 2705,
      "float": 2706,
      "crew": 2707,
      "microphones": 2708,
      "pizz": 2709,
      "pipes": 2710,
      "hugs": 2711,
      "army": 2712,
      "ills": 2713,
      "wheels": 2714,
      "folding": 2715,
      "silhou": 2716,
      "squatting": 2717,
      "nets": 2718,
      "crafts": 2719,
      "bottles": 2720,
      "mixing": 2721,
      "ference": 2722,
      "buckets": 2723,
      "funny": 2724,
      "fencing": 2725,
      "cardboard": 2726,
      "celebrating": 2727,
      "rubber": 2728,
      "dishes": 2729,
      "tails": 2730,
      "mostly": 2731,
      "complete": 2732,
      "patient": 2733,
      "puppy": 2734,
      "choir": 2735,
      "container": 2736,
      "ornate": 2737,
      "shepherd": 2738,
      "birthday": 2739,
      "aw": 2740,
      "aking": 2741,
      "bass": 2742,
      "fell": 2743,
      "gall": 2744,
      "kite": 2745,
      "lines": 2746,
      "nit": 2747,
      "os": 2748,
      "pri": 2749,
      "patch": 2750,
      "punch": 2751,
      "rural": 2752,
      "tour": 2753,
      "intent": 2754,
      "lection": 2755,
      "stra": 2756,
      "stares": 2757,
      "wife": 2758,
      "cked": 2759,
      "tel": 2760,
      "tered": 2761,
      "blows": 2762,
      "bean": 2763,
      "lip": 2764,
      "libr": 2765,
      "bul": 2766,
      "amid": 2767,
      "broom": 2768,
      "tially": 2769,
      "carving": 2770,
      "paras": 2771,
      "backs": 2772,
      "formation": 2773,
      "conference": 2774,
      "handstand": 2775,
      "more": 2776,
      "moment": 2777,
      "mohawk": 2778,
      "spinning": 2779,
      "pump": 2780,
      "derby": 2781,
      "doors": 2782,
      "dead": 2783,
      "demon": 2784,
      "flops": 2785,
      "colum": 2786,
      "ends": 2787,
      "chee": 2788,
      "stripes": 2789,
      "quet": 2790,
      "cuts": 2791,
      "storefront": 2792,
      "coloring": 2793,
      "firetruck": 2794,
      "bowls": 2795,
      "balance": 2796,
      "simil": 2797,
      "pieces": 2798,
      "item": 2799,
      "calf": 2800,
      "gency": 2801,
      "merch": 2802,
      "focus": 2803,
      "smokes": 2804,
      "leading": 2805,
      "born": 2806,
      "scenery": 2807,
      "belt": 2808,
      "employ": 2809,
      "flipping": 2810,
      "vegetable": 2811,
      "tattoos": 2812,
      "spraying": 2813,
      "stretching": 2814,
      "control": 2815,
      "furnit": 2816,
      "tourist": 2817,
      "sleeveless": 2818,
      "inspecting": 2819,
      "grinding": 2820,
      "apartment": 2821,
      "vacu": 2822,
      "comfor": 2823,
      "space": 2824,
      "ribbon": 2825,
      "fisherman": 2826,
      "activ": 2827,
      "reflective": 2828,
      "dreadlocks": 2829,
      "library": 2830,
      "demonstr": 2831,
      "similar": 2832,
      "employe": 2833,
      "furniture": 2834,
      "bing": 2835,
      "bould": 2836,
      "clad": 2837,
      "eu": 2838,
      "eur": 2839,
      "jet": 2840,
      "lond": 2841,
      "my": 2842,
      "rons": 2843,
      "sad": 2844,
      "vo": 2845,
      "theater": 2846,
      "arch": 2847,
      "organ": 2848,
      "ident": 2849,
      "tee": 2850,
      "hotel": 2851,
      "unicycle": 2852,
      "races": 2853,
      "ghts": 2854,
      "cot": 2855,
      "seas": 2856,
      "chick": 2857,
      "ilts": 2858,
      "lifting": 2859,
      "bush": 2860,
      "ama": 2861,
      "bris": 2862,
      "ties": 2863,
      "tied": 2864,
      "partially": 2865,
      "crane": 2866,
      "overhead": 2867,
      "boards": 2868,
      "dimly": 2869,
      "moder": 2870,
      "peri": 2871,
      "spread": 2872,
      "got": 2873,
      "horn": 2874,
      "pret": 2875,
      "plu": 2876,
      "motorbike": 2877,
      "objects": 2878,
      "name": 2879,
      "naked": 2880,
      "balding": 2881,
      "dust": 2882,
      "duck": 2883,
      "nighttime": 2884,
      "stairway": 2885,
      "factory": 2886,
      "banner": 2887,
      "rainy": 2888,
      "starting": 2889,
      "gymnas": 2890,
      "computers": 2891,
      "batter": 2892,
      "listens": 2893,
      "turned": 2894,
      "letes": 2895,
      "television": 2896,
      "raises": 2897,
      "sofa": 2898,
      "chefs": 2899,
      "candles": 2900,
      "gymnastic": 2901,
      "balances": 2902,
      "following": 2903,
      "discussing": 2904,
      "engine": 2905,
      "houses": 2906,
      "fluffy": 2907,
      "broken": 2908,
      "approaching": 2909,
      "moped": 2910,
      "castle": 2911,
      "emergency": 2912,
      "folded": 2913,
      "parents": 2914,
      "pigeons": 2915,
      "jewelry": 2916,
      "numer": 2917,
      "pizza": 2918,
      "intently": 2919,
      "europe": 2920,
      "london": 2921,
      "gymnasium": 2922,
      "12": 2923,
      "20": 2924,
      "cla": 2925,
      "cop": 2926,
      "cel": 2927,
      "dough": 2928,
      "eath": 2929,
      "fu": 2930,
      "gam": 2931,
      "ior": 2932,
      "ible": 2933,
      "ja": 2934,
      "ky": 2935,
      "kni": 2936,
      "may": 2937,
      "ocul": 2938,
      "papers": 2939,
      "sor": 2940,
      "sne": 2941,
      "slight": 2942,
      "ump": 2943,
      "zen": 2944,
      "inte": 2945,
      "lear": 2946,
      "hits": 2947,
      "stro": 2948,
      "tech": 2949,
      "ooms": 2950,
      "ica": 2951,
      "rod": 2952,
      "unk": 2953,
      "redheaded": 2954,
      "adjust": 2955,
      "share": 2956,
      "rick": 2957,
      "forward": 2958,
      "sem": 2959,
      "secur": 2960,
      "taxi": 2961,
      "lie": 2962,
      "bystand": 2963,
      "downtown": 2964,
      "pod": 2965,
      "world": 2966,
      "assist": 2967,
      "bleach": 2968,
      "terrain": 2969,
      "smaller": 2970,
      "motion": 2971,
      "ions": 2972,
      "push": 2973,
      "beneath": 2974,
      "cameras": 2975,
      "job": 2976,
      "ending": 2977,
      "carry": 2978,
      "mmed": 2979,
      "plates": 2980,
      "barber": 2981,
      "photos": 2982,
      "teammate": 2983,
      "crosses": 2984,
      "pies": 2985,
      "fireman": 2986,
      "training": 2987,
      "trucks": 2988,
      "swimmers": 2989,
      "flowered": 2990,
      "catcher": 2991,
      "note": 2992,
      "newborn": 2993,
      "shakes": 2994,
      "shaved": 2995,
      "rainbow": 2996,
      "called": 2997,
      "stomach": 2998,
      "point": 2999,
      "material": 3000,
      "trailer": 3001,
      "pottery": 3002,
      "borne": 3003,
      "paddle": 3004,
      "protesting": 3005,
      "shovels": 3006,
      "scream": 3007,
      "wrestle": 3008,
      "electronic": 3009,
      "raising": 3010,
      "amongst": 3011,
      "camel": 3012,
      "waterski": 3013,
      "observing": 3014,
      "shades": 3015,
      "advertising": 3016,
      "follows": 3017,
      "participate": 3018,
      "directions": 3019,
      "binocul": 3020,
      "engaged": 3021,
      "branch": 3022,
      "spoon": 3023,
      "liquid": 3024,
      "necklace": 3025,
      "ballerina": 3026,
      "elephant": 3027,
      "village": 3028,
      "lounging": 3029,
      "numerous": 3030,
      "security": 3031,
      "bad": 3032,
      "bound": 3033,
      "bby": 3034,
      "bell": 3035,
      "cree": 3036,
      "dad": 3037,
      "eled": 3038,
      "far": 3039,
      "fted": 3040,
      "gers": 3041,
      "gown": 3042,
      "ire": 3043,
      "ive": 3044,
      "iff": 3045,
      "lst": 3046,
      "loun": 3047,
      "mc": 3048,
      "mis": 3049,
      "mates": 3050,
      "mini": 3051,
      "nam": 3052,
      "nature": 3053,
      "om": 3054,
      "oes": 3055,
      "pping": 3056,
      "rows": 3057,
      "sen": 3058,
      "sely": 3059,
      "win": 3060,
      "zing": 3061,
      "ants": 3062,
      "thus": 3063,
      "attra": 3064,
      "ately": 3065,
      "enthus": 3066,
      "ites": 3067,
      "itors": 3068,
      "whilst": 3069,
      "peering": 3070,
      "eds": 3071,
      "blur": 3072,
      "eling": 3073,
      "ador": 3074,
      "admir": 3075,
      "shining": 3076,
      "airborne": 3077,
      "ticket": 3078,
      "upon": 3079,
      "poor": 3080,
      "biking": 3081,
      "fea": 3082,
      "congre": 3083,
      "consi": 3084,
      "dig": 3085,
      "angel": 3086,
      "tricycle": 3087,
      "fake": 3088,
      "tents": 3089,
      "performers": 3090,
      "social": 3091,
      "quick": 3092,
      "shops": 3093,
      "proje": 3094,
      "tower": 3095,
      "aud": 3096,
      "express": 3097,
      "hug": 3098,
      "firemen": 3099,
      "passenger": 3100,
      "caps": 3101,
      "athletes": 3102,
      "skiers": 3103,
      "akers": 3104,
      "gift": 3105,
      "machines": 3106,
      "wheelbar": 3107,
      "interacting": 3108,
      "rings": 3109,
      "calm": 3110,
      "converse": 3111,
      "casual": 3112,
      "scarves": 3113,
      "steel": 3114,
      "silly": 3115,
      "leads": 3116,
      "homeless": 3117,
      "photographed": 3118,
      "glove": 3119,
      "izing": 3120,
      "guns": 3121,
      "splashes": 3122,
      "cards": 3123,
      "trunk": 3124,
      "follow": 3125,
      "rubs": 3126,
      "repairs": 3127,
      "guards": 3128,
      "teaching": 3129,
      "donkey": 3130,
      "story": 3131,
      "weaving": 3132,
      "sprinkler": 3133,
      "rollerblades": 3134,
      "pillow": 3135,
      "charac": 3136,
      "receiving": 3137,
      "aisle": 3138,
      "billboard": 3139,
      "wading": 3140,
      "cobblestone": 3141,
      "straight": 3142,
      "vacuum": 3143,
      "modern": 3144,
      "pretty": 3145,
      "slightly": 3146,
      "binoculars": 3147,
      "lounge": 3148,
      "admiring": 3149,
      "ax": 3150,
      "craw": 3151,
      "centr": 3152,
      "fit": 3153,
      "fed": 3154,
      "glid": 3155,
      "imp": 3156,
      "kin": 3157,
      "oven": 3158,
      "pir": 3159,
      "plo": 3160,
      "pay": 3161,
      "power": 3162,
      "sla": 3163,
      "sque": 3164,
      "tv": 3165,
      "trol": 3166,
      "ut": 3167,
      "ually": 3168,
      "va": 3169,
      "ware": 3170,
      "xy": 3171,
      "incl": 3172,
      "oned": 3173,
      "leot": 3174,
      "ara": 3175,
      "arc": 3176,
      "oud": 3177,
      "sters": 3178,
      "lacross": 3179,
      "tomat": 3180,
      "chan": 3181,
      "opes": 3182,
      "tea": 3183,
      "places": 3184,
      "robat": 3185,
      "mex": 3186,
      "been": 3187,
      "cock": 3188,
      "comb": 3189,
      "comes": 3190,
      "coaster": 3191,
      "semi": 3192,
      "tape": 3193,
      "tage": 3194,
      "lips": 3195,
      "lifted": 3196,
      "tist": 3197,
      "carts": 3198,
      "keys": 3199,
      "aps": 3200,
      "appl": 3201,
      "waterfront": 3202,
      "waterway": 3203,
      "sniff": 3204,
      "feat": 3205,
      "conven": 3206,
      "contest": 3207,
      "overweight": 3208,
      "handle": 3209,
      "acrobat": 3210,
      "science": 3211,
      "span": 3212,
      "spon": 3213,
      "mart": 3214,
      "debris": 3215,
      "used": 3216,
      "tending": 3217,
      "collec": 3218,
      "joh": 3219,
      "checks": 3220,
      "mming": 3221,
      "sailing": 3222,
      "barrier": 3223,
      "autum": 3224,
      "dusk": 3225,
      "flips": 3226,
      "tires": 3227,
      "lecture": 3228,
      "praying": 3229,
      "filling": 3230,
      "official": 3231,
      "cups": 3232,
      "landing": 3233,
      "paddles": 3234,
      "entering": 3235,
      "butter": 3236,
      "wings": 3237,
      "telephone": 3238,
      "gundy": 3239,
      "portra": 3240,
      "observes": 3241,
      "laptops": 3242,
      "burgundy": 3243,
      "shadow": 3244,
      "customer": 3245,
      "examines": 3246,
      "lanter": 3247,
      "farmer": 3248,
      "attention": 3249,
      "deli": 3250,
      "groceries": 3251,
      "donal": 3252,
      "flute": 3253,
      "studying": 3254,
      "chainsaw": 3255,
      "bundle": 3256,
      "navig": 3257,
      "spotted": 3258,
      "messy": 3259,
      "transport": 3260,
      "target": 3261,
      "meeting": 3262,
      "eggs": 3263,
      "thumbs": 3264,
      "gestures": 3265,
      "commun": 3266,
      "tropical": 3267,
      "browsing": 3268,
      "ceremony": 3269,
      "sneakers": 3270,
      "rickshaw": 3271,
      "bystanders": 3272,
      "bleachers": 3273,
      "consisting": 3274,
      "wheelbarrow": 3275,
      "leotard": 3276,
      "lacrosse": 3277,
      "autumn": 3278,
      "ail": 3279,
      "bs": 3280,
      "bou": 3281,
      "bam": 3282,
      "biting": 3283,
      "bite": 3284,
      "call": 3285,
      "dro": 3286,
      "fat": 3287,
      "hen": 3288,
      "ied": 3289,
      "lly": 3290,
      "mass": 3291,
      "mped": 3292,
      "poo": 3293,
      "rad": 3294,
      "tas": 3295,
      "ude": 3296,
      "ument": 3297,
      "vin": 3298,
      "vas": 3299,
      "ws": 3300,
      "wares": 3301,
      "ino": 3302,
      "inju": 3303,
      "tho": 3304,
      "recl": 3305,
      "erry": 3306,
      "arn": 3307,
      "arter": 3308,
      "andise": 3309,
      "stare": 3310,
      "still": 3311,
      "wires": 3312,
      "chess": 3313,
      "eter": 3314,
      "teal": 3315,
      "placing": 3316,
      "shirted": 3317,
      "covers": 3318,
      "cep": 3319,
      "loom": 3320,
      "bron": 3321,
      "tired": 3322,
      "watermel": 3323,
      "juice": 3324,
      "backdrop": 3325,
      "skater": 3326,
      "skaters": 3327,
      "bies": 3328,
      "crown": 3329,
      "snowsuit": 3330,
      "tug": 3331,
      "diver": 3332,
      "handing": 3333,
      "tray": 3334,
      "accompan": 3335,
      "movie": 3336,
      "heading": 3337,
      "dec": 3338,
      "def": 3339,
      "defen": 3340,
      "suitcase": 3341,
      "bricks": 3342,
      "brief": 3343,
      "horiz": 3344,
      "quo": 3345,
      "quarter": 3346,
      "shoppers": 3347,
      "forehead": 3348,
      "experi": 3349,
      "human": 3350,
      "nament": 3351,
      "umin": 3352,
      "bagpipes": 3353,
      "ballet": 3354,
      "highway": 3355,
      "angle": 3356,
      "give": 3357,
      "paperwork": 3358,
      "serves": 3359,
      "banan": 3360,
      "banjo": 3361,
      "ities": 3362,
      "cowboys": 3363,
      "wheelie": 3364,
      "knees": 3365,
      "cooks": 3366,
      "monument": 3367,
      "falls": 3368,
      "venue": 3369,
      "listen": 3370,
      "potat": 3371,
      "stops": 3372,
      "cray": 3373,
      "alleyway": 3374,
      "newspapers": 3375,
      "wrestler": 3376,
      "blankets": 3377,
      "countryside": 3378,
      "seem": 3379,
      "visiting": 3380,
      "visible": 3381,
      "scooters": 3382,
      "cause": 3383,
      "kayaks": 3384,
      "sweeps": 3385,
      "shadows": 3386,
      "touches": 3387,
      "reflection": 3388,
      "attending": 3389,
      "tackle": 3390,
      "repairing": 3391,
      "strange": 3392,
      "cular": 3393,
      "puppies": 3394,
      "scaffold": 3395,
      "sides": 3396,
      "beverages": 3397,
      "inspects": 3398,
      "rollerblading": 3399,
      "texas": 3400,
      "pillows": 3401,
      "record": 3402,
      "pigtails": 3403,
      "tossing": 3404,
      "yoga": 3405,
      "olympics": 3406,
      "exercise": 3407,
      "presenting": 3408,
      "patterned": 3409,
      "exhibit": 3410,
      "clapping": 3411,
      "beanie": 3412,
      "merchandise": 3413,
      "boulder": 3414,
      "chicken": 3415,
      "gymnastics": 3416,
      "cello": 3417,
      "games": 3418,
      "knife": 3419,
      "umpire": 3420,
      "screaming": 3421,
      "mcdonal": 3422,
      "trolley": 3423,
      "applying": 3424,
      "spanish": 3425,
      "bamboo": 3426,
      "cro": 3427,
      "cil": 3428,
      "cans": 3429,
      "dj": 3430,
      "done": 3431,
      "eas": 3432,
      "every": 3433,
      "hun": 3434,
      "lat": 3435,
      "link": 3436,
      "mur": 3437,
      "mower": 3438,
      "plies": 3439,
      "rk": 3440,
      "ris": 3441,
      "rice": 3442,
      "rally": 3443,
      "tiny": 3444,
      "ues": 3445,
      "uts": 3446,
      "yarn": 3447,
      "ings": 3448,
      "ret": 3449,
      "reli": 3450,
      "remo": 3451,
      "retri": 3452,
      "maneu": 3453,
      "artwo": 3454,
      "stle": 3455,
      "stir": 3456,
      "ora": 3457,
      "chin": 3458,
      "china": 3459,
      "chatting": 3460,
      "assem": 3461,
      "gras": 3462,
      "placed": 3463,
      "ically": 3464,
      "domin": 3465,
      "played": 3466,
      "playfully": 3467,
      "ersby": 3468,
      "unus": 3469,
      "blind": 3470,
      "meas": 3471,
      "bead": 3472,
      "riot": 3473,
      "rized": 3474,
      "separ": 3475,
      "section": 3476,
      "second": 3477,
      "soap": 3478,
      "soda": 3479,
      "lifts": 3480,
      "logs": 3481,
      "tights": 3482,
      "mag": 3483,
      "pocket": 3484,
      "fier": 3485,
      "jud": 3486,
      "ull": 3487,
      "larger": 3488,
      "gathers": 3489,
      "snowshoes": 3490,
      "tux": 3491,
      "dives": 3492,
      "handrail": 3493,
      "watched": 3494,
      "mock": 3495,
      "wake": 3496,
      "scouts": 3497,
      "closely": 3498,
      "sunlight": 3499,
      "depart": 3500,
      "bicy": 3501,
      "cage": 3502,
      "shorel": 3503,
      "torch": 3504,
      "colla": 3505,
      "joy": 3506,
      "gger": 3507,
      "cheese": 3508,
      "couples": 3509,
      "underwear": 3510,
      "trip": 3511,
      "process": 3512,
      "weap": 3513,
      "crossed": 3514,
      "slic": 3515,
      "explo": 3516,
      "floats": 3517,
      "hut": 3518,
      "huddle": 3519,
      "treat": 3520,
      "passersby": 3521,
      "motorcyclists": 3522,
      "mug": 3523,
      "news": 3524,
      "opens": 3525,
      "even": 3526,
      "dusty": 3527,
      "anges": 3528,
      "turquo": 3529,
      "raining": 3530,
      "teens": 3531,
      "planting": 3532,
      "rapids": 3533,
      "picks": 3534,
      "belong": 3535,
      "lighted": 3536,
      "drawn": 3537,
      "medium": 3538,
      "practices": 3539,
      "cycling": 3540,
      "kayaking": 3541,
      "crouched": 3542,
      "burning": 3543,
      "camping": 3544,
      "supplies": 3545,
      "celebration": 3546,
      "printed": 3547,
      "tackling": 3548,
      "elev": 3549,
      "finished": 3550,
      "khakis": 3551,
      "laundro": 3552,
      "swimsuits": 3553,
      "weather": 3554,
      "suspenders": 3555,
      "magazines": 3556,
      "motorized": 3557,
      "firefighter": 3558,
      "company": 3559,
      "carefully": 3560,
      "traveling": 3561,
      "syn": 3562,
      "fashioned": 3563,
      "washer": 3564,
      "itorium": 3565,
      "salon": 3566,
      "rollerskating": 3567,
      "involved": 3568,
      "parachute": 3569,
      "descent": 3570,
      "location": 3571,
      "ponytail": 3572,
      "pilot": 3573,
      "surgery": 3574,
      "cheek": 3575,
      "focused": 3576,
      "2012": 3577,
      "learning": 3578,
      "adjusting": 3579,
      "creek": 3580,
      "enthusia": 3581,
      "auditorium": 3582,
      "arcade": 3583,
      "john": 3584,
      "injured": 3585,
      "artwork": 3586,
      "department": 3587,
      "shoreline": 3588,
      "turquoise": 3589,
      "laundromat": 3590,
      "00": 3591,
      "ai": 3592,
      "aim": 3593,
      "fic": 3594,
      "floo": 3595,
      "gla": 3596,
      "gap": 3597,
      "ious": 3598,
      "late": 3599,
      "non": 3600,
      "ox": 3601,
      "overs": 3602,
      "ption": 3603,
      "pins": 3604,
      "pops": 3605,
      "ric": 3606,
      "spark": 3607,
      "tread": 3608,
      "valley": 3609,
      "won": 3610,
      "zes": 3611,
      "zens": 3612,
      "inten": 3613,
      "than": 3614,
      "rec": 3615,
      "lean": 3616,
      "leas": 3617,
      "legging": 3618,
      "arri": 3619,
      "hip": 3620,
      "hike": 3621,
      "hiding": 3622,
      "stall": 3623,
      "stilts": 3624,
      "launch": 3625,
      "laden": 3626,
      "ened": 3627,
      "ents": 3628,
      "will": 3629,
      "oranges": 3630,
      "esma": 3631,
      "opter": 3632,
      "ides": 3633,
      "asia": 3634,
      "earphones": 3635,
      "icy": 3636,
      "icopter": 3637,
      "hol": 3638,
      "blood": 3639,
      "racers": 3640,
      "rafting": 3641,
      "blazer": 3642,
      "coast": 3643,
      "fork": 3644,
      "seag": 3645,
      "soon": 3646,
      "buff": 3647,
      "butch": 3648,
      "lobby": 3649,
      "smoo": 3650,
      "walked": 3651,
      "timate": 3652,
      "upward": 3653,
      "pots": 3654,
      "posed": 3655,
      "juggles": 3656,
      "sideways": 3657,
      "single": 3658,
      "ongo": 3659,
      "frozen": 3660,
      "tutu": 3661,
      "divers": 3662,
      "waist": 3663,
      "scien": 3664,
      "workout": 3665,
      "workshop": 3666,
      "america": 3667,
      "headdress": 3668,
      "igning": 3669,
      "goat": 3670,
      "march": 3671,
      "asians": 3672,
      "tenance": 3673,
      "cab": 3674,
      "roadside": 3675,
      "helicopter": 3676,
      "qui": 3677,
      "cute": 3678,
      "tribal": 3679,
      "whom": 3680,
      "creating": 3681,
      "surfs": 3682,
      "canad": 3683,
      "canvas": 3684,
      "shape": 3685,
      "displaying": 3686,
      "displays": 3687,
      "serve": 3688,
      "service": 3689,
      "facility": 3690,
      "interview": 3691,
      "bridesma": 3692,
      "toddlers": 3693,
      "foli": 3694,
      "monitor": 3695,
      "casually": 3696,
      "raption": 3697,
      "numbers": 3698,
      "pads": 3699,
      "belts": 3700,
      "lighting": 3701,
      "hotdog": 3702,
      "rooftop": 3703,
      "washes": 3704,
      "lens": 3705,
      "gaze": 3706,
      "gazes": 3707,
      "decorative": 3708,
      "products": 3709,
      "special": 3710,
      "candle": 3711,
      "harvest": 3712,
      "atory": 3713,
      "cloud": 3714,
      "celebrate": 3715,
      "contraption": 3716,
      "trashcan": 3717,
      "furry": 3718,
      "finishing": 3719,
      "brother": 3720,
      "stepping": 3721,
      "sprayed": 3722,
      "score": 3723,
      "approaches": 3724,
      "chalkboard": 3725,
      "branches": 3726,
      "speaker": 3727,
      "involving": 3728,
      "chopping": 3729,
      "maintenance": 3730,
      "morning": 3731,
      "located": 3732,
      "driveway": 3733,
      "pillar": 3734,
      "twir": 3735,
      "peeking": 3736,
      "embracing": 3737,
      "nurses": 3738,
      "silhouette": 3739,
      "gallery": 3740,
      "amidst": 3741,
      "activity": 3742,
      "interesting": 3743,
      "stroke": 3744,
      "quickly": 3745,
      "incline": 3746,
      "mexican": 3747,
      "portrait": 3748,
      "transportation": 3749,
      "bouquet": 3750,
      "quarterback": 3751,
      "experiment": 3752,
      "retrie": 3753,
      "collared": 3754,
      "leggings": 3755,
      "aid": 3756,
      "ailing": 3757,
      "aband": 3758,
      "broad": 3759,
      "bbles": 3760,
      "cident": 3761,
      "dep": 3762,
      "esta": 3763,
      "east": 3764,
      "find": 3765,
      "french": 3766,
      "gie": 3767,
      "harm": 3768,
      "io": 3769,
      "ists": 3770,
      "kilt": 3771,
      "mill": 3772,
      "rin": 3773,
      "rit": 3774,
      "ske": 3775,
      "tress": 3776,
      "trench": 3777,
      "ute": 3778,
      "vine": 3779,
      "ination": 3780,
      "really": 3781,
      "releas": 3782,
      "lets": 3783,
      "lego": 3784,
      "arrange": 3785,
      "outing": 3786,
      "ouble": 3787,
      "ata": 3788,
      "atm": 3789,
      "ston": 3790,
      "state": 3791,
      "sturing": 3792,
      "aling": 3793,
      "almost": 3794,
      "iss": 3795,
      "wig": 3796,
      "cker": 3797,
      "ldo": 3798,
      "orm": 3799,
      "chron": 3800,
      "cherry": 3801,
      "ety": 3802,
      "iden": 3803,
      "peer": 3804,
      "grad": 3805,
      "tell": 3806,
      "menu": 3807,
      "unhappy": 3808,
      "gesturing": 3809,
      "blish": 3810,
      "elmo": 3811,
      "adju": 3812,
      "mechan": 3813,
      "beret": 3814,
      "shine": 3815,
      "shiny": 3816,
      "rifle": 3817,
      "cola": 3818,
      "ford": 3819,
      "fort": 3820,
      "mpy": 3821,
      "sees": 3822,
      "tags": 3823,
      "lim": 3824,
      "built": 3825,
      "love": 3826,
      "brass": 3827,
      "tiled": 3828,
      "tips": 3829,
      "tively": 3830,
      "upset": 3831,
      "aprons": 3832,
      "ney": 3833,
      "need": 3834,
      "jumped": 3835,
      "ular": 3836,
      "ulls": 3837,
      "indu": 3838,
      "jumper": 3839,
      "pale": 3840,
      "crates": 3841,
      "concentr": 3842,
      "dive": 3843,
      "footed": 3844,
      "handed": 3845,
      "crowds": 3846,
      "wai": 3847,
      "scra": 3848,
      "scent": 3849,
      "hawai": 3850,
      "staff": 3851,
      "spring": 3852,
      "jeep": 3853,
      "guide": 3854,
      "mark": 3855,
      "flan": 3856,
      "bends": 3857,
      "stump": 3858,
      "cakes": 3859,
      "colate": 3860,
      "jogs": 3861,
      "unique": 3862,
      "chewing": 3863,
      "ational": 3864,
      "sawing": 3865,
      "painter": 3866,
      "tripod": 3867,
      "types": 3868,
      "weigh": 3869,
      "ague": 3870,
      "sleep": 3871,
      "fishes": 3872,
      "noon": 3873,
      "illumin": 3874,
      "hills": 3875,
      "highchair": 3876,
      "sive": 3877,
      "ducks": 3878,
      "cellphones": 3879,
      "gious": 3880,
      "pathway": 3881,
      "turban": 3882,
      "raincoat": 3883,
      "boxer": 3884,
      "wheeler": 3885,
      "classic": 3886,
      "stoop": 3887,
      "monkey": 3888,
      "afternoon": 3889,
      "tooth": 3890,
      "scenic": 3891,
      "diner": 3892,
      "writes": 3893,
      "breakdancing": 3894,
      "brushes": 3895,
      "displayed": 3896,
      "gazing": 3897,
      "checkers": 3898,
      "circular": 3899,
      "sledding": 3900,
      "gardening": 3901,
      "decorations": 3902,
      "operates": 3903,
      "pencil": 3904,
      "clouds": 3905,
      "farmers": 3906,
      "heavily": 3907,
      "dragging": 3908,
      "images": 3909,
      "booths": 3910,
      "known": 3911,
      "cleaner": 3912,
      "stacked": 3913,
      "chocolate": 3914,
      "containing": 3915,
      "pinata": 3916,
      "bathtub": 3917,
      "strolls": 3918,
      "sidel": 3919,
      "designs": 3920,
      "protesters": 3921,
      "recording": 3922,
      "grabs": 3923,
      "grabbing": 3924,
      "vices": 3925,
      "bouncing": 3926,
      "chopsticks": 3927,
      "olympic": 3928,
      "muzzle": 3929,
      "muzzled": 3930,
      "begins": 3931,
      "dumpster": 3932,
      "pattern": 3933,
      "sparring": 3934,
      "strapped": 3935,
      "awning": 3936,
      "tournament": 3937,
      "bulldo": 3938,
      "parasailing": 3939,
      "pumpkin": 3940,
      "employees": 3941,
      "sorting": 3942,
      "attractive": 3943,
      "digital": 3944,
      "squee": 3945,
      "sniffing": 3946,
      "featuring": 3947,
      "butterfly": 3948,
      "task": 3949,
      "horizon": 3950,
      "potato": 3951,
      "religious": 3952,
      "bicycling": 3953,
      "belongings": 3954,
      "synchron": 3955,
      "quiet": 3956,
      "canadian": 3957,
      "foliage": 3958,
      "establish": 3959,
      "gradu": 3960,
      "adjusts": 3961,
      "11": 3962,
      "chis": 3963,
      "citi": 3964,
      "cial": 3965,
      "ded": 3966,
      "ders": 3967,
      "dam": 3968,
      "een": 3969,
      "eag": 3970,
      "elabor": 3971,
      "fer": 3972,
      "hon": 3973,
      "had": 3974,
      "hallow": 3975,
      "kim": 3976,
      "lin": 3977,
      "lish": 3978,
      "osa": 3979,
      "powd": 3980,
      "pans": 3981,
      "sar": 3982,
      "sion": 3983,
      "signing": 3984,
      "tying": 3985,
      "when": 3986,
      "inner": 3987,
      "anti": 3988,
      "thou": 3989,
      "regi": 3990,
      "erly": 3991,
      "lem": 3992,
      "level": 3993,
      "league": 3994,
      "manne": 3995,
      "histor": 3996,
      "attered": 3997,
      "stay": 3998,
      "strolling": 3999,
      "stination": 4000,
      "alle": 4001,
      "labe": 4002,
      "toi": 4003,
      "oring": 4004,
      "challen": 4005,
      "ets": 4006,
      "opoly": 4007,
      "ider": 4008,
      "ount": 4009,
      "peers": 4010,
      "asc": 4011,
      "plain": 4012,
      "icans": 4013,
      "walmart": 4014,
      "redhead": 4015,
      "rabb": 4016,
      "beat": 4017,
      "because": 4018,
      "shelf": 4019,
      "hispan": 4020,
      "coca": 4021,
      "commer": 4022,
      "mple": 4023,
      "secu": 4024,
      "chip": 4025,
      "chief": 4026,
      "lion": 4027,
      "lively": 4028,
      "buried": 4029,
      "amount": 4030,
      "logo": 4031,
      "downhill": 4032,
      "brit": 4033,
      "brant": 4034,
      "times": 4035,
      "somewhere": 4036,
      "ult": 4037,
      "inder": 4038,
      "india": 4039,
      "skills": 4040,
      "bie": 4041,
      "babies": 4042,
      "conf": 4043,
      "conne": 4044,
      "elds": 4045,
      "boarding": 4046,
      "lasso": 4047,
      "build": 4048,
      "accident": 4049,
      "scrubs": 4050,
      "fields": 4051,
      "split": 4052,
      "spins": 4053,
      "marsh": 4054,
      "marble": 4055,
      "destination": 4056,
      "tender": 4057,
      "midst": 4058,
      "stuck": 4059,
      "cabin": 4060,
      "foods": 4061,
      "drant": 4062,
      "strial": 4063,
      "stripe": 4064,
      "underground": 4065,
      "purses": 4066,
      "looked": 4067,
      "daytime": 4068,
      "darkened": 4069,
      "bartender": 4070,
      "teammates": 4071,
      "sure": 4072,
      "create": 4073,
      "wheeled": 4074,
      "flash": 4075,
      "trains": 4076,
      "canal": 4077,
      "cannon": 4078,
      "deser": 4079,
      "much": 4080,
      "muscul": 4081,
      "packing": 4082,
      "packed": 4083,
      "package": 4084,
      "skies": 4085,
      "anging": 4086,
      "colorfully": 4087,
      "shaggy": 4088,
      "turtle": 4089,
      "series": 4090,
      "banners": 4091,
      "masks": 4092,
      "itive": 4093,
      "hardwood": 4094,
      "stocking": 4095,
      "monopoly": 4096,
      "cases": 4097,
      "casino": 4098,
      "fountains": 4099,
      "filming": 4100,
      "carrier": 4101,
      "forested": 4102,
      "batman": 4103,
      "kisses": 4104,
      "bedroom": 4105,
      "stem": 4106,
      "vending": 4107,
      "vibrant": 4108,
      "tching": 4109,
      "arium": 4110,
      "clutte": 4111,
      "homemade": 4112,
      "photographers": 4113,
      "shower": 4114,
      "protect": 4115,
      "cigar": 4116,
      "dinosa": 4117,
      "variety": 4118,
      "waiter": 4119,
      "barefooted": 4120,
      "draws": 4121,
      "hammock": 4122,
      "lent": 4123,
      "artists": 4124,
      "splashed": 4125,
      "directing": 4126,
      "sprays": 4127,
      "zzy": 4128,
      "camels": 4129,
      "stretches": 4130,
      "canoes": 4131,
      "product": 4132,
      "clowns": 4133,
      "campfire": 4134,
      "support": 4135,
      "cheerleading": 4136,
      "tackled": 4137,
      "notes": 4138,
      "loaded": 4139,
      "draped": 4140,
      "stringed": 4141,
      "complex": 4142,
      "completed": 4143,
      "hammering": 4144,
      "napping": 4145,
      "pours": 4146,
      "cries": 4147,
      "skinny": 4148,
      "speeding": 4149,
      "spotlight": 4150,
      "companion": 4151,
      "figures": 4152,
      "transit": 4153,
      "jockeys": 4154,
      "sailboat": 4155,
      "victory": 4156,
      "onica": 4157,
      "parent": 4158,
      "mixer": 4159,
      "hydrant": 4160,
      "gesture": 4161,
      "crashing": 4162,
      "aqua": 4163,
      "aquarium": 4164,
      "mounta": 4165,
      "surgical": 4166,
      "nails": 4167,
      "laboratory": 4168,
      "conductor": 4169,
      "silhouet": 4170,
      "columns": 4171,
      "employee": 4172,
      "european": 4173,
      "notebook": 4174,
      "waterskiing": 4175,
      "feather": 4176,
      "congreg": 4177,
      "projector": 4178,
      "followed": 4179,
      "warehouse": 4180,
      "xyl": 4181,
      "acrobatic": 4182,
      "sponge": 4183,
      "lanterns": 4184,
      "navigates": 4185,
      "communic": 4186,
      "vintage": 4187,
      "crayons": 4188,
      "easel": 4189,
      "murky": 4190,
      "unusual": 4191,
      "beads": 4192,
      "judges": 4193,
      "tuxed": 4194,
      "bridesmaids": 4195,
      "abandoned": 4196,
      "harmonica": 4197,
      "industrial": 4198,
      "hawaiian": 4199,
      "flannel": 4200,
      "toothbrush": 4201,
      "squeezing": 4202,
      "synchronized": 4203,
      "establishment": 4204,
      "halloween": 4205,
      "mannequ": 4206,
      "labeled": 4207,
      "hispanic": 4208,
      "commercial": 4209,
      "muscular": 4210,
      "cluttered": 4211,
      "dinosaur": 4212,
      "10": 4213,
      "ado": 4214,
      "award": 4215,
      "await": 4216,
      "brace": 4217,
      "bbling": 4218,
      "bongo": 4219,
      "clar": 4220,
      "dess": 4221,
      "fill": 4222,
      "gth": 4223,
      "hour": 4224,
      "hine": 4225,
      "hus": 4226,
      "jenga": 4227,
      "lining": 4228,
      "mit": 4229,
      "mbo": 4230,
      "mad": 4231,
      "mowing": 4232,
      "mitten": 4233,
      "noo": 4234,
      "nun": 4235,
      "nine": 4236,
      "nude": 4237,
      "oil": 4238,
      "otic": 4239,
      "roo": 4240,
      "rise": 4241,
      "sear": 4242,
      "swa": 4243,
      "slip": 4244,
      "tw": 4245,
      "ttes": 4246,
      "ured": 4247,
      "ums": 4248,
      "vent": 4249,
      "viron": 4250,
      "wrist": 4251,
      "year": 4252,
      "zone": 4253,
      "zard": 4254,
      "zip": 4255,
      "int": 4256,
      "iner": 4257,
      "ank": 4258,
      "any": 4259,
      "ingred": 4260,
      "though": 4261,
      "thick": 4262,
      "return": 4263,
      "erness": 4264,
      "leop": 4265,
      "legged": 4266,
      "thedr": 4267,
      "stal": 4268,
      "alt": 4269,
      "ised": 4270,
      "laid": 4271,
      "environ": 4272,
      "opy": 4273,
      "ided": 4274,
      "gry": 4275,
      "grown": 4276,
      "earth": 4277,
      "alling": 4278,
      "dol": 4279,
      "hoe": 4280,
      "hore": 4281,
      "holid": 4282,
      "blower": 4283,
      "adow": 4284,
      "ramid": 4285,
      "rafts": 4286,
      "memor": 4287,
      "meadow": 4288,
      "beers": 4289,
      "beating": 4290,
      "shack": 4291,
      "rip": 4292,
      "riers": 4293,
      "coll": 4294,
      "seating": 4295,
      "selec": 4296,
      "vering": 4297,
      "frying": 4298,
      "licking": 4299,
      "bucks": 4300,
      "lock": 4301,
      "tiger": 4302,
      "upwards": 4303,
      "maj": 4304,
      "mail": 4305,
      "ultimate": 4306,
      "paralle": 4307,
      "greet": 4308,
      "backseat": 4309,
      "rugs": 4310,
      "rustic": 4311,
      "bled": 4312,
      "snork": 4313,
      "feature": 4314,
      "crops": 4315,
      "bathe": 4316,
      "cons": 4317,
      "confet": 4318,
      "tured": 4319,
      "tubes": 4320,
      "termin": 4321,
      "dyed": 4322,
      "scrap": 4323,
      "scopes": 4324,
      "workman": 4325,
      "tablecloth": 4326,
      "topless": 4327,
      "spir": 4328,
      "sprin": 4329,
      "sunbathing": 4330,
      "marked": 4331,
      "marker": 4332,
      "usa": 4333,
      "mentary": 4334,
      "bend": 4335,
      "cameraman": 4336,
      "woodland": 4337,
      "ieval": 4338,
      "cave": 4339,
      "casting": 4340,
      "cathedr": 4341,
      "collie": 4342,
      "ended": 4343,
      "univers": 4344,
      "drying": 4345,
      "antly": 4346,
      "striking": 4347,
      "sage": 4348,
      "purchase": 4349,
      "mountainous": 4350,
      "typing": 4351,
      "auto": 4352,
      "stores": 4353,
      "were": 4354,
      "crosscountry": 4355,
      "exiting": 4356,
      "flock": 4357,
      "rolls": 4358,
      "mouths": 4359,
      "cler": 4360,
      "surfers": 4361,
      "fireworks": 4362,
      "bows": 4363,
      "desks": 4364,
      "passer": 4365,
      "sip": 4366,
      "polish": 4367,
      "disc": 4368,
      "tracksuit": 4369,
      "turkey": 4370,
      "facial": 4371,
      "starring": 4372,
      "mascot": 4373,
      "policemen": 4374,
      "chased": 4375,
      "temple": 4376,
      "snowboards": 4377,
      "fog": 4378,
      "foggy": 4379,
      "pointed": 4380,
      "monk": 4381,
      "monitors": 4382,
      "apples": 4383,
      "prepared": 4384,
      "mattress": 4385,
      "battle": 4386,
      "skyline": 4387,
      "skydiving": 4388,
      "rails": 4389,
      "squats": 4390,
      "lands": 4391,
      "fetch": 4392,
      "picket": 4393,
      "written": 4394,
      "barely": 4395,
      "hotdogs": 4396,
      "medieval": 4397,
      "cigarettes": 4398,
      "wrestlers": 4399,
      "ize": 4400,
      "resort": 4401,
      "visor": 4402,
      "railings": 4403,
      "berry": 4404,
      "dryer": 4405,
      "burgers": 4406,
      "ients": 4407,
      "harbor": 4408,
      "patrons": 4409,
      "examine": 4410,
      "videota": 4411,
      "cheerleader": 4412,
      "piercing": 4413,
      "prints": 4414,
      "seafood": 4415,
      "sculptures": 4416,
      "strings": 4417,
      "elementary": 4418,
      "lush": 4419,
      "rolled": 4420,
      "completing": 4421,
      "framed": 4422,
      "pyramid": 4423,
      "storm": 4424,
      "puppet": 4425,
      "peaks": 4426,
      "speeds": 4427,
      "reception": 4428,
      "designed": 4429,
      "advertisements": 4430,
      "daily": 4431,
      "warming": 4432,
      "travels": 4433,
      "grinds": 4434,
      "barbecu": 4435,
      "tarp": 4436,
      "trotting": 4437,
      "wilderness": 4438,
      "supermarket": 4439,
      "rollerskates": 4440,
      "doctors": 4441,
      "snacks": 4442,
      "barrels": 4443,
      "pigeon": 4444,
      "occup": 4445,
      "shawl": 4446,
      "necklaces": 4447,
      "dolls": 4448,
      "begin": 4449,
      "exercising": 4450,
      "presents": 4451,
      "ordering": 4452,
      "greyhounds": 4453,
      "trophy": 4454,
      "extre": 4455,
      "mounted": 4456,
      "exhib": 4457,
      "newlywed": 4458,
      "dotted": 4459,
      "condition": 4460,
      "conducting": 4461,
      "fellow": 4462,
      "punching": 4463,
      "column": 4464,
      "activities": 4465,
      "demonstration": 4466,
      "cotton": 4467,
      "season": 4468,
      "fuzzy": 4469,
      "maybe": 4470,
      "bounds": 4471,
      "miniature": 4472,
      "named": 4473,
      "blurred": 4474,
      "adorned": 4475,
      "character": 4476,
      "characters": 4477,
      "vacuuming": 4478,
      "axe": 4479,
      "crawls": 4480,
      "fedora": 4481,
      "pirate": 4482,
      "slacks": 4483,
      "convention": 4484,
      "poodle": 4485,
      "radio": 4486,
      "watermelons": 4487,
      "accompanied": 4488,
      "defender": 4489,
      "bananas": 4490,
      "mcdonald": 4491,
      "measuring": 4492,
      "separate": 4493,
      "enthusiastic": 4494,
      "treadmill": 4495,
      "wonder": 4496,
      "buffet": 4497,
      "scientist": 4498,
      "identi": 4499,
      "illuminated": 4500,
      "sidelines": 4501,
      "kimon": 4502,
      "british": 4503,
      "mountainto": 4504,
      "silhouetted": 4505,
      "xylophone": 4506,
      "husband": 4507,
      "mitt": 4508,
      "ingredients": 4509,
      "leopard": 4510,
      "environment": 4511,
      "holiday": 4512,
      "confetti": 4513,
      "cathedral": 4514,
      "aboard": 4515,
      "bon": 4516,
      "bil": 4517,
      "bones": 4518,
      "cco": 4519,
      "cycle": 4520,
      "cash": 4521,
      "civ": 4522,
      "cats": 4523,
      "cession": 4524,
      "det": 4525,
      "drain": 4526,
      "double": 4527,
      "ec": 4528,
      "em": 4529,
      "ere": 4530,
      "est": 4531,
      "elding": 4532,
      "fying": 4533,
      "gn": 4534,
      "gress": 4535,
      "gig": 4536,
      "hunch": 4537,
      "hops": 4538,
      "ku": 4539,
      "kit": 4540,
      "kno": 4541,
      "lon": 4542,
      "moo": 4543,
      "mouse": 4544,
      "nes": 4545,
      "ok": 4546,
      "osk": 4547,
      "olive": 4548,
      "ran": 4549,
      "soup": 4550,
      "sound": 4551,
      "sam": 4552,
      "scr": 4553,
      "sash": 4554,
      "sance": 4555,
      "ula": 4556,
      "ustr": 4557,
      "vor": 4558,
      "wand": 4559,
      "wish": 4560,
      "yon": 4561,
      "zor": 4562,
      "zoo": 4563,
      "zom": 4564,
      "inis": 4565,
      "infl": 4566,
      "information": 4567,
      "anvil": 4568,
      "anci": 4569,
      "inging": 4570,
      "thy": 4571,
      "reg": 4572,
      "erie": 4573,
      "lemon": 4574,
      "attack": 4575,
      "atula": 4576,
      "woven": 4577,
      "alco": 4578,
      "ison": 4579,
      "within": 4580,
      "toe": 4581,
      "chu": 4582,
      "chure": 4583,
      "whis": 4584,
      "whistle": 4585,
      "bob": 4586,
      "asking": 4587,
      "kings": 4588,
      "grip": 4589,
      "dots": 4590,
      "rot": 4591,
      "unte": 4592,
      "unloading": 4593,
      "rag": 4594,
      "raking": 4595,
      "raise": 4596,
      "ravine": 4597,
      "razor": 4598,
      "shouting": 4599,
      "rimmed": 4600,
      "cocon": 4601,
      "tau": 4602,
      "tamb": 4603,
      "talent": 4604,
      "soars": 4605,
      "frown": 4606,
      "lime": 4607,
      "licks": 4608,
      "bud": 4609,
      "bump": 4610,
      "ami": 4611,
      "lovely": 4612,
      "walkers": 4613,
      "brind": 4614,
      "brooms": 4615,
      "tip": 4616,
      "upright": 4617,
      "mac": 4618,
      "polit": 4619,
      "elling": 4620,
      "watering": 4621,
      "somebody": 4622,
      "heal": 4623,
      "ulting": 4624,
      "dressing": 4625,
      "words": 4626,
      "rush": 4627,
      "rusty": 4628,
      "skill": 4629,
      "skull": 4630,
      "jumpsuits": 4631,
      "bib": 4632,
      "rent": 4633,
      "renais": 4634,
      "paci": 4635,
      "cry": 4636,
      "crate": 4637,
      "bak": 4638,
      "bably": 4639,
      "contemp": 4640,
      "snowball": 4641,
      "personnel": 4642,
      "overlook": 4643,
      "mber": 4644,
      "terrier": 4645,
      "ians": 4646,
      "handbag": 4647,
      "handheld": 4648,
      "actor": 4649,
      "accep": 4650,
      "atee": 4651,
      "nearly": 4652,
      "lling": 4653,
      "scant": 4654,
      "scaling": 4655,
      "sciss": 4656,
      "scattered": 4657,
      "haul": 4658,
      "offering": 4659,
      "swan": 4660,
      "trans": 4661,
      "spider": 4662,
      "spatula": 4663,
      "igan": 4664,
      "jewish": 4665,
      "sundress": 4666,
      "sunshine": 4667,
      "goatee": 4668,
      "pub": 4669,
      "puzz": 4670,
      "pushed": 4671,
      "favor": 4672,
      "deer": 4673,
      "devices": 4674,
      "tends": 4675,
      "surge": 4676,
      "shorter": 4677,
      "pedal": 4678,
      "cable": 4679,
      "panse": 4680,
      "ggle": 4681,
      "ggers": 4682,
      "strike": 4683,
      "boogie": 4684,
      "quad": 4685,
      "skateboarders": 4686,
      "climbers": 4687,
      "curi": 4688,
      "saus": 4689,
      "sample": 4690,
      "ently": 4691,
      "pleas": 4692,
      "progress": 4693,
      "probably": 4694,
      "teddy": 4695,
      "barric": 4696,
      "barriers": 4697,
      "muslim": 4698,
      "slow": 4699,
      "slopes": 4700,
      "expanse": 4701,
      "crest": 4702,
      "creates": 4703,
      "piles": 4704,
      "constructed": 4705,
      "husky": 4706,
      "flames": 4707,
      "flaming": 4708,
      "armed": 4709,
      "essor": 4710,
      "canyon": 4711,
      "bowtie": 4712,
      "flowery": 4713,
      "noses": 4714,
      "capped": 4715,
      "mule": 4716,
      "velin": 4717,
      "athers": 4718,
      "evil": 4719,
      "instructor": 4720,
      "floors": 4721,
      "shake": 4722,
      "shingles": 4723,
      "nightclub": 4724,
      "bodysuit": 4725,
      "clothed": 4726,
      "bikinis": 4727,
      "kicked": 4728,
      "riverbank": 4729,
      "stars": 4730,
      "boxers": 4731,
      "submer": 4732,
      "wheelchairs": 4733,
      "volunte": 4734,
      "stern": 4735,
      "affe": 4736,
      "merry": 4737,
      "pray": 4738,
      "plank": 4739,
      "mats": 4740,
      "mature": 4741,
      "proud": 4742,
      "breath": 4743,
      "squad": 4744,
      "clutching": 4745,
      "border": 4746,
      "crafting": 4747,
      "gloved": 4748,
      "miami": 4749,
      "blocking": 4750,
      "grills": 4751,
      "relay": 4752,
      "length": 4753,
      "pitching": 4754,
      "direct": 4755,
      "portable": 4756,
      "champ": 4757,
      "checked": 4758,
      "checkout": 4759,
      "circus": 4760,
      "kiosk": 4761,
      "cardigan": 4762,
      "waterside": 4763,
      "poncho": 4764,
      "burger": 4765,
      "quest": 4766,
      "wraps": 4767,
      "operated": 4768,
      "partici": 4769,
      "hook": 4770,
      "lanes": 4771,
      "minton": 4772,
      "stunts": 4773,
      "microscopes": 4774,
      "drag": 4775,
      "dragon": 4776,
      "sleeves": 4777,
      "professor": 4778,
      "lower": 4779,
      "hearts": 4780,
      "seattle": 4781,
      "brochure": 4782,
      "heavyset": 4783,
      "bunny": 4784,
      "wineglasses": 4785,
      "strollers": 4786,
      "dropping": 4787,
      "scooping": 4788,
      "bottoms": 4789,
      "sprinklers": 4790,
      "sharp": 4791,
      "system": 4792,
      "symbo": 4793,
      "texting": 4794,
      "swords": 4795,
      "fixes": 4796,
      "cier": 4797,
      "beams": 4798,
      "superman": 4799,
      "spots": 4800,
      "relaxes": 4801,
      "excitedly": 4802,
      "ribbons": 4803,
      "occur": 4804,
      "liquor": 4805,
      "popcorn": 4806,
      "knitting": 4807,
      "nurse": 4808,
      "propped": 4809,
      "ceremonial": 4810,
      "completely": 4811,
      "lipstick": 4812,
      "saddle": 4813,
      "vocal": 4814,
      "identical": 4815,
      "javelin": 4816,
      "assisting": 4817,
      "waterskier": 4818,
      "badge": 4819,
      "badminton": 4820,
      "belly": 4821,
      "gowns": 4822,
      "missing": 4823,
      "senior": 4824,
      "feathered": 4825,
      "congregate": 4826,
      "socializing": 4827,
      "expression": 4828,
      "tomatoes": 4829,
      "convenience": 4830,
      "those": 4831,
      "bronco": 4832,
      "briefcase": 4833,
      "latin": 4834,
      "stirring": 4835,
      "assembled": 4836,
      "grasping": 4837,
      "magni": 4838,
      "wakeboard": 4839,
      "weapon": 4840,
      "elevated": 4841,
      "aiming": 4842,
      "glacier": 4843,
      "seagulls": 4844,
      "sooners": 4845,
      "butcher": 4846,
      "smooth": 4847,
      "harvesting": 4848,
      "legos": 4849,
      "arrangement": 4850,
      "seesaw": 4851,
      "bulldozer": 4852,
      "citizens": 4853,
      "damaged": 4854,
      "elaborate": 4855,
      "saris": 4856,
      "thought": 4857,
      "connected": 4858,
      "deserted": 4859,
      "clarin": 4860,
      "dessert": 4861,
      "mittens": 4862,
      "major": 4863,
      "parallel": 4864,
      "features": 4865,
      "university": 4866,
      "mountaintop": 4867,
      "civil": 4868,
      "hunched": 4869,
      "scratch": 4870,
      "ancient": 4871,
      "alcohol": 4872,
      "political": 4873,
      "renaissance": 4874,
      "actors": 4875,
      "scantily": 4876,
      "scissors": 4877,
      "favorite": 4878,
      "aver": 4879,
      "bay": 4880,
      "cen": 4881,
      "cuit": 4882,
      "cows": 4883,
      "cinder": 4884,
      "drun": 4885,
      "deter": 4886,
      "eque": 4887,
      "found": 4888,
      "fills": 4889,
      "gl": 4890,
      "gue": 4891,
      "haps": 4892,
      "ike": 4893,
      "iors": 4894,
      "ipod": 4895,
      "kil": 4896,
      "kly": 4897,
      "kins": 4898,
      "kitten": 4899,
      "kites": 4900,
      "lou": 4901,
      "lli": 4902,
      "mou": 4903,
      "mma": 4904,
      "mind": 4905,
      "mops": 4906,
      "nal": 4907,
      "nder": 4908,
      "oar": 4909,
      "oid": 4910,
      "ota": 4911,
      "pow": 4912,
      "pride": 4913,
      "punk": 4914,
      "sling": 4915,
      "south": 4916,
      "slab": 4917,
      "var": 4918,
      "vig": 4919,
      "want": 4920,
      "xim": 4921,
      "your": 4922,
      "zy": 4923,
      "inspect": 4924,
      "answ": 4925,
      "angry": 4926,
      "thre": 4927,
      "rer": 4928,
      "real": 4929,
      "resp": 4930,
      "rect": 4931,
      "recre": 4932,
      "repor": 4933,
      "rehear": 4934,
      "returns": 4935,
      "era": 4936,
      "eria": 4937,
      "onts": 4938,
      "theme": 4939,
      "arr": 4940,
      "hic": 4941,
      "hift": 4942,
      "atus": 4943,
      "sted": 4944,
      "stride": 4945,
      "states": 4946,
      "wool": 4947,
      "island": 4948,
      "last": 4949,
      "lable": 4950,
      "wiping": 4951,
      "orary": 4952,
      "escape": 4953,
      "chat": 4954,
      "chunk": 4955,
      "iding": 4956,
      "idated": 4957,
      "ared": 4958,
      "pel": 4959,
      "peach": 4960,
      "peak": 4961,
      "pelling": 4962,
      "boss": 4963,
      "asph": 4964,
      "gram": 4965,
      "grima": 4966,
      "early": 4967,
      "earrings": 4968,
      "text": 4969,
      "icature": 4970,
      "robot": 4971,
      "holes": 4972,
      "unfinished": 4973,
      "unknown": 4974,
      "unidenti": 4975,
      "geo": 4976,
      "adles": 4977,
      "admi": 4978,
      "rake": 4979,
      "girlfriend": 4980,
      "shel": 4981,
      "shap": 4982,
      "shines": 4983,
      "shelves": 4984,
      "comic": 4985,
      "sew": 4986,
      "selection": 4987,
      "sored": 4988,
      "solo": 4989,
      "solit": 4990,
      "somb": 4991,
      "solid": 4992,
      "vertic": 4993,
      "chips": 4994,
      "fronts": 4995,
      "illa": 4996,
      "limb": 4997,
      "amish": 4998,
      "lost": 4999,
      "outfield": 5000,
      "hero": 5001,
      "herding": 5002,
      "tiara": 5003,
      "ups": 5004,
      "upper": 5005,
      "maid": 5006,
      "master": 5007,
      "carto": 5008,
      "carve": 5009,
      "cargo": 5010,
      "carous": 5011,
      "carved": 5012,
      "caricature": 5013,
      "poking": 5014,
      "posts": 5015,
      "appar": 5016,
      "fied": 5017,
      "ressive": 5018,
      "watercraft": 5019,
      "parts": 5020,
      "litter": 5021,
      "backlit": 5022,
      "backward": 5023,
      "backstroke": 5024,
      "backhoe": 5025,
      "ruins": 5026,
      "greenery": 5027,
      "forming": 5028,
      "sna": 5029,
      "snap": 5030,
      "snaps": 5031,
      "feathers": 5032,
      "pauses": 5033,
      "cradles": 5034,
      "singers": 5035,
      "baked": 5036,
      "yelling": 5037,
      "conver": 5038,
      "snowman": 5039,
      "snowcapped": 5040,
      "persons": 5041,
      "frog": 5042,
      "tugging": 5043,
      "digs": 5044,
      "dilap": 5045,
      "handling": 5046,
      "handles": 5047,
      "trays": 5048,
      "mob": 5049,
      "mothers": 5050,
      "scout": 5051,
      "angels": 5052,
      "workmen": 5053,
      "clip": 5054,
      "americans": 5055,
      "perched": 5056,
      "perhaps": 5057,
      "clock": 5058,
      "headset": 5059,
      "hairstyle": 5060,
      "struggles": 5061,
      "struggling": 5062,
      "gum": 5063,
      "goats": 5064,
      "marches": 5065,
      "onding": 5066,
      "cityscape": 5067,
      "tend": 5068,
      "dant": 5069,
      "flour": 5070,
      "flowing": 5071,
      "metro": 5072,
      "pedd": 5073,
      "suitcases": 5074,
      "torches": 5075,
      "ffel": 5076,
      "lingerie": 5077,
      "pant": 5078,
      "roadwork": 5079,
      "ished": 5080,
      "jog": 5081,
      "strian": 5082,
      "qua": 5083,
      "sands": 5084,
      "ploring": 5085,
      "olor": 5086,
      "themed": 5087,
      "baseman": 5088,
      "tribe": 5089,
      "trimming": 5090,
      "daylight": 5091,
      "towels": 5092,
      "barking": 5093,
      "barren": 5094,
      "whole": 5095,
      "storefronts": 5096,
      "web": 5097,
      "sline": 5098,
      "exploring": 5099,
      "floati": 5100,
      "nike": 5101,
      "winding": 5102,
      "windbreak": 5103,
      "motorbikes": 5104,
      "sweaters": 5105,
      "sweatsuit": 5106,
      "sweatshirts": 5107,
      "agne": 5108,
      "fireplace": 5109,
      "obama": 5110,
      "armor": 5111,
      "canopy": 5112,
      "drivers": 5113,
      "dribbles": 5114,
      "sheer": 5115,
      "passed": 5116,
      "passion": 5117,
      "installing": 5118,
      "capture": 5119,
      "rounding": 5120,
      "sister": 5121,
      "opened": 5122,
      "anged": 5123,
      "instructing": 5124,
      "bookshelf": 5125,
      "least": 5126,
      "cartwheel": 5127,
      "rested": 5128,
      "disney": 5129,
      "besides": 5130,
      "given": 5131,
      "competitors": 5132,
      "competitive": 5133,
      "clothesline": 5134,
      "served": 5135,
      "graphic": 5136,
      "starts": 5137,
      "cowgirl": 5138,
      "suburban": 5139,
      "interact": 5140,
      "itement": 5141,
      "snowboarders": 5142,
      "cooki": 5143,
      "cooked": 5144,
      "foam": 5145,
      "friendly": 5146,
      "curve": 5147,
      "curtain": 5148,
      "curved": 5149,
      "applies": 5150,
      "shoeshine": 5151,
      "message": 5152,
      "ivan": 5153,
      "film": 5154,
      "carried": 5155,
      "graffitied": 5156,
      "appearing": 5157,
      "baton": 5158,
      "steers": 5159,
      "stered": 5160,
      "steam": 5161,
      "breast": 5162,
      "breaks": 5163,
      "vio": 5164,
      "rowboat": 5165,
      "photographing": 5166,
      "crazy": 5167,
      "padding": 5168,
      "milk": 5169,
      "bloss": 5170,
      "vegetation": 5171,
      "waitress": 5172,
      "letter": 5173,
      "petals": 5174,
      "butt": 5175,
      "hammers": 5176,
      "stylish": 5177,
      "artistic": 5178,
      "splash": 5179,
      "directs": 5180,
      "avai": 5181,
      "nicely": 5182,
      "saying": 5183,
      "chained": 5184,
      "chains": 5185,
      "masked": 5186,
      "violini": 5187,
      "observers": 5188,
      "businessman": 5189,
      "tunic": 5190,
      "decorating": 5191,
      "shady": 5192,
      "partying": 5193,
      "operation": 5194,
      "campers": 5195,
      "campsite": 5196,
      "harp": 5197,
      "pengu": 5198,
      "leashes": 5199,
      "makeshift": 5200,
      "cloths": 5201,
      "balanced": 5202,
      "cattle": 5203,
      "multicolor": 5204,
      "contents": 5205,
      "minivan": 5206,
      "refre": 5207,
      "attentively": 5208,
      "attendant": 5209,
      "delic": 5210,
      "rubble": 5211,
      "dramat": 5212,
      "scales": 5213,
      "blocked": 5214,
      "lowered": 5215,
      "includes": 5216,
      "donkeys": 5217,
      "peacock": 5218,
      "eyeglasses": 5219,
      "dunking": 5220,
      "fairy": 5221,
      "hooping": 5222,
      "posters": 5223,
      "pedestrian": 5224,
      "stacks": 5225,
      "saxop": 5226,
      "exciting": 5227,
      "excitement": 5228,
      "padded": 5229,
      "clearing": 5230,
      "pinstriped": 5231,
      "pinned": 5232,
      "tongs": 5233,
      "sheets": 5234,
      "mustard": 5235,
      "braided": 5236,
      "welcome": 5237,
      "designer": 5238,
      "bites": 5239,
      "emerges": 5240,
      "kerchief": 5241,
      "vacation": 5242,
      "opponents": 5243,
      "possession": 5244,
      "positioned": 5245,
      "cooler": 5246,
      "coolers": 5247,
      "salad": 5248,
      "sailor": 5249,
      "sailboats": 5250,
      "rollerskaters": 5251,
      "tossed": 5252,
      "parachuting": 5253,
      "parachutes": 5254,
      "descending": 5255,
      "fishermen": 5256,
      "zebra": 5257,
      "flee": 5258,
      "beginning": 5259,
      "embrace": 5260,
      "sacks": 5261,
      "tumbling": 5262,
      "elephants": 5263,
      "drilling": 5264,
      "spike": 5265,
      "priest": 5266,
      "cheeks": 5267,
      "merchant": 5268,
      "comforting": 5269,
      "comfortable": 5270,
      "archway": 5271,
      "bushy": 5272,
      "plush": 5273,
      "claus": 5274,
      "assistant": 5275,
      "bounding": 5276,
      "attraction": 5277,
      "blurry": 5278,
      "expressions": 5279,
      "crawling": 5280,
      "gliding": 5281,
      "glider": 5282,
      "utility": 5283,
      "tomato": 5284,
      "cockpit": 5285,
      "combat": 5286,
      "sponsored": 5287,
      "collecting": 5288,
      "lantern": 5289,
      "bundled": 5290,
      "community": 5291,
      "massive": 5292,
      "poodles": 5293,
      "reclines": 5294,
      "cept": 5295,
      "bronze": 5296,
      "watermelon": 5297,
      "crowns": 5298,
      "banana": 5299,
      "mcdonalds": 5300,
      "remote": 5301,
      "dominoes": 5302,
      "blindfolded": 5303,
      "weapons": 5304,
      "slicing": 5305,
      "huddled": 5306,
      "leaned": 5307,
      "arrive": 5308,
      "interviewed": 5309,
      "depic": 5310,
      "concentrates": 5311,
      "eagerly": 5312,
      "antique": 5313,
      "register": 5314,
      "historic": 5315,
      "toilet": 5316,
      "challenge": 5317,
      "ascending": 5318,
      "confused": 5319,
      "spongebob": 5320,
      "tuxedo": 5321,
      "mannequin": 5322,
      "adole": 5323,
      "searching": 5324,
      "dolph": 5325,
      "memorial": 5326,
      "snorkel": 5327,
      "terminal": 5328,
      "passerby": 5329,
      "barbecuing": 5330,
      "occupied": 5331,
      "exhibition": 5332,
      "conditions": 5333,
      "kimonos": 5334,
      "taught": 5335,
      "tambour": 5336,
      "brindle": 5337,
      "pacifier": 5338,
      "bakery": 5339,
      "contempl": 5340,
      "surgeons": 5341,
      "champagne": 5342,
      "symbol": 5343,
      "vocalist": 5344,
      "magnifying": 5345,
      "clarinet": 5346,
      "equestrian": 5347,
      "varying": 5348,
      "recreational": 5349,
      "asphalt": 5350,
      "vertical": 5351,
      "carousel": 5352,
      "apparatus": 5353,
      "dilapidated": 5354,
      "floaties": 5355,
      "windbreaker": 5356,
      "cookies": 5357,
      "available": 5358,
      "0s": 5359,
      "95": 5360,
      "aerial": 5361,
      "bout": 5362,
      "banging": 5363,
      "cred": 5364,
      "das": 5365,
      "doo": 5366,
      "dge": 5367,
      "fal": 5368,
      "fid": 5369,
      "fine": 5370,
      "flea": 5371,
      "gor": 5372,
      "gur": 5373,
      "gay": 5374,
      "gover": 5375,
      "gent": 5376,
      "gated": 5377,
      "glan": 5378,
      "hs": 5379,
      "hed": 5380,
      "hung": 5381,
      "ister": 5382,
      "jar": 5383,
      "kely": 5384,
      "kilts": 5385,
      "lla": 5386,
      "lic": 5387,
      "loud": 5388,
      "mr": 5389,
      "mow": 5390,
      "mick": 5391,
      "mely": 5392,
      "mbling": 5393,
      "nin": 5394,
      "nan": 5395,
      "nat": 5396,
      "national": 5397,
      "oy": 5398,
      "oke": 5399,
      "poun": 5400,
      "prun": 5401,
      "pong": 5402,
      "pite": 5403,
      "rou": 5404,
      "sou": 5405,
      "sat": 5406,
      "swo": 5407,
      "satch": 5408,
      "sons": 5409,
      "slot": 5410,
      "tt": 5411,
      "tin": 5412,
      "twel": 5413,
      "uge": 5414,
      "ura": 5415,
      "uten": 5416,
      "uku": 5417,
      "vy": 5418,
      "vast": 5419,
      "veter": 5420,
      "wan": 5421,
      "winning": 5422,
      "xis": 5423,
      "yond": 5424,
      "yama": 5425,
      "zil": 5426,
      "inas": 5427,
      "inspe": 5428,
      "inline": 5429,
      "incoming": 5430,
      "ann": 5431,
      "thor": 5432,
      "think": 5433,
      "rear": 5434,
      "rero": 5435,
      "respec": 5436,
      "retail": 5437,
      "removing": 5438,
      "returning": 5439,
      "once": 5440,
      "onics": 5441,
      "lei": 5442,
      "lele": 5443,
      "mani": 5444,
      "arid": 5445,
      "archi": 5446,
      "hikes": 5447,
      "hidd": 5448,
      "hips": 5449,
      "hitch": 5450,
      "hilly": 5451,
      "andex": 5452,
      "atown": 5453,
      "stry": 5454,
      "alike": 5455,
      "isk": 5456,
      "ises": 5457,
      "lak": 5458,
      "laho": 5459,
      "lakes": 5460,
      "ladd": 5461,
      "label": 5462,
      "enfor": 5463,
      "engage": 5464,
      "itating": 5465,
      "wigs": 5466,
      "wipes": 5467,
      "wicker": 5468,
      "toast": 5469,
      "orders": 5470,
      "chore": 5471,
      "oppy": 5472,
      "arer": 5473,
      "areas": 5474,
      "pep": 5475,
      "pect": 5476,
      "peeling": 5477,
      "boston": 5478,
      "asm": 5479,
      "grid": 5480,
      "grins": 5481,
      "grooms": 5482,
      "earmu": 5483,
      "allic": 5484,
      "dod": 5485,
      "dolly": 5486,
      "dozens": 5487,
      "playpen": 5488,
      "roses": 5489,
      "rols": 5490,
      "una": 5491,
      "union": 5492,
      "unice": 5493,
      "unseen": 5494,
      "unpaved": 5495,
      "unpacking": 5496,
      "gee": 5497,
      "shit": 5498,
      "shields": 5499,
      "blown": 5500,
      "bloom": 5501,
      "reds": 5502,
      "reddish": 5503,
      "siting": 5504,
      "else": 5505,
      "ades": 5506,
      "advan": 5507,
      "owner": 5508,
      "owners": 5509,
      "youngsters": 5510,
      "megap": 5511,
      "best": 5512,
      "begging": 5513,
      "beyond": 5514,
      "bearer": 5515,
      "shr": 5516,
      "shu": 5517,
      "shell": 5518,
      "blade": 5519,
      "ries": 5520,
      "coal": 5521,
      "coke": 5522,
      "como": 5523,
      "cotch": 5524,
      "cemet": 5525,
      "force": 5526,
      "forces": 5527,
      "fortun": 5528,
      "seam": 5529,
      "seeds": 5530,
      "tap": 5531,
      "taste": 5532,
      "tasting": 5533,
      "tagged": 5534,
      "taxis": 5535,
      "soil": 5536,
      "verty": 5537,
      "loose": 5538,
      "aircraft": 5539,
      "frustr": 5540,
      "illed": 5541,
      "ilted": 5542,
      "liber": 5543,
      "likely": 5544,
      "buggy": 5545,
      "buoy": 5546,
      "vegas": 5547,
      "amic": 5548,
      "loop": 5549,
      "logy": 5550,
      "locomo": 5551,
      "streetlight": 5552,
      "bringing": 5553,
      "tim": 5554,
      "tible": 5555,
      "tiles": 5556,
      "tific": 5557,
      "cara": 5558,
      "pokes": 5559,
      "poised": 5560,
      "poverty": 5561,
      "keeping": 5562,
      "appare": 5563,
      "file": 5564,
      "fives": 5565,
      "someones": 5566,
      "word": 5567,
      "runway": 5568,
      "ached": 5569,
      "para": 5570,
      "russ": 5571,
      "sket": 5572,
      "formed": 5573,
      "formally": 5574,
      "ridding": 5575,
      "grounds": 5576,
      "pastri": 5577,
      "paws": 5578,
      "kswa": 5579,
      "crop": 5580,
      "bathers": 5581,
      "conso": 5582,
      "consid": 5583,
      "snowing": 5584,
      "overcoat": 5585,
      "overhang": 5586,
      "overturned": 5587,
      "mbone": 5588,
      "terrace": 5589,
      "tram": 5590,
      "moting": 5591,
      "mosa": 5592,
      "scri": 5593,
      "scared": 5594,
      "workbench": 5595,
      "pering": 5596,
      "eatery": 5597,
      "closer": 5598,
      "topic": 5599,
      "topus": 5600,
      "kettle": 5601,
      "spin": 5602,
      "spandex": 5603,
      "readying": 5604,
      "headscarves": 5605,
      "orescent": 5606,
      "sunhat": 5607,
      "sunrise": 5608,
      "sunbathers": 5609,
      "goers": 5610,
      "puffy": 5611,
      "pical": 5612,
      "pictured": 5613,
      "marks": 5614,
      "markings": 5615,
      "deal": 5616,
      "demo": 5617,
      "deere": 5618,
      "rocking": 5619,
      "bicle": 5620,
      "floppy": 5621,
      "metrop": 5622,
      "metallic": 5623,
      "fourth": 5624,
      "guitarists": 5625,
      "roping": 5626,
      "studies": 5627,
      "came": 5628,
      "casts": 5629,
      "cables": 5630,
      "cafet": 5631,
      "torn": 5632,
      "ffs": 5633,
      "ffle": 5634,
      "ffles": 5635,
      "panel": 5636,
      "pancake": 5637,
      "roadway": 5638,
      "brimmed": 5639,
      "buses": 5640,
      "helped": 5641,
      "joggers": 5642,
      "horns": 5643,
      "enders": 5644,
      "chews": 5645,
      "kiddie": 5646,
      "strip": 5647,
      "strikes": 5648,
      "pretending": 5649,
      "pregn": 5650,
      "sandal": 5651,
      "footbridge": 5652,
      "cubicle": 5653,
      "saf": 5654,
      "sau": 5655,
      "safe": 5656,
      "sales": 5657,
      "spear": 5658,
      "pursu": 5659,
      "purchasing": 5660,
      "plowing": 5661,
      "basement": 5662,
      "trio": 5663,
      "trims": 5664,
      "triangle": 5665,
      "mountainside": 5666,
      "proof": 5667,
      "promoting": 5668,
      "cords": 5669,
      "typical": 5670,
      "wee": 5671,
      "weed": 5672,
      "weird": 5673,
      "weeds": 5674,
      "western": 5675,
      "sloping": 5676,
      "suv": 5677,
      "such": 5678,
      "sumo": 5679,
      "sucking": 5680,
      "helmeted": 5681,
      "exper": 5682,
      "exits": 5683,
      "exposed": 5684,
      "except": 5685,
      "nique": 5686,
      "motorboat": 5687,
      "sweaty": 5688,
      "created": 5689,
      "slender": 5690,
      "piled": 5691,
      "constructing": 5692,
      "firetrucks": 5693,
      "trained": 5694,
      "driven": 5695,
      "dribbling": 5696,
      "bowler": 5697,
      "basketballs": 5698,
      "despite": 5699,
      "nology": 5700,
      "rounds": 5701,
      "sight": 5702,
      "smith": 5703,
      "skimpy": 5704,
      "dug": 5705,
      "bears": 5706,
      "aker": 5707,
      "bookstore": 5708,
      "bookbag": 5709,
      "pulley": 5710,
      "shave": 5711,
      "disk": 5712,
      "beards": 5713,
      "stairwell": 5714,
      "competes": 5715,
      "kitchenaid": 5716,
      "kickboxing": 5717,
      "county": 5718,
      "starbucks": 5719,
      "mascara": 5720,
      "ddling": 5721,
      "substance": 5722,
      "africa": 5723,
      "volkswa": 5724,
      "paintings": 5725,
      "gyback": 5726,
      "viewer": 5727,
      "bridal": 5728,
      "mermaid": 5729,
      "temporary": 5730,
      "famil": 5731,
      "monster": 5732,
      "current": 5733,
      "mesh": 5734,
      "preparation": 5735,
      "phys": 5736,
      "bats": 5737,
      "railway": 5738,
      "cupcake": 5739,
      "cupcakes": 5740,
      "steer": 5741,
      "steaks": 5742,
      "breaking": 5743,
      "squat": 5744,
      "squir": 5745,
      "taller": 5746,
      "landed": 5747,
      "wetsuits": 5748,
      "statues": 5749,
      "potted": 5750,
      "via": 5751,
      "psy": 5752,
      "tches": 5753,
      "fetching": 5754,
      "ramps": 5755,
      "photography": 5756,
      "crab": 5757,
      "picker": 5758,
      "pickup": 5759,
      "spectate": 5760,
      "ctors": 5761,
      "diners": 5762,
      "write": 5763,
      "tattered": 5764,
      "stationary": 5765,
      "screw": 5766,
      "media": 5767,
      "leton": 5768,
      "letters": 5769,
      "paintbrush": 5770,
      "fighter": 5771,
      "structures": 5772,
      "washed": 5773,
      "electronics": 5774,
      "seeming": 5775,
      "soldering": 5776,
      "pitchers": 5777,
      "artific": 5778,
      "caution": 5779,
      "avoid": 5780,
      "sweep": 5781,
      "circuit": 5782,
      "shoots": 5783,
      "sculpting": 5784,
      "sculptor": 5785,
      "tuning": 5786,
      "wrapping": 5787,
      "lifeguards": 5788,
      "partly": 5789,
      "coveralls": 5790,
      "camper": 5791,
      "patron": 5792,
      "patrol": 5793,
      "suppor": 5794,
      "pensive": 5795,
      "golfer": 5796,
      "chested": 5797,
      "swimwear": 5798,
      "celebrates": 5799,
      "washington": 5800,
      "controls": 5801,
      "minisk": 5802,
      "layers": 5803,
      "princess": 5804,
      "squares": 5805,
      "tackles": 5806,
      "notice": 5807,
      "seaweed": 5808,
      "guarding": 5809,
      "daughters": 5810,
      "scale": 5811,
      "participates": 5812,
      "know": 5813,
      "frames": 5814,
      "storage": 5815,
      "strawberry": 5816,
      "cleaned": 5817,
      "fluorescent": 5818,
      "crib": 5819,
      "dunk": 5820,
      "dunes": 5821,
      "postal": 5822,
      "flatbed": 5823,
      "speedo": 5824,
      "kayaker": 5825,
      "kayakers": 5826,
      "stacking": 5827,
      "approxim": 5828,
      "weave": 5829,
      "weathered": 5830,
      "balconies": 5831,
      "bungee": 5832,
      "bathrobe": 5833,
      "brazil": 5834,
      "professionals": 5835,
      "drops": 5836,
      "dropped": 5837,
      "pressure": 5838,
      "siding": 5839,
      "scoop": 5840,
      "scott": 5841,
      "halter": 5842,
      "waring": 5843,
      "warning": 5844,
      "rollerblader": 5845,
      "stools": 5846,
      "freshly": 5847,
      "sheepdog": 5848,
      "emerging": 5849,
      "messenger": 5850,
      "texts": 5851,
      "fashionable": 5852,
      "troops": 5853,
      "trombone": 5854,
      "charcoal": 5855,
      "speakers": 5856,
      "entertainer": 5857,
      "mustached": 5858,
      "firing": 5859,
      "ginger": 5860,
      "piggyback": 5861,
      "tosses": 5862,
      "carpeted": 5863,
      "collection": 5864,
      "bounce": 5865,
      "maintain": 5866,
      "descend": 5867,
      "receive": 5868,
      "receives": 5869,
      "octopus": 5870,
      "youths": 5871,
      "actively": 5872,
      "muzzles": 5873,
      "twister": 5874,
      "thinking": 5875,
      "peeks": 5876,
      "jewelery": 5877,
      "propane": 5878,
      "wades": 5879,
      "commu": 5880,
      "ballerinas": 5881,
      "keeper": 5882,
      "leafless": 5883,
      "surroundings": 5884,
      "cookie": 5885,
      "extended": 5886,
      "headbands": 5887,
      "villagers": 5888,
      "cruise": 5889,
      "crutches": 5890,
      "straps": 5891,
      "tightly": 5892,
      "tightrope": 5893,
      "spikes": 5894,
      "spiked": 5895,
      "craftsman": 5896,
      "galloping": 5897,
      "prizes": 5898,
      "parasol": 5899,
      "demonstrating": 5900,
      "similarly": 5901,
      "boulders": 5902,
      "euro": 5903,
      "organizing": 5904,
      "seashore": 5905,
      "chickens": 5906,
      "plucking": 5907,
      "jazz": 5908,
      "sorts": 5909,
      "interested": 5910,
      "technique": 5911,
      "technology": 5912,
      "seniors": 5913,
      "adorable": 5914,
      "tickets": 5915,
      "projected": 5916,
      "fitness": 5917,
      "impressive": 5918,
      "pirates": 5919,
      "slam": 5920,
      "arabic": 5921,
      "sniffs": 5922,
      "calling": 5923,
      "fatig": 5924,
      "henna": 5925,
      "decide": 5926,
      "defenders": 5927,
      "defensive": 5928,
      "crayon": 5929,
      "maneuver": 5930,
      "stirs": 5931,
      "chinatown": 5932,
      "magic": 5933,
      "slices": 5934,
      "floored": 5935,
      "oxen": 5936,
      "oversized": 5937,
      "intense": 5938,
      "seagull": 5939,
      "smoothing": 5940,
      "pillars": 5941,
      "twirling": 5942,
      "retrieving": 5943,
      "skeleton": 5944,
      "mechanic": 5945,
      "mechanical": 5946,
      "weighing": 5947,
      "graduation": 5948,
      "chiseling": 5949,
      "powder": 5950,
      "lemons": 5951,
      "rabbit": 5952,
      "rabbits": 5953,
      "stockings": 5954,
      "communicating": 5955,
      "bracelet": 5956,
      "noodles": 5957,
      "swampy": 5958,
      "stalks": 5959,
      "selecting": 5960,
      "mailbox": 5961,
      "greeting": 5962,
      "sprinting": 5963,
      "automobile": 5964,
      "videotaping": 5965,
      "extremely": 5966,
      "enthusiastically": 5967,
      "drainage": 5968,
      "hopscotch": 5969,
      "lonely": 5970,
      "oklaho": 5971,
      "sashes": 5972,
      "inflated": 5973,
      "chubby": 5974,
      "whispering": 5975,
      "coconuts": 5976,
      "health": 5977,
      "accepting": 5978,
      "hauling": 5979,
      "puzzle": 5980,
      "curious": 5981,
      "sausages": 5982,
      "slowly": 5983,
      "submerged": 5984,
      "prayer": 5985,
      "directly": 5986,
      "question": 5987,
      "participants": 5988,
      "occurring": 5989,
      "scratching": 5990,
      "foundation": 5991,
      "powered": 5992,
      "unidentified": 5993,
      "shapes": 5994,
      "solitary": 5995,
      "sombrero": 5996,
      "cartoon": 5997,
      "snake": 5998,
      "convertible": 5999,
      "quaint": 6000,
      "passionately": 6001,
      "blosso": 6002,
      "violinist": 6003,
      "delicious": 6004,
      "dramatically": 6005,
      "dolphin": 6006,
      "contemplating": 6007,
      "govern": 6008,
      "mickey": 6009,
      "twelve": 6010,
      "utensil": 6011,
      "ukulele": 6012,
      "yamaha": 6013,
      "archite": 6014,
      "hidden": 6015,
      "ladders": 6016,
      "enforcement": 6017,
      "earmuffs": 6018,
      "unicef": 6019,
      "megaphone": 6020,
      "cemetery": 6021,
      "frustrated": 6022,
      "liberty": 6023,
      "apparel": 6024,
      "pastries": 6025,
      "cafeteria": 6026,
      "pregnant": 6027,
      "volkswagen": 6028,
      "currently": 6029,
      "artificial": 6030,
      "scottish": 6031,
      "oklahoma": 6032,
      "08": 6033,
      "14": 6034,
      "24": 6035,
      "30": 6036,
      "3r": 6037,
      "aer": 6038,
      "airl": 6039,
      "ace": 6040,
      "aign": 6041,
      "awe": 6042,
      "avi": 6043,
      "awaits": 6044,
      "ault": 6045,
      "aoke": 6046,
      "bans": 6047,
      "cs": 6048,
      "cis": 6049,
      "cad": 6050,
      "cass": 6051,
      "cent": 6052,
      "cuses": 6053,
      "claw": 6054,
      "coney": 6055,
      "dand": 6056,
      "dal": 6057,
      "did": 6058,
      "dach": 6059,
      "dren": 6060,
      "ditch": 6061,
      "dash": 6062,
      "dreads": 6063,
      "dwell": 6064,
      "dorm": 6065,
      "dreds": 6066,
      "eo": 6067,
      "ever": 6068,
      "emotion": 6069,
      "fc": 6070,
      "fter": 6071,
      "fol": 6072,
      "fum": 6073,
      "ferry": 6074,
      "gle": 6075,
      "gling": 6076,
      "hop": 6077,
      "hedge": 6078,
      "ile": 6079,
      "ifor": 6080,
      "ials": 6081,
      "iasm": 6082,
      "jan": 6083,
      "jour": 6084,
      "jab": 6085,
      "jim": 6086,
      "jars": 6087,
      "junk": 6088,
      "ko": 6089,
      "kore": 6090,
      "kill": 6091,
      "knight": 6092,
      "kart": 6093,
      "lor": 6094,
      "mboy": 6095,
      "mble": 6096,
      "mitive": 6097,
      "now": 6098,
      "nuts": 6099,
      "ninten": 6100,
      "ov": 6101,
      "ohi": 6102,
      "ock": 6103,
      "oed": 6104,
      "obl": 6105,
      "oam": 6106,
      "olit": 6107,
      "oak": 6108,
      "pand": 6109,
      "pouting": 6110,
      "quit": 6111,
      "rand": 6112,
      "ral": 6113,
      "rof": 6114,
      "rul": 6115,
      "sel": 6116,
      "sour": 6117,
      "sick": 6118,
      "spain": 6119,
      "sari": 6120,
      "self": 6121,
      "tit": 6122,
      "tear": 6123,
      "tling": 6124,
      "tation": 6125,
      "turing": 6126,
      "ution": 6127,
      "uish": 6128,
      "uct": 6129,
      "vat": 6130,
      "vate": 6131,
      "vation": 6132,
      "vivid": 6133,
      "wn": 6134,
      "wis": 6135,
      "wade": 6136,
      "welds": 6137,
      "yan": 6138,
      "yet": 6139,
      "yed": 6140,
      "years": 6141,
      "yawning": 6142,
      "inting": 6143,
      "inse": 6144,
      "invest": 6145,
      "infan": 6146,
      "informal": 6147,
      "intimate": 6148,
      "incred": 6149,
      "ingly": 6150,
      "thread": 6151,
      "reen": 6152,
      "rees": 6153,
      "reco": 6154,
      "resc": 6155,
      "report": 6156,
      "remove": 6157,
      "removes": 6158,
      "reviewing": 6159,
      "representing": 6160,
      "leis": 6161,
      "manic": 6162,
      "mantle": 6163,
      "manhole": 6164,
      "manual": 6165,
      "argu": 6166,
      "archa": 6167,
      "hijab": 6168,
      "oul": 6169,
      "ouped": 6170,
      "atic": 6171,
      "attired": 6172,
      "stan": 6173,
      "stap": 6174,
      "strobe": 6175,
      "straining": 6176,
      "alo": 6177,
      "align": 6178,
      "alumin": 6179,
      "ism": 6180,
      "isha": 6181,
      "labr": 6182,
      "ladle": 6183,
      "laces": 6184,
      "enclo": 6185,
      "enclosed": 6186,
      "enail": 6187,
      "iter": 6188,
      "itation": 6189,
      "wii": 6190,
      "ckled": 6191,
      "tote": 6192,
      "tori": 6193,
      "toba": 6194,
      "toenail": 6195,
      "orna": 6196,
      "orously": 6197,
      "ornament": 6198,
      "irking": 6199,
      "chet": 6200,
      "change": 6201,
      "chart": 6202,
      "ete": 6203,
      "etnam": 6204,
      "opin": 6205,
      "opport": 6206,
      "boa": 6207,
      "ashore": 6208,
      "growing": 6209,
      "grouch": 6210,
      "grouped": 6211,
      "earch": 6212,
      "earbu": 6213,
      "earring": 6214,
      "tethered": 6215,
      "testing": 6216,
      "plains": 6217,
      "allowing": 6218,
      "menus": 6219,
      "ico": 6220,
      "icle": 6221,
      "ices": 6222,
      "icap": 6223,
      "dojo": 6224,
      "docu": 6225,
      "dozen": 6226,
      "playhouse": 6227,
      "rored": 6228,
      "rose": 6229,
      "robed": 6230,
      "rods": 6231,
      "holing": 6232,
      "hoses": 6233,
      "hoist": 6234,
      "unity": 6235,
      "unload": 6236,
      "united": 6237,
      "uncompleted": 6238,
      "unison": 6239,
      "geous": 6240,
      "geese": 6241,
      "geisha": 6242,
      "shion": 6243,
      "shielding": 6244,
      "wallet": 6245,
      "situ": 6246,
      "elbow": 6247,
      "add": 6248,
      "adding": 6249,
      "adven": 6250,
      "addresses": 6251,
      "advent": 6252,
      "addressing": 6253,
      "rav": 6254,
      "rakes": 6255,
      "rags": 6256,
      "rainst": 6257,
      "ragged": 6258,
      "meals": 6259,
      "bered": 6260,
      "beans": 6261,
      "beag": 6262,
      "beats": 6263,
      "beater": 6264,
      "shun": 6265,
      "shri": 6266,
      "blacktop": 6267,
      "blacksmith": 6268,
      "rig": 6269,
      "rior": 6270,
      "riotic": 6271,
      "coin": 6272,
      "codi": 6273,
      "forrest": 6274,
      "mping": 6275,
      "mpoo": 6276,
      "secre": 6277,
      "sexy": 6278,
      "tai": 6279,
      "tasty": 6280,
      "tacular": 6281,
      "urs": 6282,
      "urin": 6283,
      "sock": 6284,
      "solar": 6285,
      "somers": 6286,
      "chioed": 6287,
      "ounds": 6288,
      "fring": 6289,
      "france": 6290,
      "lied": 6291,
      "limo": 6292,
      "lives": 6293,
      "livest": 6294,
      "lister": 6295,
      "licked": 6296,
      "lizard": 6297,
      "stress": 6298,
      "streaks": 6299,
      "streached": 6300,
      "strewn": 6301,
      "bug": 6302,
      "bum": 6303,
      "budd": 6304,
      "veil": 6305,
      "ambul": 6306,
      "amused": 6307,
      "loaf": 6308,
      "locked": 6309,
      "lolli": 6310,
      "streetlights": 6311,
      "outcrop": 6312,
      "outstreached": 6313,
      "smirking": 6314,
      "walker": 6315,
      "walkie": 6316,
      "brand": 6317,
      "timber": 6318,
      "uphill": 6319,
      "upcoming": 6320,
      "math": 6321,
      "maple": 6322,
      "carol": 6323,
      "poke": 6324,
      "poll": 6325,
      "poker": 6326,
      "appla": 6327,
      "appre": 6328,
      "fist": 6329,
      "fists": 6330,
      "figur": 6331,
      "neat": 6332,
      "needs": 6333,
      "waterproof": 6334,
      "heeled": 6335,
      "jug": 6336,
      "jugg": 6337,
      "ults": 6338,
      "dresser": 6339,
      "rung": 6340,
      "parlor": 6341,
      "liter": 6342,
      "littered": 6343,
      "backhand": 6344,
      "indig": 6345,
      "index": 6346,
      "hate": 6347,
      "hatted": 6348,
      "rushing": 6349,
      "former": 6350,
      "formations": 6351,
      "assort": 6352,
      "ridor": 6353,
      "cleats": 6354,
      "snar": 6355,
      "snoo": 6356,
      "paw": 6357,
      "page": 6358,
      "pace": 6359,
      "paving": 6360,
      "pastu": 6361,
      "pause": 6362,
      "pages": 6363,
      "baker": 6364,
      "condo": 6365,
      "contor": 6366,
      "consu": 6367,
      "concession": 6368,
      "snows": 6369,
      "snowfla": 6370,
      "snowshoe": 6371,
      "snowbank": 6372,
      "overall": 6373,
      "overlooks": 6374,
      "overpass": 6375,
      "frosting": 6376,
      "boarder": 6377,
      "tuba": 6378,
      "tulips": 6379,
      "terior": 6380,
      "dia": 6381,
      "distor": 6382,
      "digger": 6383,
      "handful": 6384,
      "handmade": 6385,
      "handkerchief": 6386,
      "handicap": 6387,
      "trap": 6388,
      "travers": 6389,
      "acts": 6390,
      "moon": 6391,
      "moss": 6392,
      "moved": 6393,
      "mosque": 6394,
      "jackhammer": 6395,
      "waking": 6396,
      "scrub": 6397,
      "hazard": 6398,
      "offers": 6399,
      "swer": 6400,
      "sweating": 6401,
      "stained": 6402,
      "stachioed": 6403,
      "trough": 6404,
      "trink": 6405,
      "trouble": 6406,
      "ceramic": 6407,
      "topped": 6408,
      "spare": 6409,
      "spits": 6410,
      "spreading": 6411,
      "spreads": 6412,
      "spilled": 6413,
      "headgear": 6414,
      "hairnet": 6415,
      "sunhats": 6416,
      "strumming": 6417,
      "gues": 6418,
      "goof": 6419,
      "parka": 6420,
      "maria": 6421,
      "marina": 6422,
      "dered": 6423,
      "devil": 6424,
      "mets": 6425,
      "meter": 6426,
      "metric": 6427,
      "cameramen": 6428,
      "woodworking": 6429,
      "suite": 6430,
      "suited": 6431,
      "study": 6432,
      "cages": 6433,
      "shots": 6434,
      "blonds": 6435,
      "paneled": 6436,
      "colon": 6437,
      "ctic": 6438,
      "hello": 6439,
      "joe": 6440,
      "jogger": 6441,
      "graying": 6442,
      "uniqu": 6443,
      "chew": 6444,
      "cheers": 6445,
      "antic": 6446,
      "presu": 6447,
      "prevent": 6448,
      "pretends": 6449,
      "quilt": 6450,
      "itself": 6451,
      "sandpit": 6452,
      "footprints": 6453,
      "cushion": 6454,
      "save": 6455,
      "sauna": 6456,
      "underway": 6457,
      "umber": 6458,
      "boating": 6459,
      "enters": 6460,
      "olate": 6461,
      "ollie": 6462,
      "tane": 6463,
      "tanned": 6464,
      "trips": 6465,
      "darts": 6466,
      "provide": 6467,
      "procession": 6468,
      "program": 6469,
      "signal": 6470,
      "darkly": 6471,
      "darkness": 6472,
      "towed": 6473,
      "towering": 6474,
      "bark": 6475,
      "barbie": 6476,
      "cord": 6477,
      "corder": 6478,
      "corral": 6479,
      "corridor": 6480,
      "tye": 6481,
      "aut": 6482,
      "whose": 6483,
      "slum": 6484,
      "susp": 6485,
      "sucks": 6486,
      "suds": 6487,
      "exe": 6488,
      "exit": 6489,
      "exca": 6490,
      "exposing": 6491,
      "expensive": 6492,
      "flotation": 6493,
      "nia": 6494,
      "nibbling": 6495,
      "winded": 6496,
      "toyota": 6497,
      "aging": 6498,
      "agility": 6499,
      "creative": 6500,
      "wheat": 6501,
      "session": 6502,
      "related": 6503,
      "reluct": 6504,
      "abil": 6505,
      "sleigh": 6506,
      "huts": 6507,
      "huddling": 6508,
      "flamboy": 6509,
      "canes": 6510,
      "canned": 6511,
      "canister": 6512,
      "dries": 6513,
      "dried": 6514,
      "drift": 6515,
      "bowed": 6516,
      "sticker": 6517,
      "pastor": 6518,
      "pastel": 6519,
      "pastry": 6520,
      "descri": 6521,
      "desolate": 6522,
      "trek": 6523,
      "treats": 6524,
      "baggage": 6525,
      "bagpipe": 6526,
      "restaurants": 6527,
      "again": 6528,
      "capes": 6529,
      "captain": 6530,
      "captured": 6531,
      "mustachioed": 6532,
      "highly": 6533,
      "packages": 6534,
      "sips": 6535,
      "simul": 6536,
      "sipping": 6537,
      "sizes": 6538,
      "skim": 6539,
      "ducking": 6540,
      "duffel": 6541,
      "angular": 6542,
      "aki": 6543,
      "instruction": 6544,
      "costumed": 6545,
      "shampoo": 6546,
      "gifts": 6547,
      "machete": 6548,
      "kicker": 6549,
      "turf": 6550,
      "tural": 6551,
      "turbans": 6552,
      "services": 6553,
      "faced": 6554,
      "facade": 6555,
      "banquet": 6556,
      "counters": 6557,
      "fliers": 6558,
      "flights": 6559,
      "wheeling": 6560,
      "interior": 6561,
      "gyro": 6562,
      "gypsy": 6563,
      "views": 6564,
      "califor": 6565,
      "merized": 6566,
      "focuses": 6567,
      "stock": 6568,
      "pointy": 6569,
      "monks": 6570,
      "curling": 6571,
      "applied": 6572,
      "planes": 6573,
      "dentist": 6574,
      "lottery": 6575,
      "mesmerized": 6576,
      "ived": 6577,
      "beautifully": 6578,
      "films": 6579,
      "phar": 6580,
      "rappelling": 6581,
      "takeout": 6582,
      "batons": 6583,
      "battling": 6584,
      "kissed": 6585,
      "stetho": 6586,
      "silk": 6587,
      "squinting": 6588,
      "landmark": 6589,
      "took": 6590,
      "better": 6591,
      "statute": 6592,
      "vietnam": 6593,
      "atives": 6594,
      "happening": 6595,
      "equipped": 6596,
      "bordered": 6597,
      "ronaut": 6598,
      "rowers": 6599,
      "cracks": 6600,
      "garment": 6601,
      "protester": 6602,
      "schoolgirl": 6603,
      "multit": 6604,
      "mike": 6605,
      "might": 6606,
      "wrong": 6607,
      "animated": 6608,
      "waited": 6609,
      "meditating": 6610,
      "painters": 6611,
      "paintball": 6612,
      "pets": 6613,
      "breakfast": 6614,
      "pairs": 6615,
      "cutout": 6616,
      "cutoff": 6617,
      "hamburgers": 6618,
      "hamburger": 6619,
      "lence": 6620,
      "styrof": 6621,
      "electrical": 6622,
      "research": 6623,
      "bulls": 6624,
      "mirrored": 6625,
      "indians": 6626,
      "pitches": 6627,
      "pitched": 6628,
      "director": 6629,
      "directed": 6630,
      "onlooker": 6631,
      "audio": 6632,
      "fences": 6633,
      "sedan": 6634,
      "sweet": 6635,
      "berlin": 6636,
      "surfboards": 6637,
      "violins": 6638,
      "camcorder": 6639,
      "observed": 6640,
      "countertop": 6641,
      "sleds": 6642,
      "sledge": 6643,
      "burn": 6644,
      "shading": 6645,
      "shaded": 6646,
      "partner": 6647,
      "talkie": 6648,
      "spectacular": 6649,
      "campaign": 6650,
      "patriotic": 6651,
      "electrician": 6652,
      "final": 6653,
      "contin": 6654,
      "content": 6655,
      "refuge": 6656,
      "attend": 6657,
      "layered": 6658,
      "pierced": 6659,
      "squarepants": 6660,
      "astronaut": 6661,
      "dishwasher": 6662,
      "profile": 6663,
      "gardens": 6664,
      "knits": 6665,
      "karaoke": 6666,
      "donuts": 6667,
      "housing": 6668,
      "ponders": 6669,
      "culture": 6670,
      "napkin": 6671,
      "festive": 6672,
      "dunks": 6673,
      "hurdles": 6674,
      "italian": 6675,
      "streams": 6676,
      "contains": 6677,
      "decker": 6678,
      "paddlers": 6679,
      "coverings": 6680,
      "kinds": 6681,
      "attaches": 6682,
      "braces": 6683,
      "professionally": 6684,
      "pressing": 6685,
      "presses": 6686,
      "scoops": 6687,
      "careful": 6688,
      "mopping": 6689,
      "warrior": 6690,
      "sprinkling": 6691,
      "sprinkles": 6692,
      "sprinkled": 6693,
      "warmly": 6694,
      "keyboards": 6695,
      "engages": 6696,
      "feeds": 6697,
      "transporting": 6698,
      "vacant": 6699,
      "records": 6700,
      "positions": 6701,
      "fixture": 6702,
      "bmw": 6703,
      "effort": 6704,
      "salmon": 6705,
      "trots": 6706,
      "referees": 6707,
      "wildflowers": 6708,
      "charging": 6709,
      "entertains": 6710,
      "entertaining": 6711,
      "entertained": 6712,
      "entertainment": 6713,
      "fingernail": 6714,
      "fingertips": 6715,
      "supervis": 6716,
      "freeway": 6717,
      "racquet": 6718,
      "mixes": 6719,
      "mixed": 6720,
      "peaceful": 6721,
      "bouncer": 6722,
      "bounces": 6723,
      "bouncy": 6724,
      "descends": 6725,
      "ironing": 6726,
      "grandmother": 6727,
      "granddaughter": 6728,
      "cereal": 6729,
      "trumpets": 6730,
      "ponytails": 6731,
      "popul": 6732,
      "popping": 6733,
      "twigs": 6734,
      "twilight": 6735,
      "dumps": 6736,
      "heartbeat": 6737,
      "nursing": 6738,
      "xiously": 6739,
      "crashes": 6740,
      "crashed": 6741,
      "leafy": 6742,
      "aquatic": 6743,
      "extends": 6744,
      "ific": 6745,
      "numbered": 6746,
      "sparse": 6747,
      "sparks": 6748,
      "lounges": 6749,
      "cobbled": 6750,
      "spiking": 6751,
      "patiently": 6752,
      "primitive": 6753,
      "patches": 6754,
      "bullet": 6755,
      "parasail": 6756,
      "pumpkins": 6757,
      "vacuums": 6758,
      "demonstrates": 6759,
      "organized": 6760,
      "amazing": 6761,
      "briskly": 6762,
      "period": 6763,
      "plugging": 6764,
      "dustpan": 6765,
      "clasp": 6766,
      "clams": 6767,
      "knives": 6768,
      "technic": 6769,
      "notebooks": 6770,
      "screams": 6771,
      "names": 6772,
      "enthusiasm": 6773,
      "poorly": 6774,
      "tricycles": 6775,
      "impro": 6776,
      "paying": 6777,
      "powerpoint": 6778,
      "vaulting": 6779,
      "mexico": 6780,
      "featured": 6781,
      "handlebars": 6782,
      "collected": 6783,
      "portraits": 6784,
      "shadowed": 6785,
      "navigating": 6786,
      "leotards": 6787,
      "tasks": 6788,
      "recliner": 6789,
      "accompanies": 6790,
      "decals": 6791,
      "defends": 6792,
      "briefs": 6793,
      "horizont": 6794,
      "potatoes": 6795,
      "reflections": 6796,
      "crotch": 6797,
      "crocs": 6798,
      "crocodi": 6799,
      "everyone": 6800,
      "everywhere": 6801,
      "hundreds": 6802,
      "latino": 6803,
      "rises": 6804,
      "removed": 6805,
      "maneuvers": 6806,
      "maneuvering": 6807,
      "assembly": 6808,
      "unusually": 6809,
      "measure": 6810,
      "pockets": 6811,
      "explores": 6812,
      "explosion": 6813,
      "explorer": 6814,
      "elevator": 6815,
      "enthusiast": 6816,
      "flood": 6817,
      "flooded": 6818,
      "latex": 6819,
      "oxford": 6820,
      "overse": 6821,
      "sparkler": 6822,
      "sparklers": 6823,
      "recently": 6824,
      "arrival": 6825,
      "launching": 6826,
      "launches": 6827,
      "hollister": 6828,
      "forklift": 6829,
      "butchering": 6830,
      "tutus": 6831,
      "diverse": 6832,
      "twirl": 6833,
      "twirls": 6834,
      "retriever": 6835,
      "ritual": 6836,
      "released": 6837,
      "stony": 6838,
      "issue": 6839,
      "tells": 6840,
      "telling": 6841,
      "needed": 6842,
      "scraper": 6843,
      "awnings": 6844,
      "graduate": 6845,
      "honor": 6846,
      "staying": 6847,
      "toilets": 6848,
      "secure": 6849,
      "secured": 6850,
      "chipper": 6851,
      "lassoing": 6852,
      "cabinet": 6853,
      "flashlight": 6854,
      "turtleneck": 6855,
      "congregating": 6856,
      "congregated": 6857,
      "tuxedos": 6858,
      "mannequins": 6859,
      "noodle": 6860,
      "rooster": 6861,
      "wristband": 6862,
      "ripp": 6863,
      "ripped": 6864,
      "collide": 6865,
      "bathed": 6866,
      "spiral": 6867,
      "sprints": 6868,
      "clerk": 6869,
      "sippy": 6870,
      "videotapes": 6871,
      "piercings": 6872,
      "extreme": 6873,
      "holidays": 6874,
      "cycles": 6875,
      "detail": 6876,
      "ecstat": 6877,
      "kitty": 6878,
      "moose": 6879,
      "samura": 6880,
      "zombies": 6881,
      "zombie": 6882,
      "region": 6883,
      "gripping": 6884,
      "bumper": 6885,
      "skillfully": 6886,
      "crystal": 6887,
      "spiderman": 6888,
      "pleasant": 6889,
      "barricades": 6890,
      "volunteers": 6891,
      "affection": 6892,
      "proudly": 6893,
      "bordering": 6894,
      "ponchos": 6895,
      "average": 6896,
      "drunk": 6897,
      "guest": 6898,
      "mmage": 6899,
      "vigorously": 6900,
      "answers": 6901,
      "threw": 6902,
      "responding": 6903,
      "rectangular": 6904,
      "reporter": 6905,
      "rehearsing": 6906,
      "arranged": 6907,
      "grimacing": 6908,
      "geometric": 6909,
      "admires": 6910,
      "shelter": 6911,
      "solider": 6912,
      "outfielder": 6913,
      "captures": 6914,
      "penguin": 6915,
      "refreshing": 6916,
      "saxophones": 6917,
      "fleece": 6918,
      "depicting": 6919,
      "adolescent": 6920,
      "tambourine": 6921,
      "gorgeous": 6922,
      "llama": 6923,
      "natural": 6924,
      "pruning": 6925,
      "route": 6926,
      "satchel": 6927,
      "veteran": 6928,
      "lakers": 6929,
      "lakeside": 6930,
      "advantage": 6931,
      "fortune": 6932,
      "seamstress": 6933,
      "mosaic": 6934,
      "dealer": 6935,
      "metropolit": 6936,
      "safely": 6937,
      "pursued": 6938,
      "dugout": 6939,
      "families": 6940,
      "screwdriver": 6941,
      "seemingly": 6942,
      "miniskirt": 6943,
      "approximately": 6944,
      "commuters": 6945,
      "healthcare": 6946,
      "blossoming": 6947,
      "government": 6948,
      "utensils": 6949,
      "3rd": 6950,
      "airline": 6951,
      "dandel": 6952,
      "dachshun": 6953,
      "drenched": 6954,
      "dwelling": 6955,
      "janitor": 6956,
      "journal": 6957,
      "korean": 6958,
      "nintendo": 6959,
      "ohio": 6960,
      "panda": 6961,
      "ruler": 6962,
      "investig": 6963,
      "infants": 6964,
      "reenact": 6965,
      "rescue": 6966,
      "arguing": 6967,
      "archaeo": 6968,
      "aluminum": 6969,
      "enclosure": 6970,
      "tobacco": 6971,
      "opportunity": 6972,
      "earbuds": 6973,
      "adventure": 6974,
      "rainstorm": 6975,
      "beagle": 6976,
      "shrimp": 6977,
      "somersault": 6978,
      "livestock": 6979,
      "ambulance": 6980,
      "lollipop": 6981,
      "outcropping": 6982,
      "assortment": 6983,
      "distorted": 6984,
      "handicapped": 6985,
      "mariachi": 6986,
      "uniquely": 6987,
      "simultane": 6988,
      "california": 6989,
      "stethoscope": 6990,
      "vietnamese": 6991,
      "styrofoam": 6992,
      "crocodile": 6993,
      "samurai": 6994,
      "metropolitan": 6995,
      "13": 6996,
      "18": 6997,
      "100": 6998,
      "195": 6999,
      "25": 7000,
      "28": 7001,
      "38": 7002,
      "50": 7003,
      "63": 7004,
      "80": 7005,
      "96": 7006,
      "aa": 7007,
      "ame": 7008,
      "agg": 7009,
      "asts": 7010,
      "aired": 7011,
      "awaiting": 7012,
      "ably": 7013,
      "awk": 7014,
      "bst": 7015,
      "bone": 7016,
      "bree": 7017,
      "bits": 7018,
      "bowing": 7019,
      "bors": 7020,
      "bery": 7021,
      "bins": 7022,
      "binder": 7023,
      "bonding": 7024,
      "cid": 7025,
      "cta": 7026,
      "cac": 7027,
      "curing": 7028,
      "clau": 7029,
      "could": 7030,
      "ccess": 7031,
      "dou": 7032,
      "dir": 7033,
      "dic": 7034,
      "dumb": 7035,
      "dapp": 7036,
      "dav": 7037,
      "drais": 7038,
      "eer": 7039,
      "egre": 7040,
      "ecle": 7041,
      "egy": 7042,
      "eleg": 7043,
      "fare": 7044,
      "fear": 7045,
      "fel": 7046,
      "ffe": 7047,
      "fles": 7048,
      "fres": 7049,
      "gir": 7050,
      "glit": 7051,
      "gway": 7052,
      "gons": 7053,
      "gates": 7054,
      "glow": 7055,
      "hack": 7056,
      "hul": 7057,
      "hend": 7058,
      "hope": 7059,
      "hart": 7060,
      "hoping": 7061,
      "ith": 7062,
      "iow": 7063,
      "igr": 7064,
      "iers": 7065,
      "iment": 7066,
      "imm": 7067,
      "istance": 7068,
      "ique": 7069,
      "ively": 7070,
      "jou": 7071,
      "jes": 7072,
      "jac": 7073,
      "kle": 7074,
      "kel": 7075,
      "kabo": 7076,
      "knot": 7077,
      "kwon": 7078,
      "lons": 7079,
      "later": 7080,
      "lics": 7081,
      "lumber": 7082,
      "mal": 7083,
      "mold": 7084,
      "mong": 7085,
      "mover": 7086,
      "mine": 7087,
      "mca": 7088,
      "mits": 7089,
      "mort": 7090,
      "mood": 7091,
      "mined": 7092,
      "mills": 7093,
      "mongo": 7094,
      "mney": 7095,
      "ng": 7096,
      "nor": 7097,
      "nical": 7098,
      "nches": 7099,
      "norm": 7100,
      "natives": 7101,
      "oh": 7102,
      "ored": 7103,
      "oms": 7104,
      "ograp": 7105,
      "oars": 7106,
      "oxy": 7107,
      "oopy": 7108,
      "pf": 7109,
      "pid": 7110,
      "pun": 7111,
      "pout": 7112,
      "pap": 7113,
      "ply": 7114,
      "piling": 7115,
      "penter": 7116,
      "poul": 7117,
      "rl": 7118,
      "rv": 7119,
      "rat": 7120,
      "rup": 7121,
      "rican": 7122,
      "rates": 7123,
      "rors": 7124,
      "rics": 7125,
      "rising": 7126,
      "swat": 7127,
      "sac": 7128,
      "sus": 7129,
      "sveral": 7130,
      "sous": 7131,
      "sends": 7132,
      "sending": 7133,
      "slips": 7134,
      "slim": 7135,
      "tand": 7136,
      "tis": 7137,
      "tren": 7138,
      "tter": 7139,
      "tink": 7140,
      "till": 7141,
      "tons": 7142,
      "treads": 7143,
      "tins": 7144,
      "tears": 7145,
      "tilts": 7146,
      "twin": 7147,
      "tilla": 7148,
      "tilted": 7149,
      "ux": 7150,
      "ued": 7151,
      "uting": 7152,
      "ugh": 7153,
      "ush": 7154,
      "uve": 7155,
      "uding": 7156,
      "uggling": 7157,
      "ufc": 7158,
      "vw": 7159,
      "vre": 7160,
      "vir": 7161,
      "vad": 7162,
      "vul": 7163,
      "vated": 7164,
      "vise": 7165,
      "voc": 7166,
      "vider": 7167,
      "velling": 7168,
      "wre": 7169,
      "wit": 7170,
      "weld": 7171,
      "wha": 7172,
      "wits": 7173,
      "welder": 7174,
      "would": 7175,
      "wise": 7176,
      "wrists": 7177,
      "wrench": 7178,
      "wants": 7179,
      "wounds": 7180,
      "ya": 7181,
      "yl": 7182,
      "ythe": 7183,
      "yor": 7184,
      "yong": 7185,
      "ymca": 7186,
      "zun": 7187,
      "zig": 7188,
      "zoom": 7189,
      "zag": 7190,
      "zels": 7191,
      "zooms": 7192,
      "inn": 7193,
      "infield": 7194,
      "intr": 7195,
      "insp": 7196,
      "intri": 7197,
      "inno": 7198,
      "inless": 7199,
      "info": 7200,
      "inary": 7201,
      "inches": 7202,
      "incen": 7203,
      "informally": 7204,
      "ani": 7205,
      "anor": 7206,
      "anad": 7207,
      "anian": 7208,
      "ancis": 7209,
      "anxiously": 7210,
      "thro": 7211,
      "thri": 7212,
      "thong": 7213,
      "thouse": 7214,
      "thai": 7215,
      "thurs": 7216,
      "reas": 7217,
      "rema": 7218,
      "rene": 7219,
      "reind": 7220,
      "repre": 7221,
      "revers": 7222,
      "refri": 7223,
      "referen": 7224,
      "regard": 7225,
      "reaction": 7226,
      "reacting": 7227,
      "remember": 7228,
      "resem": 7229,
      "recycling": 7230,
      "repelling": 7231,
      "erts": 7232,
      "onry": 7233,
      "oncoming": 7234,
      "lee": 7235,
      "lev": 7236,
      "letting": 7237,
      "leak": 7238,
      "lechase": 7239,
      "then": 7240,
      "theast": 7241,
      "mane": 7242,
      "manu": 7243,
      "manner": 7244,
      "manage": 7245,
      "manure": 7246,
      "aran": 7247,
      "aring": 7248,
      "arra": 7249,
      "armo": 7250,
      "arab": 7251,
      "hid": 7252,
      "hil": 7253,
      "hier": 7254,
      "hist": 7255,
      "hide": 7256,
      "hides": 7257,
      "higan": 7258,
      "hitching": 7259,
      "oupe": 7260,
      "ato": 7261,
      "atlan": 7262,
      "atyl": 7263,
      "stout": 7264,
      "stitch": 7265,
      "strung": 7266,
      "wok": 7267,
      "alof": 7268,
      "alas": 7269,
      "alter": 7270,
      "alled": 7271,
      "alpine": 7272,
      "always": 7273,
      "alom": 7274,
      "aloud": 7275,
      "album": 7276,
      "iser": 7277,
      "isle": 7278,
      "isla": 7279,
      "isra": 7280,
      "ision": 7281,
      "las": 7282,
      "lack": 7283,
      "lace": 7284,
      "laven": 7285,
      "lava": 7286,
      "eners": 7287,
      "envel": 7288,
      "enous": 7289,
      "entry": 7290,
      "enrolling": 7291,
      "ensem": 7292,
      "ensure": 7293,
      "itti": 7294,
      "itate": 7295,
      "itage": 7296,
      "itude": 7297,
      "wielding": 7298,
      "owl": 7299,
      "owling": 7300,
      "cken": 7301,
      "ckles": 7302,
      "toes": 7303,
      "toting": 7304,
      "toil": 7305,
      "toll": 7306,
      "orig": 7307,
      "orted": 7308,
      "ordin": 7309,
      "orio": 7310,
      "irish": 7311,
      "irons": 7312,
      "irrit": 7313,
      "espress": 7314,
      "cher": 7315,
      "chor": 7316,
      "chun": 7317,
      "chard": 7318,
      "changing": 7319,
      "etti": 7320,
      "idle": 7321,
      "idoo": 7322,
      "idence": 7323,
      "ouncement": 7324,
      "pean": 7325,
      "peas": 7326,
      "pered": 7327,
      "peep": 7328,
      "pebbles": 7329,
      "pecta": 7330,
      "bored": 7331,
      "bomb": 7332,
      "bodies": 7333,
      "aside": 7334,
      "grin": 7335,
      "grate": 7336,
      "griz": 7337,
      "grinning": 7338,
      "growling": 7339,
      "twos": 7340,
      "teas": 7341,
      "tests": 7342,
      "teeter": 7343,
      "ook": 7344,
      "oody": 7345,
      "oodle": 7346,
      "plaster": 7347,
      "placard": 7348,
      "plaque": 7349,
      "placid": 7350,
      "mental": 7351,
      "eding": 7352,
      "ict": 7353,
      "icing": 7354,
      "iced": 7355,
      "icul": 7356,
      "icate": 7357,
      "icles": 7358,
      "dos": 7359,
      "dober": 7360,
      "peoples": 7361,
      "roy": 7362,
      "role": 7363,
      "hog": 7364,
      "host": 7365,
      "hoes": 7366,
      "holl": 7367,
      "homes": 7368,
      "hokey": 7369,
      "hovering": 7370,
      "unt": 7371,
      "unke": 7372,
      "unders": 7373,
      "unwraps": 7374,
      "unfriendly": 7375,
      "tingent": 7376,
      "tinguish": 7377,
      "shish": 7378,
      "shield": 7379,
      "shift": 7380,
      "blues": 7381,
      "bloody": 7382,
      "ssing": 7383,
      "sites": 7384,
      "eliner": 7385,
      "ading": 7386,
      "addle": 7387,
      "adds": 7388,
      "adjac": 7389,
      "adoodle": 7390,
      "owned": 7391,
      "rather": 7392,
      "racks": 7393,
      "raging": 7394,
      "ghetti": 7395,
      "meats": 7396,
      "bemus": 7397,
      "become": 7398,
      "beaker": 7399,
      "shouts": 7400,
      "shroom": 7401,
      "shab": 7402,
      "shments": 7403,
      "shined": 7404,
      "shrub": 7405,
      "shut": 7406,
      "blasts": 7407,
      "blading": 7408,
      "oneer": 7409,
      "blackboard": 7410,
      "rible": 7411,
      "riously": 7412,
      "ribs": 7413,
      "rifles": 7414,
      "cob": 7415,
      "coworker": 7416,
      "coeds": 7417,
      "ceful": 7418,
      "watered": 7419,
      "mph": 7420,
      "mpt": 7421,
      "mper": 7422,
      "mply": 7423,
      "mples": 7424,
      "mphon": 7425,
      "mpoms": 7426,
      "sei": 7427,
      "seal": 7428,
      "sequ": 7429,
      "seash": 7430,
      "semin": 7431,
      "sews": 7432,
      "securing": 7433,
      "segway": 7434,
      "serene": 7435,
      "tae": 7436,
      "taped": 7437,
      "tact": 7438,
      "taping": 7439,
      "ury": 7440,
      "urous": 7441,
      "soak": 7442,
      "soaking": 7443,
      "sodas": 7444,
      "vern": 7445,
      "chili": 7446,
      "chiev": 7447,
      "chipping": 7448,
      "chimney": 7449,
      "balling": 7450,
      "airways": 7451,
      "frond": 7452,
      "frant": 7453,
      "francis": 7454,
      "ils": 7455,
      "ilizing": 7456,
      "lian": 7457,
      "liver": 7458,
      "liard": 7459,
      "likes": 7460,
      "lifier": 7461,
      "bust": 7462,
      "buck": 7463,
      "busk": 7464,
      "bular": 7465,
      "bugs": 7466,
      "buster": 7467,
      "buys": 7468,
      "bucked": 7469,
      "bulent": 7470,
      "veyor": 7471,
      "amond": 7472,
      "amber": 7473,
      "amaran": 7474,
      "los": 7475,
      "loves": 7476,
      "loses": 7477,
      "lovers": 7478,
      "logi": 7479,
      "locking": 7480,
      "locker": 7481,
      "lodge": 7482,
      "ardi": 7483,
      "downing": 7484,
      "downward": 7485,
      "downwards": 7486,
      "outboard": 7487,
      "heron": 7488,
      "herds": 7489,
      "herbs": 7490,
      "hernal": 7491,
      "heritage": 7492,
      "smear": 7493,
      "smel": 7494,
      "smart": 7495,
      "smelling": 7496,
      "walkman": 7497,
      "bring": 7498,
      "brook": 7499,
      "tian": 7500,
      "tives": 7501,
      "timore": 7502,
      "tipping": 7503,
      "tivated": 7504,
      "upstairs": 7505,
      "upraised": 7506,
      "upturned": 7507,
      "maje": 7508,
      "macy": 7509,
      "mably": 7510,
      "maker": 7511,
      "mauve": 7512,
      "cari": 7513,
      "carav": 7514,
      "carcass": 7515,
      "carpenter": 7516,
      "polar": 7517,
      "pomer": 7518,
      "pods": 7519,
      "pompoms": 7520,
      "aphernal": 7521,
      "fired": 7522,
      "filed": 7523,
      "neu": 7524,
      "necks": 7525,
      "eller": 7526,
      "watery": 7527,
      "hea": 7528,
      "heat": 7529,
      "heine": 7530,
      "height": 7531,
      "juggle": 7532,
      "ulic": 7533,
      "worn": 7534,
      "worshi": 7535,
      "worried": 7536,
      "aches": 7537,
      "paris": 7538,
      "parks": 7539,
      "parrot": 7540,
      "paraphernal": 7541,
      "backing": 7542,
      "backed": 7543,
      "backflip": 7544,
      "inding": 7545,
      "hatchet": 7546,
      "rust": 7547,
      "ruffy": 7548,
      "rugged": 7549,
      "rusted": 7550,
      "skit": 7551,
      "skulls": 7552,
      "greens": 7553,
      "greenhouse": 7554,
      "bians": 7555,
      "bistro": 7556,
      "bibs": 7557,
      "renov": 7558,
      "assign": 7559,
      "assists": 7560,
      "assistance": 7561,
      "assorted": 7562,
      "ridge": 7563,
      "blem": 7564,
      "cled": 7565,
      "clever": 7566,
      "clenches": 7567,
      "snail": 7568,
      "snoopy": 7569,
      "snuggling": 7570,
      "feels": 7571,
      "paired": 7572,
      "pabst": 7573,
      "pamph": 7574,
      "cris": 7575,
      "crow": 7576,
      "crank": 7577,
      "throughout": 7578,
      "bale": 7579,
      "baking": 7580,
      "bake": 7581,
      "bales": 7582,
      "baza": 7583,
      "brownish": 7584,
      "yells": 7585,
      "conce": 7586,
      "condi": 7587,
      "conif": 7588,
      "contingent": 7589,
      "conveyor": 7590,
      "snowsuits": 7591,
      "snowmobile": 7592,
      "snowstorm": 7593,
      "snowmob": 7594,
      "snowdrift": 7595,
      "overcast": 7596,
      "frothy": 7597,
      "frolic": 7598,
      "frolics": 7599,
      "tuce": 7600,
      "tugs": 7601,
      "tucked": 7602,
      "terror": 7603,
      "dim": 7604,
      "dip": 7605,
      "dist": 7606,
      "diet": 7607,
      "diaper": 7608,
      "distr": 7609,
      "diffic": 7610,
      "distra": 7611,
      "diplo": 7612,
      "diamond": 7613,
      "handy": 7614,
      "handhold": 7615,
      "handled": 7616,
      "handler": 7617,
      "handbags": 7618,
      "handgun": 7619,
      "handshake": 7620,
      "travelling": 7621,
      "inky": 7622,
      "acy": 7623,
      "acas": 7624,
      "active": 7625,
      "moms": 7626,
      "ourful": 7627,
      "nears": 7628,
      "jacks": 7629,
      "jackson": 7630,
      "jackhammers": 7631,
      "glassy": 7632,
      "wavy": 7633,
      "waffle": 7634,
      "wagons": 7635,
      "scan": 7636,
      "scap": 7637,
      "scoring": 7638,
      "scythe": 7639,
      "scruffy": 7640,
      "angeles": 7641,
      "based": 7642,
      "hau": 7643,
      "haw": 7644,
      "hamper": 7645,
      "offer": 7646,
      "swans": 7647,
      "swung": 7648,
      "swallowing": 7649,
      "swaddle": 7650,
      "worked": 7651,
      "clicking": 7652,
      "clips": 7653,
      "stake": 7654,
      "stainless": 7655,
      "true": 7656,
      "trade": 7657,
      "certific": 7658,
      "peruses": 7659,
      "percuss": 7660,
      "clog": 7661,
      "closing": 7662,
      "sidewalks": 7663,
      "topping": 7664,
      "spout": 7665,
      "spinner": 7666,
      "spattered": 7667,
      "header": 7668,
      "headlight": 7669,
      "headdresses": 7670,
      "headfirst": 7671,
      "ores": 7672,
      "igloo": 7673,
      "igator": 7674,
      "hairy": 7675,
      "hairdo": 7676,
      "hairdresser": 7677,
      "sung": 7678,
      "sunday": 7679,
      "sunflower": 7680,
      "sunbathe": 7681,
      "strums": 7682,
      "struggle": 7683,
      "gued": 7684,
      "guage": 7685,
      "guides": 7686,
      "guiding": 7687,
      "god": 7688,
      "pud": 7689,
      "puma": 7690,
      "puff": 7691,
      "marl": 7692,
      "marx": 7693,
      "maracas": 7694,
      "doorstep": 7695,
      "faith": 7696,
      "faux": 7697,
      "defl": 7698,
      "decla": 7699,
      "onders": 7700,
      "rocker": 7701,
      "rocket": 7702,
      "dane": 7703,
      "flinging": 7704,
      "surpr": 7705,
      "vessel": 7706,
      "fours": 7707,
      "ropri": 7708,
      "thatched": 7709,
      "pedals": 7710,
      "stum": 7711,
      "stumbling": 7712,
      "calen": 7713,
      "caged": 7714,
      "cavern": 7715,
      "tortilla": 7716,
      "pane": 7717,
      "pancakes": 7718,
      "collea": 7719,
      "collap": 7720,
      "colourful": 7721,
      "busking": 7722,
      "busily": 7723,
      "ctural": 7724,
      "helper": 7725,
      "joking": 7726,
      "jostle": 7727,
      "chev": 7728,
      "chemic": 7729,
      "chemi": 7730,
      "cheered": 7731,
      "eyed": 7732,
      "eyeliner": 7733,
      "strips": 7734,
      "stricken": 7735,
      "compo": 7736,
      "compart": 7737,
      "completes": 7738,
      "previ": 7739,
      "preschool": 7740,
      "prepping": 7741,
      "pretend": 7742,
      "ques": 7743,
      "quart": 7744,
      "quilted": 7745,
      "climbed": 7746,
      "cucu": 7747,
      "mmy": 7748,
      "mmers": 7749,
      "saving": 7750,
      "sages": 7751,
      "samples": 7752,
      "speckled": 7753,
      "boaters": 7754,
      "enty": 7755,
      "entrepre": 7756,
      "plow": 7757,
      "bandage": 7758,
      "setup": 7759,
      "trim": 7760,
      "treeless": 7761,
      "shopper": 7762,
      "daring": 7763,
      "darth": 7764,
      "michigan": 7765,
      "procla": 7766,
      "coated": 7767,
      "barn": 7768,
      "barbed": 7769,
      "barker": 7770,
      "cork": 7771,
      "corsage": 7772,
      "correct": 7773,
      "author": 7774,
      "forever": 7775,
      "forehand": 7776,
      "forearm": 7777,
      "west": 7778,
      "weiser": 7779,
      "slan": 7780,
      "slop": 7781,
      "slouch": 7782,
      "slung": 7783,
      "slalom": 7784,
      "sues": 7785,
      "sushi": 7786,
      "sugar": 7787,
      "sucker": 7788,
      "success": 7789,
      "horsemen": 7790,
      "exu": 7791,
      "exotic": 7792,
      "expect": 7793,
      "explains": 7794,
      "exterior": 7795,
      "extinguish": 7796,
      "exhau": 7797,
      "nips": 7798,
      "nibbles": 7799,
      "winds": 7800,
      "windsurfer": 7801,
      "sweatpants": 7802,
      "ager": 7803,
      "creation": 7804,
      "creature": 7805,
      "sesame": 7806,
      "abs": 7807,
      "clone": 7808,
      "dingy": 7809,
      "pipers": 7810,
      "pioneer": 7811,
      "humor": 7812,
      "hugged": 7813,
      "humping": 7814,
      "flap": 7815,
      "flame": 7816,
      "flaps": 7817,
      "fires": 7818,
      "obsc": 7819,
      "obstru": 7820,
      "nerf": 7821,
      "drifts": 7822,
      "dribble": 7823,
      "bowled": 7824,
      "bowties": 7825,
      "oceanside": 7826,
      "designing": 7827,
      "treed": 7828,
      "passage": 7829,
      "install": 7830,
      "notre": 7831,
      "noise": 7832,
      "bagpipers": 7833,
      "illustr": 7834,
      "baltimore": 7835,
      "capri": 7836,
      "capital": 7837,
      "capris": 7838,
      "captivated": 7839,
      "mugs": 7840,
      "mushroom": 7841,
      "packs": 7842,
      "sibling": 7843,
      "size": 7844,
      "sisters": 7845,
      "simple": 7846,
      "simply": 7847,
      "skiiers": 7848,
      "dutch": 7849,
      "dueling": 7850,
      "version": 7851,
      "anger": 7852,
      "angles": 7853,
      "angled": 7854,
      "leave": 7855,
      "leaped": 7856,
      "cartons": 7857,
      "restara": 7858,
      "cells": 7859,
      "cellane": 7860,
      "cellular": 7861,
      "disco": 7862,
      "discovering": 7863,
      "bespecta": 7864,
      "competiti": 7865,
      "paperback": 7866,
      "kickboxer": 7867,
      "turkeys": 7868,
      "turbulent": 7869,
      "serious": 7870,
      "laught": 7871,
      "ortant": 7872,
      "riverbed": 7873,
      "graphy": 7874,
      "metalworking": 7875,
      "count": 7876,
      "imitation": 7877,
      "flier": 7878,
      "started": 7879,
      "starfish": 7880,
      "cessing": 7881,
      "masonry": 7882,
      "hardware": 7883,
      "subject": 7884,
      "laps": 7885,
      "lapse": 7886,
      "household": 7887,
      "africans": 7888,
      "volcano": 7889,
      "internet": 7890,
      "intertw": 7891,
      "international": 7892,
      "itioning": 7893,
      "drumming": 7894,
      "drummers": 7895,
      "viewed": 7896,
      "frilly": 7897,
      "calmly": 7898,
      "calvin": 7899,
      "gener": 7900,
      "classical": 7901,
      "focal": 7902,
      "famous": 7903,
      "stoops": 7904,
      "converses": 7905,
      "appropri": 7906,
      "dental": 7907,
      "messages": 7908,
      "beauty": 7909,
      "casing": 7910,
      "casion": 7911,
      "cashier": 7912,
      "ivious": 7913,
      "scary": 7914,
      "filmed": 7915,
      "smock": 7916,
      "graffited": 7917,
      "matador": 7918,
      "price": 7919,
      "pearls": 7920,
      "rapped": 7921,
      "officials": 7922,
      "trails": 7923,
      "batting": 7924,
      "battery": 7925,
      "skyscraper": 7926,
      "cupping": 7927,
      "beds": 7928,
      "steal": 7929,
      "stead": 7930,
      "steak": 7931,
      "steals": 7932,
      "steering": 7933,
      "squash": 7934,
      "squirts": 7935,
      "landscap": 7936,
      "vention": 7937,
      "wetland": 7938,
      "mingle": 7939,
      "mingling": 7940,
      "leader": 7941,
      "vikings": 7942,
      "matches": 7943,
      "matched": 7944,
      "clustered": 7945,
      "stopping": 7946,
      "fetches": 7947,
      "homework": 7948,
      "crag": 7949,
      "crack": 7950,
      "crayo": 7951,
      "cracked": 7952,
      "crammed": 7953,
      "crabs": 7954,
      "cramped": 7955,
      "couches": 7956,
      "garter": 7957,
      "garish": 7958,
      "garments": 7959,
      "showers": 7960,
      "showgirl": 7961,
      "showcasing": 7962,
      "paddy": 7963,
      "cheerful": 7964,
      "protectors": 7965,
      "schools": 7966,
      "mulch": 7967,
      "bottled": 7968,
      "mime": 7969,
      "misty": 7970,
      "micha": 7971,
      "milling": 7972,
      "urely": 7973,
      "emptying": 7974,
      "empanad": 7975,
      "wrangle": 7976,
      "writer": 7977,
      "whatever": 7978,
      "varied": 7979,
      "lighthouse": 7980,
      "flipped": 7981,
      "geridoo": 7982,
      "blank": 7983,
      "blankly": 7984,
      "bares": 7985,
      "drawer": 7986,
      "drawers": 7987,
      "cliffs": 7988,
      "medal": 7989,
      "medic": 7990,
      "median": 7991,
      "medals": 7992,
      "lettuce": 7993,
      "wrestles": 7994,
      "breakdances": 7995,
      "cutes": 7996,
      "cutouts": 7997,
      "cutter": 7998,
      "hamming": 7999,
      "washers": 8000,
      "styling": 8001,
      "styled": 8002,
      "stylist": 8003,
      "offered": 8004,
      "izes": 8005,
      "resour": 8006,
      "residen": 8007,
      "residence": 8008,
      "mirrors": 8009,
      "visit": 8010,
      "visitors": 8011,
      "hitter": 8012,
      "bunches": 8013,
      "function": 8014,
      "funky": 8015,
      "fundrais": 8016,
      "scooby": 8017,
      "fencers": 8018,
      "pork": 8019,
      "cyclone": 8020,
      "necktie": 8021,
      "sweets": 8022,
      "berries": 8023,
      "platter": 8024,
      "surfboarder": 8025,
      "camo": 8026,
      "trading": 8027,
      "silverware": 8028,
      "platforms": 8029,
      "screens": 8030,
      "screened": 8031,
      "wells": 8032,
      "burying": 8033,
      "burrit": 8034,
      "custody": 8035,
      "specific": 8036,
      "operate": 8037,
      "camps": 8038,
      "campus": 8039,
      "harlem": 8040,
      "patrolling": 8041,
      "patties": 8042,
      "patrick": 8043,
      "patriot": 8044,
      "particular": 8045,
      "examined": 8046,
      "hoodies": 8047,
      "hooked": 8048,
      "penn": 8049,
      "pens": 8050,
      "penske": 8051,
      "lebron": 8052,
      "golfers": 8053,
      "language": 8054,
      "leashed": 8055,
      "enjoyed": 8056,
      "catamaran": 8057,
      "farming": 8058,
      "miners": 8059,
      "minnes": 8060,
      "attentive": 8061,
      "attended": 8062,
      "stunning": 8063,
      "aston": 8064,
      "astro": 8065,
      "delight": 8066,
      "tackler": 8067,
      "discusses": 8068,
      "repairman": 8069,
      "churning": 8070,
      "loader": 8071,
      "canoeing": 8072,
      "drape": 8073,
      "draulic": 8074,
      "drawings": 8075,
      "eleven": 8076,
      "luck": 8077,
      "england": 8078,
      "shoelaces": 8079,
      "fanny": 8080,
      "lowering": 8081,
      "teaches": 8082,
      "teachers": 8083,
      "spending": 8084,
      "finishes": 8085,
      "donations": 8086,
      "houston": 8087,
      "stories": 8088,
      "fluid": 8089,
      "flutes": 8090,
      "cultural": 8091,
      "culinary": 8092,
      "eyeing": 8093,
      "softly": 8094,
      "brothers": 8095,
      "brocco": 8096,
      "fairway": 8097,
      "postcards": 8098,
      "gateway": 8099,
      "hurt": 8100,
      "hurry": 8101,
      "ension": 8102,
      "italy": 8103,
      "circles": 8104,
      "freight": 8105,
      "rackets": 8106,
      "streaming": 8107,
      "streamers": 8108,
      "contained": 8109,
      "containers": 8110,
      "decked": 8111,
      "bunk": 8112,
      "bundles": 8113,
      "wineglass": 8114,
      "grain": 8115,
      "grave": 8116,
      "grains": 8117,
      "graze": 8118,
      "openings": 8119,
      "kawas": 8120,
      "tongues": 8121,
      "attaching": 8122,
      "mustang": 8123,
      "braid": 8124,
      "braids": 8125,
      "spotlights": 8126,
      "received": 8127,
      "pitbull": 8128,
      "scores": 8129,
      "approached": 8130,
      "caressing": 8131,
      "james": 8132,
      "palace": 8133,
      "shipping": 8134,
      "waterfalls": 8135,
      "putt": 8136,
      "steeplechase": 8137,
      "dame": 8138,
      "warmers": 8139,
      "podiums": 8140,
      "castro": 8141,
      "mounds": 8142,
      "syrup": 8143,
      "symphon": 8144,
      "grinder": 8145,
      "windowsill": 8146,
      "curbside": 8147,
      "eiffel": 8148,
      "engaging": 8149,
      "textile": 8150,
      "targets": 8151,
      "recorder": 8152,
      "pajama": 8153,
      "bagel": 8154,
      "bandannas": 8155,
      "ciate": 8156,
      "cious": 8157,
      "saluting": 8158,
      "troop": 8159,
      "trooper": 8160,
      "wildfire": 8161,
      "escalators": 8162,
      "entertainers": 8163,
      "fingernails": 8164,
      "supervision": 8165,
      "superior": 8166,
      "amplifier": 8167,
      "freestyle": 8168,
      "folders": 8169,
      "pigs": 8170,
      "spoons": 8171,
      "victim": 8172,
      "victori": 8173,
      "grilled": 8174,
      "coaches": 8175,
      "coached": 8176,
      "actions": 8177,
      "mixture": 8178,
      "relaxed": 8179,
      "spaghetti": 8180,
      "involves": 8181,
      "chopped": 8182,
      "choppy": 8183,
      "mainly": 8184,
      "parachutist": 8185,
      "modeling": 8186,
      "olympians": 8187,
      "halfway": 8188,
      "hydraulic": 8189,
      "occasion": 8190,
      "grandfather": 8191,
      "grandparents": 8192,
      "sandwiches": 8193,
      "shawls": 8194,
      "flexing": 8195,
      "flexi": 8196,
      "pineapple": 8197,
      "pineapples": 8198,
      "routines": 8199,
      "peek": 8200,
      "dollhouse": 8201,
      "shepard": 8202,
      "neighbors": 8203,
      "exercises": 8204,
      "dumping": 8205,
      "presented": 8206,
      "reflecting": 8207,
      "reflects": 8208,
      "knitted": 8209,
      "possible": 8210,
      "bills": 8211,
      "embraces": 8212,
      "props": 8213,
      "proper": 8214,
      "propeller": 8215,
      "common": 8216,
      "ethnicities": 8217,
      "extra": 8218,
      "mount": 8219,
      "sparsely": 8220,
      "crush": 8221,
      "crushed": 8222,
      "crumbling": 8223,
      "melon": 8224,
      "melons": 8225,
      "spiky": 8226,
      "oddly": 8227,
      "gallon": 8228,
      "private": 8229,
      "patchy": 8230,
      "punches": 8231,
      "controlled": 8232,
      "comforts": 8233,
      "comforter": 8234,
      "jets": 8235,
      "myster": 8236,
      "voice": 8237,
      "cottage": 8238,
      "bushel": 8239,
      "pretzels": 8240,
      "plume": 8241,
      "2008": 8242,
      "copy": 8243,
      "copies": 8244,
      "furiously": 8245,
      "gambling": 8246,
      "jagged": 8247,
      "learn": 8248,
      "learns": 8249,
      "technical": 8250,
      "rodgers": 8251,
      "bystander": 8252,
      "assisted": 8253,
      "motions": 8254,
      "paddled": 8255,
      "creepy": 8256,
      "missed": 8257,
      "mischiev": 8258,
      "miscellane": 8259,
      "winks": 8260,
      "projection": 8261,
      "auditioning": 8262,
      "central": 8263,
      "fitting": 8264,
      "glides": 8265,
      "important": 8266,
      "slamming": 8267,
      "vault": 8268,
      "inclined": 8269,
      "combs": 8270,
      "contested": 8271,
      "contestant": 8272,
      "contestants": 8273,
      "acrobatics": 8274,
      "martini": 8275,
      "johns": 8276,
      "shadowy": 8277,
      "delivery": 8278,
      "delivering": 8279,
      "navigate": 8280,
      "masses": 8281,
      "massage": 8282,
      "vase": 8283,
      "thomas": 8284,
      "reclining": 8285,
      "accompaniment": 8286,
      "decides": 8287,
      "deciding": 8288,
      "defending": 8289,
      "briefcases": 8290,
      "experiments": 8291,
      "humans": 8292,
      "scaffolds": 8293,
      "easy": 8294,
      "hunt": 8295,
      "hunter": 8296,
      "hungry": 8297,
      "murals": 8298,
      "risk": 8299,
      "grasps": 8300,
      "blinds": 8301,
      "separated": 8302,
      "separates": 8303,
      "sections": 8304,
      "soapy": 8305,
      "fierce": 8306,
      "judge": 8307,
      "wakeboards": 8308,
      "wakeboarding": 8309,
      "bicycler": 8310,
      "sliced": 8311,
      "treatment": 8312,
      "evenly": 8313,
      "000": 8314,
      "aims": 8315,
      "glam": 8316,
      "popsicle": 8317,
      "recent": 8318,
      "hippie": 8319,
      "hipsters": 8320,
      "coastline": 8321,
      "buffalo": 8322,
      "scientific": 8323,
      "interviews": 8324,
      "bridesmaid": 8325,
      "specialized": 8326,
      "candlelight": 8327,
      "harvested": 8328,
      "retrieve": 8329,
      "depress": 8330,
      "rinsing": 8331,
      "skew": 8332,
      "release": 8333,
      "releasing": 8334,
      "releases": 8335,
      "needle": 8336,
      "concentrating": 8337,
      "scrabble": 8338,
      "scramble": 8339,
      "guidebook": 8340,
      "weights": 8341,
      "sleepy": 8342,
      "illuminating": 8343,
      "sideline": 8344,
      "bulldog": 8345,
      "quietly": 8346,
      "chisel": 8347,
      "chisels": 8348,
      "citizen": 8349,
      "eagle": 8350,
      "elaborately": 8351,
      "ferns": 8352,
      "ferris": 8353,
      "linens": 8354,
      "powdered": 8355,
      "innertube": 8356,
      "thousands": 8357,
      "registered": 8358,
      "historical": 8359,
      "challenging": 8360,
      "ascends": 8361,
      "secures": 8362,
      "builds": 8363,
      "builder": 8364,
      "splits": 8365,
      "marshal": 8366,
      "flashy": 8367,
      "congregation": 8368,
      "adobe": 8369,
      "roots": 8370,
      "swamp": 8371,
      "slipper": 8372,
      "twins": 8373,
      "twenty": 8374,
      "ankle": 8375,
      "altitude": 8376,
      "dollar": 8377,
      "memorabil": 8378,
      "shacking": 8379,
      "collision": 8380,
      "selects": 8381,
      "lockers": 8382,
      "snorkeling": 8383,
      "consulting": 8384,
      "consults": 8385,
      "terminals": 8386,
      "scrapping": 8387,
      "spirit": 8388,
      "mattresses": 8389,
      "wondering": 8390,
      "kimono": 8391,
      "bonfire": 8392,
      "bonnet": 8393,
      "billy": 8394,
      "billiard": 8395,
      "eccentr": 8396,
      "erected": 8397,
      "knock": 8398,
      "knoll": 8399,
      "longh": 8400,
      "moored": 8401,
      "samsung": 8402,
      "wands": 8403,
      "inflating": 8404,
      "regal": 8405,
      "lemonade": 8406,
      "attacking": 8407,
      "attacked": 8408,
      "whisking": 8409,
      "grips": 8410,
      "coconut": 8411,
      "frowns": 8412,
      "frowning": 8413,
      "budweiser": 8414,
      "tipped": 8415,
      "transformer": 8416,
      "puzzled": 8417,
      "curiously": 8418,
      "sausage": 8419,
      "barricade": 8420,
      "instructors": 8421,
      "submerges": 8422,
      "volunteer": 8423,
      "questions": 8424,
      "participant": 8425,
      "dragster": 8426,
      "brochures": 8427,
      "occurred": 8428,
      "saddled": 8429,
      "civilians": 8430,
      "alcoholic": 8431,
      "drunken": 8432,
      "detergent": 8433,
      "determined": 8434,
      "glue": 8435,
      "glowing": 8436,
      "louis": 8437,
      "louvre": 8438,
      "moutain": 8439,
      "slingshot": 8440,
      "answer": 8441,
      "pelican": 8442,
      "admire": 8443,
      "comical": 8444,
      "sewer": 8445,
      "selections": 8446,
      "illac": 8447,
      "limbs": 8448,
      "masterpiece": 8449,
      "clipboard": 8450,
      "peddling": 8451,
      "breaststroke": 8452,
      "violet": 8453,
      "violence": 8454,
      "lettering": 8455,
      "buttons": 8456,
      "penguins": 8457,
      "refreshments": 8458,
      "saxophon": 8459,
      "depicted": 8460,
      "tambourines": 8461,
      "boutique": 8462,
      "falcon": 8463,
      "fiddles": 8464,
      "glancing": 8465,
      "glances": 8466,
      "hedges": 8467,
      "loudspeaker": 8468,
      "mrs": 8469,
      "mowed": 8470,
      "ninja": 8471,
      "nanny": 8472,
      "pouncing": 8473,
      "pounces": 8474,
      "southeast": 8475,
      "swoops": 8476,
      "tinted": 8477,
      "wanting": 8478,
      "inspectors": 8479,
      "annual": 8480,
      "announcement": 8481,
      "thorugh": 8482,
      "respective": 8483,
      "respectively": 8484,
      "manipul": 8485,
      "hitchhiking": 8486,
      "chores": 8487,
      "choreograp": 8488,
      "peppers": 8489,
      "blooming": 8490,
      "shrine": 8491,
      "shuffles": 8492,
      "locomotive": 8493,
      "locomotives": 8494,
      "russian": 8495,
      "sketch": 8496,
      "consoles": 8497,
      "scrimmage": 8498,
      "demolish": 8499,
      "sauce": 8500,
      "saucer": 8501,
      "salesman": 8502,
      "experien": 8503,
      "physically": 8504,
      "squirted": 8505,
      "squirrel": 8506,
      "circuits": 8507,
      "supports": 8508,
      "supported": 8509,
      "gingerbread": 8510,
      "maintained": 8511,
      "fatigues": 8512,
      "fatigued": 8513,
      "magician": 8514,
      "architecture": 8515,
      "architectural": 8516,
      "aviator": 8517,
      "cadillac": 8518,
      "dalmat": 8519,
      "didgeridoo": 8520,
      "fumes": 8521,
      "hopper": 8522,
      "oblivious": 8523,
      "oakland": 8524,
      "random": 8525,
      "source": 8526,
      "yanke": 8527,
      "insect": 8528,
      "incredible": 8529,
      "reporters": 8530,
      "leisurely": 8531,
      "manicured": 8532,
      "labradoodle": 8533,
      "toenails": 8534,
      "ornamental": 8535,
      "opinions": 8536,
      "groucho": 8537,
      "documents": 8538,
      "situation": 8539,
      "adventurous": 8540,
      "secret": 8541,
      "tailed": 8542,
      "urinal": 8543,
      "fringed": 8544,
      "buddhist": 8545,
      "pokemon": 8546,
      "pollution": 8547,
      "applauding": 8548,
      "appreciate": 8549,
      "figurines": 8550,
      "neatly": 8551,
      "juggler": 8552,
      "indigenous": 8553,
      "snarling": 8554,
      "pasture": 8555,
      "condoms": 8556,
      "contorts": 8557,
      "snowflakes": 8558,
      "diagram": 8559,
      "handkerchiefs": 8560,
      "traverse": 8561,
      "scrubbing": 8562,
      "swerves": 8563,
      "trinkets": 8564,
      "goofy": 8565,
      "colonial": 8566,
      "anticip": 8567,
      "presumably": 8568,
      "programs": 8569,
      "slumped": 8570,
      "suspension": 8571,
      "executes": 8572,
      "excav": 8573,
      "reluctant": 8574,
      "flamboyant": 8575,
      "describing": 8576,
      "trekking": 8577,
      "instructions": 8578,
      "pharmacy": 8579,
      "multitasking": 8580,
      "animatedly": 8581,
      "researchers": 8582,
      "sledgehammer": 8583,
      "populated": 8584,
      "clasps": 8585,
      "technician": 8586,
      "improvement": 8587,
      "horizontal": 8588,
      "oversee": 8589,
      "ecstatically": 8590,
      "dandelion": 8591,
      "dachshund": 8592,
      "reenactment": 8593,
      "archaeologi": 8594,
      "simultaneously": 8595,
      "awkward": 8596,
      "breeze": 8597,
      "clause": 8598,
      "dappled": 8599,
      "david": 8600,
      "egret": 8601,
      "eclectic": 8602,
      "elegant": 8603,
      "fresco": 8604,
      "glittery": 8605,
      "hulk": 8606,
      "iowa": 8607,
      "igration": 8608,
      "immigration": 8609,
      "jousting": 8610,
      "jesus": 8611,
      "klein": 8612,
      "kelp": 8613,
      "knotted": 8614,
      "mallet": 8615,
      "mortar": 8616,
      "mongolian": 8617,
      "normal": 8618,
      "oxygen": 8619,
      "plywood": 8620,
      "poultry": 8621,
      "suspect": 8622,
      "trendy": 8623,
      "tinsel": 8624,
      "zune": 8625,
      "zigzag": 8626,
      "intricate": 8627,
      "inspired": 8628,
      "intrigued": 8629,
      "incense": 8630,
      "anorak": 8631,
      "throat": 8632,
      "thrill": 8633,
      "thursday": 8634,
      "reason": 8635,
      "reindeer": 8636,
      "refriger": 8637,
      "regarding": 8638,
      "management": 8639,
      "array": 8640,
      "armored": 8641,
      "atlanta": 8642,
      "aloft": 8643,
      "alaska": 8644,
      "islamic": 8645,
      "israel": 8646,
      "lavender": 8647,
      "envelope": 8648,
      "ensemble": 8649,
      "origin": 8650,
      "ordinary": 8651,
      "orioles": 8652,
      "irritated": 8653,
      "espresso": 8654,
      "grizz": 8655,
      "doberman": 8656,
      "hollow": 8657,
      "unkempt": 8658,
      "underside": 8659,
      "adjacent": 8660,
      "bemused": 8661,
      "shabby": 8662,
      "shrubbery": 8663,
      "shuttle": 8664,
      "sequence": 8665,
      "seashell": 8666,
      "seminar": 8667,
      "soaked": 8668,
      "fronds": 8669,
      "frantically": 8670,
      "francisco": 8671,
      "busker": 8672,
      "majestic": 8673,
      "caravan": 8674,
      "pomeranian": 8675,
      "heineken": 8676,
      "paraphernalia": 8677,
      "bazaar": 8678,
      "snowmobiling": 8679,
      "district": 8680,
      "distracted": 8681,
      "swaddled": 8682,
      "percussion": 8683,
      "deflated": 8684,
      "surprised": 8685,
      "calendar": 8686,
      "tortillas": 8687,
      "colleagues": 8688,
      "chemical": 8689,
      "chemistry": 8690,
      "compartment": 8691,
      "previously": 8692,
      "quartet": 8693,
      "entreprene": 8694,
      "proclaim": 8695,
      "restaraunt": 8696,
      "bespectacled": 8697,
      "competitively": 8698,
      "crayola": 8699,
      "michael": 8700,
      "empanadas": 8701,
      "residential": 8702,
      "fundraiser": 8703,
      "minnesota": 8704,
      "broccoli": 8705,
      "kawasaki": 8706,
      "symphony": 8707,
      "flexible": 8708,
      "miscellaneous": 8709,
      "memorabilia": 8710,
      "choreographed": 8711,
      "archaeologists": 8712
    },
    "merges": [
      [
        "i",
        "n"
      ],
      [
        "a",
        "n"
      ],
      [
        "in",
        "g"
      ],
      [
        "t",
        "h"
      ],
      [
        "r",
        "e"
      ],
      [
        "e",
        "r"
      ],
      [
        "o",
        "n"
      ],
      [
        "l",
        "e"
      ],
      [
        "th",
        "e"
      ],
      [
        "m",
        "an"
      ],
      [
        "a",
        "r"
      ],
      [
        "h",
        "i"
      ],
      [
        "o",
        "u"
      ],
      [
        "an",
        "d"
      ],
      [
        "a",
        "t"
      ],
      [
        "s",
        "t"
      ],
      [
        "w",
        "o"
      ],
      [
        "a",
        "l"
      ],
      [
        "i",
        "s"
      ],
      [
        "l",
        "a"
      ],
      [
        "e",
        "n"
      ],
      [
        "o",
        "f"
      ],
      [
        "i",
        "t"
      ],
      [
        "w",
        "i"
      ],
      [
        "o",
        "w"
      ],
      [
        "c",
        "k"
      ],
      [
        "wi",
        "th"
      ],
      [
        "t",
        "o"
      ],
      [
        "l",
        "d"
      ],
      [
        "o",
        "r"
      ],
      [
        "i",
        "r"
      ],
      [
        "e",
        "s"
      ],
      [
        "c",
        "h"
      ],
      [
        "e",
        "t"
      ],
      [
        "o",
        "p"
      ],
      [
        "i",
        "d"
      ],
      [
        "ou",
        "n"
      ],
      [
        "a",
        "re"
      ],
      [
        "w",
        "hi"
      ],
      [
        "p",
        "e"
      ],
      [
        "b",
        "o"
      ],
      [
        "a",
        "s"
      ],
      [
        "k",
        "ing"
      ],
      [
        "g",
        "r"
      ],
      [
        "wo",
        "man"
      ],
      [
        "t",
        "wo"
      ],
      [
        "e",
        "ar"
      ],
      [
        "t",
        "e"
      ],
      [
        "o",
        "o"
      ],
      [
        "p",
        "la"
      ],
      [
        "al",
        "l"
      ],
      [
        "m",
        "en"
      ],
      [
        "e",
        "d"
      ],
      [
        "i",
        "c"
      ],
      [
        "d",
        "o"
      ],
      [
        "op",
        "le"
      ],
      [
        "pe",
        "ople"
      ],
      [
        "pla",
        "y"
      ],
      [
        "r",
        "o"
      ],
      [
        "h",
        "o"
      ],
      [
        "er",
        "s"
      ],
      [
        "u",
        "n"
      ],
      [
        "g",
        "e"
      ],
      [
        "t",
        "ing"
      ],
      [
        "t",
        "s"
      ],
      [
        "s",
        "hi"
      ],
      [
        "b",
        "l"
      ],
      [
        "s",
        "s"
      ],
      [
        "w",
        "al"
      ],
      [
        "w",
        "ear"
      ],
      [
        "re",
        "d"
      ],
      [
        "shi",
        "r"
      ],
      [
        "s",
        "it"
      ],
      [
        "wear",
        "ing"
      ],
      [
        "st",
        "and"
      ],
      [
        "e",
        "l"
      ],
      [
        "a",
        "d"
      ],
      [
        "shir",
        "t"
      ],
      [
        "ow",
        "n"
      ],
      [
        "r",
        "a"
      ],
      [
        "id",
        "e"
      ],
      [
        "oun",
        "g"
      ],
      [
        "y",
        "oung"
      ],
      [
        "g",
        "h"
      ],
      [
        "whi",
        "te"
      ],
      [
        "m",
        "e"
      ],
      [
        "ir",
        "l"
      ],
      [
        "g",
        "irl"
      ],
      [
        "bo",
        "y"
      ],
      [
        "b",
        "e"
      ],
      [
        "s",
        "h"
      ],
      [
        "u",
        "e"
      ],
      [
        "do",
        "g"
      ],
      [
        "b",
        "la"
      ],
      [
        "on",
        "e"
      ],
      [
        "bla",
        "ck"
      ],
      [
        "r",
        "i"
      ],
      [
        "ld",
        "ing"
      ],
      [
        "hi",
        "s"
      ],
      [
        "c",
        "o"
      ],
      [
        "a",
        "ck"
      ],
      [
        "whi",
        "le"
      ],
      [
        "c",
        "e"
      ],
      [
        "f",
        "or"
      ],
      [
        "th",
        "er"
      ],
      [
        "w",
        "at"
      ],
      [
        "ou",
        "p"
      ],
      [
        "bl",
        "ue"
      ],
      [
        "m",
        "p"
      ],
      [
        "s",
        "e"
      ],
      [
        "t",
        "a"
      ],
      [
        "u",
        "r"
      ],
      [
        "s",
        "o"
      ],
      [
        "v",
        "er"
      ],
      [
        "sit",
        "ting"
      ],
      [
        "c",
        "hi"
      ],
      [
        "b",
        "all"
      ],
      [
        "l",
        "oo"
      ],
      [
        "a",
        "ir"
      ],
      [
        "oun",
        "d"
      ],
      [
        "chi",
        "ld"
      ],
      [
        "f",
        "r"
      ],
      [
        "i",
        "l"
      ],
      [
        "l",
        "i"
      ],
      [
        "st",
        "re"
      ],
      [
        "stand",
        "ing"
      ],
      [
        "play",
        "ing"
      ],
      [
        "gr",
        "oup"
      ],
      [
        "b",
        "u"
      ],
      [
        "v",
        "e"
      ],
      [
        "a",
        "m"
      ],
      [
        "l",
        "o"
      ],
      [
        "ar",
        "d"
      ],
      [
        "stre",
        "et"
      ],
      [
        "b",
        "y"
      ],
      [
        "d",
        "own"
      ],
      [
        "ou",
        "t"
      ],
      [
        "re",
        "e"
      ],
      [
        "h",
        "er"
      ],
      [
        "wal",
        "king"
      ],
      [
        "s",
        "m"
      ],
      [
        "on",
        "t"
      ],
      [
        "a",
        "y"
      ],
      [
        "wal",
        "k"
      ],
      [
        "b",
        "r"
      ],
      [
        "t",
        "i"
      ],
      [
        "fr",
        "ont"
      ],
      [
        "u",
        "p"
      ],
      [
        "o",
        "ther"
      ],
      [
        "m",
        "a"
      ],
      [
        "ho",
        "lding"
      ],
      [
        "c",
        "ar"
      ],
      [
        "p",
        "o"
      ],
      [
        "k",
        "e"
      ],
      [
        "a",
        "p"
      ],
      [
        "f",
        "i"
      ],
      [
        "n",
        "e"
      ],
      [
        "el",
        "l"
      ],
      [
        "re",
        "ss"
      ],
      [
        "wat",
        "er"
      ],
      [
        "so",
        "me"
      ],
      [
        "h",
        "e"
      ],
      [
        "j",
        "u"
      ],
      [
        "t",
        "le"
      ],
      [
        "u",
        "l"
      ],
      [
        "d",
        "ress"
      ],
      [
        "s",
        "ide"
      ],
      [
        "wo",
        "r"
      ],
      [
        "r",
        "un"
      ],
      [
        "th",
        "ree"
      ],
      [
        "a",
        "ch"
      ],
      [
        "y",
        "ing"
      ],
      [
        "p",
        "ar"
      ],
      [
        "th",
        "r"
      ],
      [
        "l",
        "it"
      ],
      [
        "g",
        "re"
      ],
      [
        "b",
        "ack"
      ],
      [
        "in",
        "d"
      ],
      [
        "wo",
        "men"
      ],
      [
        "h",
        "at"
      ],
      [
        "r",
        "u"
      ],
      [
        "s",
        "k"
      ],
      [
        "loo",
        "king"
      ],
      [
        "u",
        "it"
      ],
      [
        "gre",
        "en"
      ],
      [
        "ju",
        "mp"
      ],
      [
        "l",
        "ar"
      ],
      [
        "lit",
        "tle"
      ],
      [
        "b",
        "i"
      ],
      [
        "g",
        "a"
      ],
      [
        "re",
        "n"
      ],
      [
        "for",
        "m"
      ],
      [
        "gh",
        "t"
      ],
      [
        "ou",
        "ts"
      ],
      [
        "as",
        "s"
      ],
      [
        "r",
        "id"
      ],
      [
        "b",
        "le"
      ],
      [
        "outs",
        "ide"
      ],
      [
        "c",
        "le"
      ],
      [
        "ou",
        "gh"
      ],
      [
        "s",
        "n"
      ],
      [
        "f",
        "e"
      ],
      [
        "gr",
        "ound"
      ],
      [
        "lar",
        "ge"
      ],
      [
        "p",
        "a"
      ],
      [
        "k",
        "s"
      ],
      [
        "c",
        "r"
      ],
      [
        "o",
        "ld"
      ],
      [
        "s",
        "ing"
      ],
      [
        "thr",
        "ough"
      ],
      [
        "b",
        "a"
      ],
      [
        "on",
        "g"
      ],
      [
        "br",
        "own"
      ],
      [
        "y",
        "ell"
      ],
      [
        "c",
        "on"
      ],
      [
        "sn",
        "ow"
      ],
      [
        "p",
        "ers"
      ],
      [
        "yell",
        "ow"
      ],
      [
        "child",
        "ren"
      ],
      [
        "pers",
        "on"
      ],
      [
        "o",
        "ver"
      ],
      [
        "e",
        "ld"
      ],
      [
        "f",
        "ro"
      ],
      [
        "bo",
        "ard"
      ],
      [
        "la",
        "ss"
      ],
      [
        "m",
        "b"
      ],
      [
        "t",
        "u"
      ],
      [
        "fro",
        "m"
      ],
      [
        "t",
        "er"
      ],
      [
        "the",
        "ir"
      ],
      [
        "i",
        "an"
      ],
      [
        "d",
        "i"
      ],
      [
        "in",
        "to"
      ],
      [
        "l",
        "y"
      ],
      [
        "f",
        "oo"
      ],
      [
        "h",
        "and"
      ],
      [
        "n",
        "ing"
      ],
      [
        "wat",
        "ch"
      ],
      [
        "x",
        "t"
      ],
      [
        "sm",
        "all"
      ],
      [
        "th",
        "ing"
      ],
      [
        "bu",
        "i"
      ],
      [
        "t",
        "ra"
      ],
      [
        "in",
        "k"
      ],
      [
        "bui",
        "lding"
      ],
[...]
