{
  "version": "1.0",
  "truncation": null,
  "padding": null,
  "added_tokens": [
    {
      "id": 0,
      "content": "<pad>",
      "single_word": false,
      "lstrip": false,
      "rstrip": false,
      "normalized": false,
      "special": true
    },
    {
      "id": 1,
      "content": "<sos>",
      "single_word": false,
      "lstrip": false,
      "rstrip": false,
      "normalized": false,
      "special": true
    },
    {
      "id": 2,
      "content": "<eos>",
      "single_word": false,
      "lstrip": false,
      "rstrip": false,
      "normalized": false,
      "special": true
    },
    {
      "id": 3,
      "content": "<unk>",
      "single_word": false,
      "lstrip": false,
      "rstrip": false,
      "normalized": false,
      "special": true
    }
  ],
  "normalizer": null,
  "pre_tokenizer": {
    "type": "Whitespace"
  },
  "post_processor": null,
  "decoder": null,
  "model": {
    "type": "BPE",
    "dropout": null,
    "unk_token": null,
    "continuing_subword_prefix": null,
    "end_of_word_suffix": null,
    "fuse_unk": false,
    "byte_fallback": false,
    "ignore_merges": false,
    "vocab": {
      "<pad>": 0,
      "<sos>": 1,
      "<eos>": 2,
      "<unk>": 3,
      "!": 4,
      "\"": 5,
      "%": 6,
      "&": 7,
      "'": 8,
      "(": 9,
      ")": 10,
      ",": 11,
      "-": 12,
      ".": 13,
      "/": 14,
      "0": 15,
      "1": 16,
      "2": 17,
      "3": 18,
      "4": 19,
      "5": 20,
      "6": 21,
      "7": 22,
      "8": 23,
      "9": 24,
      ":": 25,
      ";": 26,
      "?": 27,
      "a": 28,
      "b": 29,
      "c": 30,
      "d": 31,
      "e": 32,
      "f": 33,
      "g": 34,
      "h": 35,
      "i": 36,
      "j": 37,
      "k": 38,
      "l": 39,
      "m": 40,
      "n": 41,
      "o": 42,
      "p": 43,
      "q": 44,
      "r": 45,
      "s": 46,
      "t": 47,
      "u": 48,
      "v": 49,
      "w": 50,
      "x": 51,
      "y": 52,
      "z": 53,
      "«": 54,
      "°": 55,
      "»": 56,
      "à": 57,
      "â": 58,
      "ç": 59,
      "è": 60,
      "é": 61,
      "ê": 62,
      "ë": 63,
      "î": 64,
      "ï": 65,
      "ñ": 66,
      "ô": 67,
      "ù": 68,
      "û": 69,
      "œ": 70,
      "’": 71,
      "un": 72,
      "de": 73,
      "an": 74,
      "en": 75,
      "une": 76,
      "es": 77,
      "ou": 78,
      "on": 79,
      "le": 80,
      "ant": 81,
      "mm": 82,
      "ur": 83,
      "ar": 84,
      "is": 85,
      "ch": 86,
      "er": 87,
      "mme": 88,
      "et": 89,
      "ho": 90,
      "re": 91,
      "au": 92,
      "ent": 93,
      "qu": 94,
      "te": 95,
      "av": 96,
      "ans": 97,
      "sur": 98,
      "la": 99,
      "dans": 100,
      "des": 101,
      "in": 102,
      "il": 103,
      "homme": 104,
      "ec": 105,
      "avec": 106,
      "se": 107,
      "or": 108,
      "tr": 109,
      "as": 110,
      "son": 111,
      "ir": 112,
      "it": 113,
      "fe": 114,
      "ux": 115,
      "our": 116,
      "ge": 117,
      "gar": 118,
      "al": 119,
      "femme": 120,
      "che": 121,
      "ti": 122,
      "rou": 123,
      "pe": 124,
      "deux": 125,
      "que": 126,
      "ro": 127,
      "est": 128,
      "ue": 129,
      "ne": 130,
      "ble": 131,
      "bl": 132,
      "ri": 133,
      "per": 134,
      "par": 135,
      "ass": 136,
      "je": 137,
      "jou": 138,
      "ille": 139,
      "les": 140,
      "ain": 141,
      "at": 142,
      "out": 143,
      "mmes": 144,
      "and": 145,
      "mar": 146,
      "person": 147,
      "ie": 148,
      "us": 149,
      "no": 150,
      "assis": 151,
      "por": 152,
      "jeune": 153,
      "ot": 154,
      "ien": 155,
      "pr": 156,
      "ée": 157,
      "anc": 158,
      "fa": 159,
      "co": 160,
      "ver": 161,
      "du": 162,
      "pl": 163,
      "sa": 164,
      "aut": 165,
      "ta": 166,
      "nes": 167,
      "regar": 168,
      "ment": 169,
      "çon": 170,
      "to": 171,
      "ten": 172,
      "chien": 173,
      "bal": 174,
      "bout": 175,
      "garçon": 176,
      "enf": 177,
      "té": 178,
      "debout": 179,
      "vant": 180,
      "am": 181,
      "enfant": 182,
      "eau": 183,
      "personnes": 184,
      "sont": 185,
      "ois": 186,
      "tand": 187,
      "êt": 188,
      "ère": 189,
      "urs": 190,
      "devant": 191,
      "tandis": 192,
      "hommes": 193,
      "pet": 194,
      "tant": 195,
      "po": 196,
      "fille": 197,
      "grou": 198,
      "cour": 199,
      "groupe": 200,
      "noir": 201,
      "cou": 202,
      "gr": 203,
      "br": 204,
      "regarde": 205,
      "blanc": 206,
      "rue": 207,
      "ill": 208,
      "ier": 209,
      "tes": 210,
      "rouge": 211,
      "ire": 212,
      "be": 213,
      "sh": 214,
      "irt": 215,
      "shirt": 216,
      "ap": 217,
      "lon": 218,
      "portant": 219,
      "ma": 220,
      "pour": 221,
      "march": 222,
      "joue": 223,
      "ce": 224,
      "ure": 225,
      "ont": 226,
      "gen": 227,
      "lo": 228,
      "qui": 229,
      "vêt": 230,
      "dé": 231,
      "ès": 232,
      "ise": 233,
      "so": 234,
      "ve": 235,
      "lle": 236,
      "rière": 237,
      "dant": 238,
      "bleu": 239,
      "ine": 240,
      "gens": 241,
      "trois": 242,
      "ic": 243,
      "train": 244,
      "petit": 245,
      "aux": 246,
      "trav": 247,
      "cô": 248,
      "femmes": 249,
      "fait": 250,
      "ter": 251,
      "és": 252,
      "ig": 253,
      "me": 254,
      "ous": 255,
      "vé": 256,
      "vi": 257,
      "enfants": 258,
      "pro": 259,
      "près": 260,
      "hor": 261,
      "pla": 262,
      "ra": 263,
      "ba": 264,
      "vo": 265,
      "cu": 266,
      "côté": 267,
      "chem": 268,
      "tient": 269,
      "bo": 270,
      "pho": 271,
      "photo": 272,
      "autre": 273,
      "age": 274,
      "ette": 275,
      "air": 276,
      "lor": 277,
      "ête": 278,
      "ses": 279,
      "vêtu": 280,
      "ite": 281,
      "cha": 282,
      "nt": 283,
      "bâ": 284,
      "ja": 285,
      "vert": 286,
      "isant": 287,
      "plan": 288,
      "sem": 289,
      "personne": 290,
      "cas": 291,
      "tenant": 292,
      "ball": 293,
      "bre": 294,
      "jaune": 295,
      "quel": 296,
      "long": 297,
      "tion": 298,
      "let": 299,
      "jouant": 300,
      "end": 301,
      "ag": 302,
      "ion": 303,
      "table": 304,
      "uit": 305,
      "vélo": 306,
      "blan": 307,
      "bé": 308,
      "ca": 309,
      "mon": 310,
      "tu": 311,
      "aute": 312,
      "do": 313,
      "fr": 314,
      "con": 315,
      "dess": 316,
      "chemise": 317,
      "ques": 318,
      "timent": 319,
      "bar": 320,
      "jeunes": 321,
      "lé": 322,
      "main": 323,
      "leurs": 324,
      "bâtiment": 325,
      "ers": 326,
      "hors": 327,
      "ige": 328,
      "fil": 329,
      "tent": 330,
      "der": 331,
      "ves": 332,
      "ange": 333,
      "tout": 334,
      "oule": 335,
      "lu": 336,
      "petite": 337,
      "trava": 338,
      "jouent": 339,
      "fo": 340,
      "éc": 341,
      "lors": 342,
      "ple": 343,
      "arrière": 344,
      "regardant": 345,
      "toir": 346,
      "pu": 347,
      "dehors": 348,
      "ate": 349,
      "trot": 350,
      "marche": 351,
      "lune": 352,
      "ex": 353,
      "ttes": 354,
      "mé": 355,
      "blanche": 356,
      "lunettes": 357,
      "ord": 358,
      "plus": 359,
      "ard": 360,
      "tique": 361,
      "ff": 362,
      "ique": 363,
      "ros": 364,
      "veste": 365,
      "sour": 366,
      "sk": 367,
      "rie": 368,
      "assise": 369,
      "trottoir": 370,
      "dessus": 371,
      "saute": 372,
      "ré": 373,
      "faisant": 374,
      "regardent": 375,
      "cheve": 376,
      "foot": 377,
      "cheveux": 378,
      "cl": 379,
      "for": 380,
      "semble": 381,
      "pis": 382,
      "iture": 383,
      "foule": 384,
      "porte": 385,
      "ballon": 386,
      "brun": 387,
      "ang": 388,
      "pos": 389,
      "peau": 390,
      "saut": 391,
      "use": 392,
      "court": 393,
      "marchant": 394,
      "derrière": 395,
      "vers": 396,
      "plage": 397,
      "ac": 398,
      "tres": 399,
      "bleue": 400,
      "cho": 401,
      "âg": 402,
      "grand": 403,
      "mp": 404,
      "bois": 405,
      "ob": 406,
      "chant": 407,
      "ia": 408,
      "neige": 409,
      "font": 410,
      "ieurs": 411,
      "sole": 412,
      "her": 413,
      "ène": 414,
      "teau": 415,
      "ées": 416,
      "sac": 417,
      "rose": 418,
      "pant": 419,
      "ton": 420,
      "quelque": 421,
      "ments": 422,
      "plusieurs": 423,
      "lant": 424,
      "pen": 425,
      "one": 426,
      "res": 427,
      "cos": 428,
      "herbe": 429,
      "chose": 430,
      "ut": 431,
      "sc": 432,
      "autres": 433,
      "bou": 434,
      "ha": 435,
      "filles": 436,
      "térie": 437,
      "asia": 438,
      "pa": 439,
      "leur": 440,
      "di": 441,
      "ins": 442,
      "quat": 443,
      "tenue": 444,
      "vie": 445,
      "orange": 446,
      "ser": 447,
      "elle": 448,
      "asse": 449,
      "cor": 450,
      "li": 451,
      "marchent": 452,
      "ph": 453,
      "mur": 454,
      "quatre": 455,
      "verte": 456,
      "chiens": 457,
      "guit": 458,
      "ron": 459,
      "guitar": 460,
      "pi": 461,
      "tra": 462,
      "ci": 463,
      "sous": 464,
      "chapeau": 465,
      "costu": 466,
      "noire": 467,
      "chev": 468,
      "football": 469,
      "ourn": 470,
      "ville": 471,
      "térieur": 472,
      "mbre": 473,
      "illot": 474,
      "alon": 475,
      "terr": 476,
      "maillot": 477,
      "balle": 478,
      "cam": 479,
      "oc": 480,
      "ande": 481,
      "autour": 482,
      "blon": 483,
      "bas": 484,
      "soleil": 485,
      "haut": 486,
      "int": 487,
      "cher": 488,
      "robe": 489,
      "tru": 490,
      "mes": 491,
      "bu": 492,
      "ges": 493,
      "iss": 494,
      "prend": 495,
      "guitare": 496,
      "nent": 497,
      "pass": 498,
      "garçons": 499,
      "bord": 500,
      "parc": 501,
      "gros": 502,
      "hab": 503,
      "ouv": 504,
      "ontre": 505,
      "mo": 506,
      "course": 507,
      "mot": 508,
      "assises": 509,
      "ll": 510,
      "mat": 511,
      "iste": 512,
      "ing": 513,
      "car": 514,
      "ues": 515,
      "sol": 516,
      "skate": 517,
      "marron": 518,
      "travers": 519,
      "im": 520,
      "banc": 521,
      "mant": 522,
      "ensemble": 523,
      "quette": 524,
      "mag": 525,
      "scène": 526,
      "terre": 527,
      "bon": 528,
      "iant": 529,
      "mb": 530,
      "équi": 531,
      "ches": 532,
      "pantalon": 533,
      "habill": 534,
      "vis": 535,
      "ient": 536,
      "can": 537,
      "rem": 538,
      "dos": 539,
      "lui": 540,
      "joueur": 541,
      "terrain": 542,
      "nu": 543,
      "fon": 544,
      "gars": 545,
      "ric": 546,
      "cham": 547,
      "journ": 548,
      "télé": 549,
      "vêtue": 550,
      "shor": 551,
      "tag": 552,
      "short": 553,
      "jet": 554,
      "vête": 555,
      "asiatique": 556,
      "phone": 557,
      "mil": 558,
      "pare": 559,
      "ieu": 560,
      "eux": 561,
      "mi": 562,
      "ilet": 563,
      "sal": 564,
      "être": 565,
      "gris": 566,
      "ricain": 567,
      "tête": 568,
      "ray": 569,
      "jean": 570,
      "entre": 571,
      "travaill": 572,
      "mus": 573,
      "chau": 574,
      "vio": 575,
      "ram": 576,
      "voiture": 577,
      "ison": 578,
      "ourr": 579,
      "pré": 580,
      "man": 581,
      "mic": 582,
      "coup": 583,
      "costume": 584,
      "bat": 585,
      "très": 586,
      "net": 587,
      "si": 588,
      "parle": 589,
      "casque": 590,
      "dis": 591,
      "board": 592,
      "util": 593,
      "art": 594,
      "char": 595,
      "atten": 596,
      "iers": 597,
      "pec": 598,
      "deur": 599,
      "casquette": 600,
      "montag": 601,
      "nourr": 602,
      "couple": 603,
      "vêtements": 604,
      "cer": 605,
      "isse": 606,
      "dent": 607,
      "base": 608,
      "bébé": 609,
      "route": 610,
      "cheval": 611,
      "pous": 612,
      "yant": 613,
      "match": 614,
      "ule": 615,
      "champ": 616,
      "magas": 617,
      "ras": 618,
      "ai": 619,
      "cuis": 620,
      "extérieur": 621,
      "ture": 622,
      "ité": 623,
      "bateau": 624,
      "nombre": 625,
      "bres": 626,
      "manteau": 627,
      "grande": 628,
      "ils": 629,
      "souriant": 630,
      "amé": 631,
      "sautant": 632,
      "pendant": 633,
      "cine": 634,
      "téléphone": 635,
      "rouges": 636,
      "we": 637,
      "piscine": 638,
      "équipe": 639,
      "magasin": 640,
      "cy": 641,
      "sable": 642,
      "lles": 643,
      "sembl": 644,
      "ad": 645,
      "nourriture": 646,
      "tor": 647,
      "travaille": 648,
      "ouvri": 649,
      "contre": 650,
      "lanc": 651,
      "tal": 652,
      "esta": 653,
      "bi": 654,
      "courant": 655,
      "milieu": 656,
      "ds": 657,
      "tif": 658,
      "pose": 659,
      "lè": 660,
      "vre": 661,
      "plu": 662,
      "lent": 663,
      "américain": 664,
      "bain": 665,
      "pie": 666,
      "face": 667,
      "color": 668,
      "spec": 669,
      "dul": 670,
      "ennent": 671,
      "adul": 672,
      "cycl": 673,
      "arbre": 674,
      "specta": 675,
      "ck": 676,
      "swe": 677,
      "pan": 678,
      "faire": 679,
      "sweat": 680,
      "sor": 681,
      "ures": 682,
      "passe": 683,
      "lit": 684,
      "tro": 685,
      "prom": 686,
      "violet": 687,
      "gilet": 688,
      "ition": 689,
      "noirs": 690,
      "skateboard": 691,
      "af": 692,
      "cla": 693,
      "uni": 694,
      "urant": 695,
      "vieil": 696,
      "desc": 697,
      "bras": 698,
      "micro": 699,
      "publ": 700,
      "journée": 701,
      "blancs": 702,
      "moto": 703,
      "resta": 704,
      "tir": 705,
      "trou": 706,
      "teurs": 707,
      "allong": 708,
      "em": 709,
      "feu": 710,
      "courent": 711,
      "visage": 712,
      "aire": 713,
      "cin": 714,
      "enant": 715,
      "lac": 716,
      "cal": 717,
      "nis": 718,
      "esca": 719,
      "danse": 720,
      "coll": 721,
      "pier": 722,
      "attra": 723,
      "âgé": 724,
      "escala": 725,
      "cle": 726,
      "frap": 727,
      "bask": 728,
      "gu": 729,
      "ol": 730,
      "marché": 731,
      "restaurant": 732,
      "enne": 733,
      "blonde": 734,
      "tennis": 735,
      "chemin": 736,
      "para": 737,
      "jouet": 738,
      "montagne": 739,
      "oire": 740,
      "su": 741,
      "igne": 742,
      "salle": 743,
      "beau": 744,
      "sourit": 745,
      "ction": 746,
      "camion": 747,
      "équ": 748,
      "peint": 749,
      "portable": 750,
      "éan": 751,
      "océan": 752,
      "stru": 753,
      "aff": 754,
      "mains": 755,
      "tente": 756,
      "dor": 757,
      "pé": 758,
      "ign": 759,
      "forme": 760,
      "tat": 761,
      "teur": 762,
      "couvert": 763,
      "chaus": 764,
      "public": 765,
      "essa": 766,
      "ants": 767,
      "cinq": 768,
      "onne": 769,
      "arbres": 770,
      "comp": 771,
      "piste": 772,
      "bri": 773,
      "mang": 774,
      "tiques": 775,
      "chante": 776,
      "fleurs": 777,
      "illes": 778,
      "iot": 779,
      "acc": 780,
      "vag": 781,
      "jeu": 782,
      "rempl": 783,
      "cent": 784,
      "fé": 785,
      "istes": 786,
      "appare": 787,
      "plein": 788,
      "issant": 789,
      "après": 790,
      "gl": 791,
      "sta": 792,
      "ouse": 793,
      "âgée": 794,
      "cuisine": 795,
      "tre": 796,
      "vent": 797,
      "fonc": 798,
      "fen": 799,
      "ises": 800,
      "objet": 801,
      "baseball": 802,
      "dra": 803,
      "met": 804,
      "anç": 805,
      "parti": 806,
      "comb": 807,
      "pent": 808,
      "appr": 809,
      "bus": 810,
      "pol": 811,
      "prof": 812,
      "instru": 813,
      "pluie": 814,
      "gue": 815,
      "comm": 816,
      "if": 817,
      "où": 818,
      "genou": 819,
      "débar": 820,
      "dre": 821,
      "basket": 822,
      "beaucoup": 823,
      "parlant": 824,
      "port": 825,
      "tenues": 826,
      "ven": 827,
      "uses": 828,
      "piè": 829,
      "rassembl": 830,
      "ation": 831,
      "tour": 832,
      "vêtus": 833,
      "quelqu": 834,
      "ju": 835,
      "ret": 836,
      "bles": 837,
      "jec": 838,
      "jouer": 839,
      "pas": 840,
      "attraper": 841,
      "fig": 842,
      "pat": 843,
      "appareil": 844,
      "he": 845,
      "nuit": 846,
      "ureau": 847,
      "pel": 848,
      "maison": 849,
      "joueurs": 850,
      "clô": 851,
      "duit": 852,
      "rayé": 853,
      "travaillant": 854,
      "ép": 855,
      "ouvriers": 856,
      "pap": 857,
      "ettes": 858,
      "tiennent": 859,
      "bâton": 860,
      "onn": 861,
      "planche": 862,
      "ateur": 863,
      "cr": 864,
      "hi": 865,
      "pê": 866,
      "sse": 867,
      "métal": 868,
      "habillé": 869,
      "prépar": 870,
      "débardeur": 871,
      "jus": 872,
      "pes": 873,
      "ul": 874,
      "ché": 875,
      "peaux": 876,
      "aine": 877,
      "livre": 878,
      "ak": 879,
      "jo": 880,
      "nage": 881,
      "oir": 882,
      "rampe": 883,
      "cert": 884,
      "ey": 885,
      "va": 886,
      "entour": 887,
      "écr": 888,
      "min": 889,
      "travaillent": 890,
      "enneig": 891,
      "gueule": 892,
      "pièce": 893,
      "pont": 894,
      "ru": 895,
      "intérieur": 896,
      "rocher": 897,
      "rivi": 898,
      "rivière": 899,
      "bes": 900,
      "mange": 901,
      "escal": 902,
      "sures": 903,
      "bleus": 904,
      "blanches": 905,
      "ordin": 906,
      "sion": 907,
      "ina": 908,
      "petits": 909,
      "posant": 910,
      "bonnet": 911,
      "sou": 912,
      "mari": 913,
      "écla": 914,
      "musique": 915,
      "adultes": 916,
      "rent": 917,
      "torse": 918,
      "gla": 919,
      "quelques": 920,
      "posent": 921,
      "cycliste": 922,
      "ile": 923,
      "pou": 924,
      "ères": 925,
      "discu": 926,
      "fenêtre": 927,
      "pierre": 928,
      "fl": 929,
      "illée": 930,
      "chaise": 931,
      "cours": 932,
      "spectateurs": 933,
      "avant": 934,
      "plo": 935,
      "balanç": 936,
      "sent": 937,
      "mach": 938,
      "utilise": 939,
      "ale": 940,
      "ière": 941,
      "anim": 942,
      "corde": 943,
      "clôture": 944,
      "ado": 945,
      "ban": 946,
      "pelouse": 947,
      "fu": 948,
      "objec": 949,
      "objectif": 950,
      "fer": 951,
      "mor": 952,
      "stand": 953,
      "polo": 954,
      "carre": 955,
      "chariot": 956,
      "elles": 957,
      "ét": 958,
      "anges": 959,
      "asiatiques": 960,
      "grap": 961,
      "marches": 962,
      "mas": 963,
      "rand": 964,
      "ath": 965,
      "iel": 966,
      "bala": 967,
      "fris": 968,
      "combina": 969,
      "combinaison": 970,
      "fla": 971,
      "fête": 972,
      "mou": 973,
      "sno": 974,
      "roch": 975,
      "nement": 976,
      "prenant": 977,
      "ages": 978,
      "costumes": 979,
      "dien": 980,
      "tou": 981,
      "lescent": 982,
      "point": 983,
      "adolescent": 984,
      "stique": 985,
      "zone": 986,
      "roche": 987,
      "eaux": 988,
      "raî": 989,
      "métro": 990,
      "pay": 991,
      "netto": 992,
      "glace": 993,
      "balançoire": 994,
      "manger": 995,
      "snow": 996,
      "montre": 997,
      "vague": 998,
      "ces": 999,
      "tend": 1000,
      "figure": 1001,
      "gg": 1002,
      "surfe": 1003,
      "nel": 1004,
      "sacs": 1005,
      "allongé": 1006,
      "pêche": 1007,
      "cir": 1008,
      "gri": 1009,
      "neau": 1010,
      "ance": 1011,
      "regarder": 1012,
      "descend": 1013,
      "escalade": 1014,
      "polic": 1015,
      "ide": 1016,
      "couleur": 1017,
      "pieds": 1018,
      "bor": 1019,
      "ies": 1020,
      "mille": 1021,
      "sé": 1022,
      "hock": 1023,
      "parlent": 1024,
      "forêt": 1025,
      "lance": 1026,
      "hockey": 1027,
      "ach": 1028,
      "eff": 1029,
      "oranges": 1030,
      "voit": 1031,
      "boy": 1032,
      "pull": 1033,
      "prendre": 1034,
      "trouve": 1035,
      "briques": 1036,
      "machine": 1037,
      "panc": 1038,
      "ym": 1039,
      "tron": 1040,
      "famille": 1041,
      "belle": 1042,
      "apé": 1043,
      "chaussures": 1044,
      "jam": 1045,
      "beige": 1046,
      "embr": 1047,
      "ordinateur": 1048,
      "pancar": 1049,
      "ay": 1050,
      "cow": 1051,
      "graff": 1052,
      "passent": 1053,
      "colline": 1054,
      "graffit": 1055,
      "pin": 1056,
      "pois": 1057,
      "quai": 1058,
      "déo": 1059,
      "photograp": 1060,
      "longs": 1061,
      "fréqu": 1062,
      "music": 1063,
      "partici": 1064,
      "escalier": 1065,
      "fréquent": 1066,
      "gent": 1067,
      "pil": 1068,
      "ieur": 1069,
      "com": 1070,
      "verre": 1071,
      "jaunes": 1072,
      "uits": 1073,
      "café": 1074,
      "constru": 1075,
      "vieux": 1076,
      "moy": 1077,
      "numé": 1078,
      "carreaux": 1079,
      "arr": 1080,
      "shirts": 1081,
      "casques": 1082,
      "fontaine": 1083,
      "pouss": 1084,
      "pente": 1085,
      "sons": 1086,
      "tire": 1087,
      "place": 1088,
      "cul": 1089,
      "cade": 1090,
      "canapé": 1091,
      "cette": 1092,
      "ors": 1093,
      "prés": 1094,
      "produit": 1095,
      "photos": 1096,
      "enneigée": 1097,
      "bureau": 1098,
      "ciel": 1099,
      "ensole": 1100,
      "all": 1101,
      "versa": 1102,
      "igt": 1103,
      "doigt": 1104,
      "faute": 1105,
      "gym": 1106,
      "tous": 1107,
      "auche": 1108,
      "plon": 1109,
      "noires": 1110,
      "bruns": 1111,
      "pousse": 1112,
      "circu": 1113,
      "vend": 1114,
      "trac": 1115,
      "itaire": 1116,
      "park": 1117,
      "parmi": 1118,
      "sage": 1119,
      "somme": 1120,
      "prépare": 1121,
      "parapluie": 1122,
      "fauteu": 1123,
      "ty": 1124,
      "étu": 1125,
      "entraî": 1126,
      "pied": 1127,
      "graffitis": 1128,
      "sommet": 1129,
      "dont": 1130,
      "éle": 1131,
      "surf": 1132,
      "alors": 1133,
      "défil": 1134,
      "vif": 1135,
      "barbe": 1136,
      "travail": 1137,
      "blond": 1138,
      "sorte": 1139,
      "ensoleillée": 1140,
      "pag": 1141,
      "pomp": 1142,
      "coure": 1143,
      "bleues": 1144,
      "diff": 1145,
      "issent": 1146,
      "utilisant": 1147,
      "papier": 1148,
      "moyen": 1149,
      "cap": 1150,
      "mer": 1151,
      "bee": 1152,
      "béton": 1153,
      "présent": 1154,
      "go": 1155,
      "pav": 1156,
      "stat": 1157,
      "yeux": 1158,
      "tri": 1159,
      "tabl": 1160,
      "gilets": 1161,
      "ège": 1162,
      "dansent": 1163,
      "pom": 1164,
      "loin": 1165,
      "fruits": 1166,
      "bouche": 1167,
      "ouvrier": 1168,
      "descen": 1169,
      "frisbee": 1170,
      "effec": 1171,
      "numéro": 1172,
      "ceau": 1173,
      "ons": 1174,
      "ines": 1175,
      "attendent": 1176,
      "musicien": 1177,
      "ade": 1178,
      "mir": 1179,
      "urité": 1180,
      "lage": 1181,
      "toit": 1182,
      "nombreux": 1183,
      "adulte": 1184,
      "clair": 1185,
      "hiver": 1186,
      "né": 1187,
      "ler": 1188,
      "aud": 1189,
      "portent": 1190,
      "appu": 1191,
      "lley": 1192,
      "vêtues": 1193,
      "passant": 1194,
      "attend": 1195,
      "attendant": 1196,
      "panneau": 1197,
      "frapper": 1198,
      "genoux": 1199,
      "statue": 1200,
      "nus": 1201,
      "père": 1202,
      "sport": 1203,
      "tas": 1204,
      "xim": 1205,
      "isent": 1206,
      "plastique": 1207,
      "airs": 1208,
      "formes": 1209,
      "cyclistes": 1210,
      "diffé": 1211,
      "dam": 1212,
      "hic": 1213,
      "sau": 1214,
      "sans": 1215,
      "vue": 1216,
      "ence": 1217,
      "véhic": 1218,
      "proxim": 1219,
      "pleine": 1220,
      "journal": 1221,
      "uniforme": 1222,
      "différent": 1223,
      "proximité": 1224,
      "pelle": 1225,
      "volley": 1226,
      "boute": 1227,
      "gymn": 1228,
      "cture": 1229,
      "gol": 1230,
      "œu": 1231,
      "dansant": 1232,
      "tier": 1233,
      "cope": 1234,
      "cigar": 1235,
      "instruments": 1236,
      "dro": 1237,
      "lisant": 1238,
      "ligne": 1239,
      "mère": 1240,
      "rap": 1241,
      "cuisin": 1242,
      "essayant": 1243,
      "mê": 1244,
      "séc": 1245,
      "ante": 1246,
      "monte": 1247,
      "spectacle": 1248,
      "feuilles": 1249,
      "drapeau": 1250,
      "jupe": 1251,
      "rochers": 1252,
      "pancarte": 1253,
      "cé": 1254,
      "lique": 1255,
      "ni": 1256,
      "âge": 1257,
      "évé": 1258,
      "erse": 1259,
      "brune": 1260,
      "six": 1261,
      "montagnes": 1262,
      "uniformes": 1263,
      "événement": 1264,
      "fou": 1265,
      "gé": 1266,
      "écou": 1267,
      "argent": 1268,
      "atta": 1269,
      "col": 1270,
      "boar": 1271,
      "sautent": 1272,
      "maillots": 1273,
      "lève": 1274,
      "classe": 1275,
      "bot": 1276,
      "trine": 1277,
      "coin": 1278,
      "ller": 1279,
      "traverse": 1280,
      "chaises": 1281,
      "accrou": 1282,
      "métallique": 1283,
      "fréquentée": 1284,
      "défilé": 1285,
      "sécurité": 1286,
      "jard": 1287,
      "trans": 1288,
      "agent": 1289,
      "concert": 1290,
      "ski": 1291,
      "sauter": 1292,
      "grosse": 1293,
      "nombreuses": 1294,
      "lancer": 1295,
      "promène": 1296,
      "structure": 1297,
      "foncés": 1298,
      "mangeant": 1299,
      "ote": 1300,
      "ession": 1301,
      "roulant": 1302,
      "auto": 1303,
      "tapis": 1304,
      "couverte": 1305,
      "vélos": 1306,
      "montr": 1307,
      "sourient": 1308,
      "dort": 1309,
      "étudi": 1310,
      "filet": 1311,
      "lav": 1312,
      "mont": 1313,
      "éton": 1314,
      "repas": 1315,
      "inter": 1316,
      "indien": 1317,
      "ili": 1318,
      "rodéo": 1319,
      "prennent": 1320,
      "vement": 1321,
      "chapeaux": 1322,
      "légu": 1323,
      "puis": 1324,
      "bière": 1325,
      "tatou": 1326,
      "rempli": 1327,
      "épau": 1328,
      "écrit": 1329,
      "fauteuil": 1330,
      "jardin": 1331,
      "az": 1332,
      "mul": 1333,
      "vir": 1334,
      "ël": 1335,
      "riv": 1336,
      "verts": 1337,
      "obser": 1338,
      "sus": 1339,
      "étant": 1340,
      "chef": 1341,
      "roller": 1342,
      "jeux": 1343,
      "comme": 1344,
      "habillée": 1345,
      "équili": 1346,
      "éclair": 1347,
      "sentier": 1348,
      "snowboar": 1349,
      "voitures": 1350,
      "élec": 1351,
      "âteau": 1352,
      "ème": 1353,
      "depuis": 1354,
      "peu": 1355,
      "noël": 1356,
      "coupe": 1357,
      "panier": 1358,
      "ignant": 1359,
      "compét": 1360,
      "plonge": 1361,
      "compétition": 1362,
      "bien": 1363,
      "centre": 1364,
      "hu": 1365,
      "ls": 1366,
      "vres": 1367,
      "antes": 1368,
      "tobo": 1369,
      "exam": 1370,
      "piéton": 1371,
      "station": 1372,
      "ggan": 1373,
      "légumes": 1374,
      "toboggan": 1375,
      "donne": 1376,
      "gauche": 1377,
      "temp": 1378,
      "itre": 1379,
      "amis": 1380,
      "longue": 1381,
      "ross": 1382,
      "fond": 1383,
      "glisse": 1384,
      "instrument": 1385,
      "tablier": 1386,
      "équilibre": 1387,
      "gants": 1388,
      "ling": 1389,
      "prem": 1390,
      "vertes": 1391,
      "camé": 1392,
      "violon": 1393,
      "aide": 1394,
      "bik": 1395,
      "entouré": 1396,
      "but": 1397,
      "dition": 1398,
      "ger": 1399,
      "ix": 1400,
      "ore": 1401,
      "quar": 1402,
      "itant": 1403,
      "ales": 1404,
      "déser": 1405,
      "décor": 1406,
      "barbu": 1407,
      "réun": 1408,
      "chantant": 1409,
      "boue": 1410,
      "pace": 1411,
      "blonds": 1412,
      "buvant": 1413,
      "affi": 1414,
      "randonne": 1415,
      "cigarette": 1416,
      "rant": 1417,
      "esse": 1418,
      "couleurs": 1419,
      "client": 1420,
      "vieille": 1421,
      "skateur": 1422,
      "frappe": 1423,
      "paysage": 1424,
      "pilote": 1425,
      "même": 1426,
      "ber": 1427,
      "boule": 1428,
      "imme": 1429,
      "ner": 1430,
      "ombre": 1431,
      "tur": 1432,
      "fala": 1433,
      "grav": 1434,
      "voie": 1435,
      "lumi": 1436,
      "ballons": 1437,
      "battent": 1438,
      "colorés": 1439,
      "drapeaux": 1440,
      "apprête": 1441,
      "morceau": 1442,
      "dame": 1443,
      "bottes": 1444,
      "immeu": 1445,
      "ayant": 1446,
      "clo": 1447,
      "gon": 1448,
      "lin": 1449,
      "nav": 1450,
      "rée": 1451,
      "sco": 1452,
      "scul": 1453,
      "été": 1454,
      "ense": 1455,
      "seau": 1456,
      "atte": 1457,
      "grise": 1458,
      "côte": 1459,
      "âgées": 1460,
      "habillés": 1461,
      "artiste": 1462,
      "certain": 1463,
      "rocheuse": 1464,
      "véhicule": 1465,
      "multi": 1466,
      "temps": 1467,
      "sculp": 1468,
      "bous": 1469,
      "cro": 1470,
      "mbres": 1471,
      "sand": 1472,
      "étend": 1473,
      "erie": 1474,
      "quet": 1475,
      "aste": 1476,
      "amus": 1477,
      "poteau": 1478,
      "bow": 1479,
      "motard": 1480,
      "traversent": 1481,
      "afro": 1482,
      "produits": 1483,
      "falaise": 1484,
      "part": 1485,
      "marti": 1486,
      "tables": 1487,
      "africain": 1488,
      "juste": 1489,
      "ploy": 1490,
      "construction": 1491,
      "bikin": 1492,
      "pau": 1493,
      "rang": 1494,
      "ali": 1495,
      "petites": 1496,
      "terie": 1497,
      "cule": 1498,
      "bâtiments": 1499,
      "tradition": 1500,
      "micros": 1501,
      "arts": 1502,
      "rassemblent": 1503,
      "préparant": 1504,
      "embrass": 1505,
      "bouteille": 1506,
      "snowboardeur": 1507,
      "uche": 1508,
      "quant": 1509,
      "avoir": 1510,
      "robes": 1511,
      "motoc": 1512,
      "bond": 1513,
      "peinture": 1514,
      "foncé": 1515,
      "surfeur": 1516,
      "golf": 1517,
      "martiaux": 1518,
      "os": 1519,
      "rer": 1520,
      "sec": 1521,
      "val": 1522,
      "éche": 1523,
      "teaux": 1524,
      "verse": 1525,
      "courses": 1526,
      "vitrine": 1527,
      "tions": 1528,
      "fils": 1529,
      "grands": 1530,
      "parler": 1531,
      "vendeur": 1532,
      "policier": 1533,
      "arrêt": 1534,
      "musiciens": 1535,
      "caméra": 1536,
      "bowling": 1537,
      "ais": 1538,
      "dat": 1539,
      "wn": 1540,
      "yer": 1541,
      "ong": 1542,
      "roule": 1543,
      "estre": 1544,
      "tomb": 1545,
      "chevaux": 1546,
      "soldat": 1547,
      "tirant": 1548,
      "heure": 1549,
      "masque": 1550,
      "cre": 1551,
      "lire": 1552,
      "tue": 1553,
      "ye": 1554,
      "estes": 1555,
      "iller": 1556,
      "illé": 1557,
      "aires": 1558,
      "mons": 1559,
      "répar": 1560,
      "chantier": 1561,
      "maté": 1562,
      "couverture": 1563,
      "mangent": 1564,
      "capuche": 1565,
      "bande": 1566,
      "cles": 1567,
      "élé": 1568,
      "avion": 1569,
      "ici": 1570,
      "longues": 1571,
      "écout": 1572,
      "position": 1573,
      "penche": 1574,
      "traversant": 1575,
      "rayée": 1576,
      "onnée": 1577,
      "préparent": 1578,
      "flot": 1579,
      "allée": 1580,
      "pavée": 1581,
      "agenou": 1582,
      "kay": 1583,
      "lieu": 1584,
      "mpe": 1585,
      "espace": 1586,
      "ouverte": 1587,
      "roses": 1588,
      "celle": 1589,
      "skieur": 1590,
      "passer": 1591,
      "collier": 1592,
      "éclabous": 1593,
      "sauv": 1594,
      "étendue": 1595,
      "échelle": 1596,
      "ren": 1597,
      "rit": 1598,
      "çant": 1599,
      "élo": 1600,
      "chestre": 1601,
      "indre": 1602,
      "orient": 1603,
      "orchestre": 1604,
      "tram": 1605,
      "pelu": 1606,
      "vient": 1607,
      "dessin": 1608,
      "riel": 1609,
      "âgés": 1610,
      "bulles": 1611,
      "canne": 1612,
      "manches": 1613,
      "effectu": 1614,
      "droite": 1615,
      "premier": 1616,
      "immeuble": 1617,
      "motocross": 1618,
      "matériel": 1619,
      "kayak": 1620,
      "aé": 1621,
      "oi": 1622,
      "um": 1623,
      "échar": 1624,
      "chée": 1625,
      "front": 1626,
      "condu": 1627,
      "profession": 1628,
      "écran": 1629,
      "poisson": 1630,
      "photographe": 1631,
      "poussette": 1632,
      "pompiers": 1633,
      "descendant": 1634,
      "différentes": 1635,
      "rivage": 1636,
      "bikini": 1637,
      "peluche": 1638,
      "band": 1639,
      "câ": 1640,
      "donn": 1641,
      "gâteau": 1642,
      "hé": 1643,
      "mous": 1644,
      "chu": 1645,
      "chin": 1646,
      "las": 1647,
      "ires": 1648,
      "brand": 1649,
      "sombre": 1650,
      "vole": 1651,
      "volant": 1652,
      "posé": 1653,
      "batterie": 1654,
      "allongée": 1655,
      "employ": 1656,
      "vagues": 1657,
      "remplie": 1658,
      "discutent": 1659,
      "parking": 1660,
      "foul": 1661,
      "dire": 1662,
      "fro": 1663,
      "gir": 1664,
      "étr": 1665,
      "eng": 1666,
      "marath": 1667,
      "taureau": 1668,
      "équipes": 1669,
      "promen": 1670,
      "vendant": 1671,
      "marathon": 1672,
      "eur": 1673,
      "urbain": 1674,
      "laire": 1675,
      "prêt": 1676,
      "marcher": 1677,
      "conversa": 1678,
      "rosse": 1679,
      "boissons": 1680,
      "violette": 1681,
      "chauss": 1682,
      "essaie": 1683,
      "comptoir": 1684,
      "crav": 1685,
      "clown": 1686,
      "foulard": 1687,
      "conversation": 1688,
      "glac": 1689,
      "pri": 1690,
      "iser": 1691,
      "chat": 1692,
      "recouverte": 1693,
      "laisse": 1694,
      "inte": 1695,
      "coucher": 1696,
      "profon": 1697,
      "barb": 1698,
      "terrasse": 1699,
      "traverser": 1700,
      "sort": 1701,
      "patin": 1702,
      "électr": 1703,
      "chinois": 1704,
      "pâ": 1705,
      "pit": 1706,
      "tourn": 1707,
      "esque": 1708,
      "chent": 1709,
      "surplo": 1710,
      "illant": 1711,
      "cascade": 1712,
      "endor": 1713,
      "tableau": 1714,
      "footbal": 1715,
      "usement": 1716,
      "manif": 1717,
      "animée": 1718,
      "clients": 1719,
      "ati": 1720,
      "nat": 1721,
      "nique": 1722,
      "ps": 1723,
      "tin": 1724,
      "recouvert": 1725,
      "illage": 1726,
      "roit": 1727,
      "tom": 1728,
      "oiseau": 1729,
      "pette": 1730,
      "prote": 1731,
      "projet": 1732,
      "boî": 1733,
      "endroit": 1734,
      "boisson": 1735,
      "pendu": 1736,
      "servi": 1737,
      "super": 1738,
      "mariage": 1739,
      "policiers": 1740,
      "achet": 1741,
      "montrant": 1742,
      "affiche": 1743,
      "pause": 1744,
      "cav": 1745,
      "haute": 1746,
      "iques": 1747,
      "iff": 1748,
      "mée": 1749,
      "nant": 1750,
      "pal": 1751,
      "pot": 1752,
      "pique": 1753,
      "ts": 1754,
      "isier": 1755,
      "représent": 1756,
      "voir": 1757,
      "cordes": 1758,
      "ciment": 1759,
      "chauve": 1760,
      "dents": 1761,
      "tifs": 1762,
      "coloré": 1763,
      "attrape": 1764,
      "mariée": 1765,
      "athlè": 1766,
      "miroir": 1767,
      "étudiants": 1768,
      "écharpe": 1769,
      "cravate": 1770,
      "by": 1771,
      "cré": 1772,
      "fleur": 1773,
      "har": 1774,
      "lang": 1775,
      "tasse": 1776,
      "rousse": 1777,
      "oter": 1778,
      "joueuse": 1779,
      "conduit": 1780,
      "instal": 1781,
      "carton": 1782,
      "promenant": 1783,
      "objets": 1784,
      "rassemblées": 1785,
      "randonnée": 1786,
      "traditionnel": 1787,
      "cot": 1788,
      "dir": 1789,
      "pt": 1790,
      "tte": 1791,
      "dégu": 1792,
      "soir": 1793,
      "vol": 1794,
      "cuir": 1795,
      "airie": 1796,
      "tuy": 1797,
      "animal": 1798,
      "adolescents": 1799,
      "coureur": 1800,
      "coureurs": 1801,
      "suspendu": 1802,
      "monsieur": 1803,
      "barbec": 1804,
      "électrique": 1805,
      "able": 1806,
      "flé": 1807,
      "jour": 1808,
      "jette": 1809,
      "nor": 1810,
      "op": 1811,
      "esti": 1812,
      "quer": 1813,
      "labor": 1814,
      "couper": 1815,
      "maqu": 1816,
      "occu": 1817,
      "jouets": 1818,
      "souff": 1819,
      "tronc": 1820,
      "barbecue": 1821,
      "bour": 1822,
      "pir": 1823,
      "sant": 1824,
      "tun": 1825,
      "tis": 1826,
      "vestes": 1827,
      "sure": 1828,
      "indi": 1829,
      "itu": 1830,
      "rire": 1831,
      "paroi": 1832,
      "taille": 1833,
      "membres": 1834,
      "chemisier": 1835,
      "accor": 1836,
      "obsta": 1837,
      "passage": 1838,
      "poussi": 1839,
      "semblent": 1840,
      "appréc": 1841,
      "commer": 1842,
      "pays": 1843,
      "sauvet": 1844,
      "surplomb": 1845,
      "protection": 1846,
      "brou": 1847,
      "bitre": 1848,
      "dou": 1849,
      "four": 1850,
      "ible": 1851,
      "ima": 1852,
      "salon": 1853,
      "tiss": 1854,
      "vit": 1855,
      "arbitre": 1856,
      "lation": 1857,
      "seul": 1858,
      "paras": 1859,
      "attent": 1860,
      "cole": 1861,
      "bran": 1862,
      "ignent": 1863,
      "lice": 1864,
      "artis": 1865,
      "pierres": 1866,
      "stade": 1867,
      "combat": 1868,
      "apprêt": 1869,
      "discutant": 1870,
      "céré": 1871,
      "écouteurs": 1872,
      "promenade": 1873,
      "caval": 1874,
      "sav": 1875,
      "énor": 1876,
      "quettes": 1877,
      "tie": 1878,
      "nelle": 1879,
      "atoire": 1880,
      "prairie": 1881,
      "colo": 1882,
      "ambu": 1883,
      "marchand": 1884,
      "lettes": 1885,
      "remor": 1886,
      "manège": 1887,
      "jusqu": 1888,
      "snowboard": 1889,
      "participant": 1890,
      "sandales": 1891,
      "profonde": 1892,
      "accordé": 1893,
      "parasol": 1894,
      "dres": 1895,
      "gaz": 1896,
      "jong": 1897,
      "kar": 1898,
      "muse": 1899,
      "pne": 1900,
      "ènent": 1901,
      "égl": 1902,
      "balance": 1903,
      "coupant": 1904,
      "ruelle": 1905,
      "vive": 1906,
      "viande": 1907,
      "boit": 1908,
      "courts": 1909,
      "habillées": 1910,
      "aki": 1911,
      "fume": 1912,
      "poussant": 1913,
      "appuy": 1914,
      "épaules": 1915,
      "microscope": 1916,
      "direction": 1917,
      "déguis": 1918,
      "accordéon": 1919,
      "église": 1920,
      "clu": 1921,
      "id": 1922,
      "lig": 1923,
      "nou": 1924,
      "peut": 1925,
      "bloc": 1926,
      "riant": 1927,
      "plantes": 1928,
      "courir": 1929,
      "box": 1930,
      "barre": 1931,
      "batte": 1932,
      "souriante": 1933,
      "jambe": 1934,
      "versaire": 1935,
      "entraîne": 1936,
      "pagne": 1937,
      "quartier": 1938,
      "désert": 1939,
      "gonfla": 1940,
      "aliment": 1941,
      "effectuant": 1942,
      "tunnel": 1943,
      "colore": 1944,
      "remorque": 1945,
      "ft": 1946,
      "fin": 1947,
      "ième": 1948,
      "kaki": 1949,
      "oë": 1950,
      "py": 1951,
      "rues": 1952,
      "este": 1953,
      "chass": 1954,
      "seule": 1955,
      "tric": 1956,
      "assi": 1957,
      "até": 1958,
      "ustra": 1959,
      "sale": 1960,
      "poi": 1961,
      "appl": 1962,
      "llement": 1963,
      "vide": 1964,
      "raquette": 1965,
      "monie": 1966,
      "barrière": 1967,
      "toutes": 1968,
      "inspec": 1969,
      "canoë": 1970,
      "cercle": 1971,
      "rassemble": 1972,
      "mouvement": 1973,
      "accroupi": 1974,
      "représentant": 1975,
      "tuyau": 1976,
      "indivi": 1977,
      "surplombant": 1978,
      "eurs": 1979,
      "hous": 1980,
      "ping": 1981,
      "signe": 1982,
      "éto": 1983,
      "chet": 1984,
      "chés": 1985,
      "balustra": 1986,
      "téles": 1987,
      "appro": 1988,
      "produ": 1989,
      "lets": 1990,
      "caisse": 1991,
      "semblant": 1992,
      "bâtons": 1993,
      "ruisse": 1994,
      "grimpe": 1995,
      "virage": 1996,
      "réunis": 1997,
      "multicolore": 1998,
      "sculpture": 1999,
      "donnant": 2000,
      "laboratoire": 2001,
      "sauvetage": 2002,
      "cet": 2003,
      "hô": 2004,
      "vin": 2005,
      "xo": 2006,
      "écha": 2007,
      "repose": 2008,
      "iles": 2009,
      "itaires": 2010,
      "roulent": 2011,
      "rient": 2012,
      "êtes": 2013,
      "police": 2014,
      "gril": 2015,
      "bad": 2016,
      "phon": 2017,
      "bordée": 2018,
      "sieste": 2019,
      "travailler": 2020,
      "colorée": 2021,
      "baskette": 2022,
      "poline": 2023,
      "profitant": 2024,
      "nageant": 2025,
      "fumant": 2026,
      "vendre": 2027,
      "scooter": 2028,
      "rangée": 2029,
      "trampoline": 2030,
      "boîte": 2031,
      "cérémonie": 2032,
      "énorme": 2033,
      "karaté": 2034,
      "télescope": 2035,
      "dit": 2036,
      "faud": 2037,
      "gam": 2038,
      "més": 2039,
      "off": 2040,
      "ents": 2041,
      "tex": 2042,
      "geant": 2043,
      "gardien": 2044,
      "façon": 2045,
      "saxo": 2046,
      "balcon": 2047,
      "cadre": 2048,
      "traî": 2049,
      "vêtement": 2050,
      "batteur": 2051,
      "promènent": 2052,
      "sui": 2053,
      "ifique": 2054,
      "escaliers": 2055,
      "nettoyant": 2056,
      "effectue": 2057,
      "volleyball": 2058,
      "épaule": 2059,
      "piétons": 2060,
      "girls": 2061,
      "balustrade": 2062,
      "ruisseau": 2063,
      "échafaud": 2064,
      "ase": 2065,
      "dî": 2066,
      "festi": 2067,
      "ki": 2068,
      "nouv": 2069,
      "pain": 2070,
      "têtes": 2071,
      "den": 2072,
      "entrée": 2073,
      "qué": 2074,
      "align": 2075,
      "roulettes": 2076,
      "nez": 2077,
      "attrac": 2078,
      "colle": 2079,
      "tés": 2080,
      "ami": 2081,
      "soit": 2082,
      "bag": 2083,
      "bol": 2084,
      "chaî": 2085,
      "barde": 2086,
      "campagne": 2087,
      "hauts": 2088,
      "motifs": 2089,
      "solitaire": 2090,
      "nuage": 2091,
      "entourée": 2092,
      "touche": 2093,
      "nettoie": 2094,
      "gging": 2095,
      "iden": 2096,
      "gymnase": 2097,
      "heureux": 2098,
      "chute": 2099,
      "endormi": 2100,
      "soirée": 2101,
      "fléch": 2102,
      "tissu": 2103,
      "brosse": 2104,
      "fra": 2105,
      "sty": 2106,
      "âne": 2107,
      "éta": 2108,
      "uns": 2109,
      "enthous": 2110,
      "sept": 2111,
      "itent": 2112,
      "ticule": 2113,
      "roue": 2114,
      "roux": 2115,
      "faç": 2116,
      "coiff": 2117,
      "tenir": 2118,
      "illard": 2119,
      "meu": 2120,
      "plate": 2121,
      "voici": 2122,
      "chemises": 2123,
      "montant": 2124,
      "contr": 2125,
      "dessous": 2126,
      "ateurs": 2127,
      "récu": 2128,
      "paille": 2129,
      "magaz": 2130,
      "mbour": 2131,
      "colorées": 2132,
      "cks": 2133,
      "escaladant": 2134,
      "tourne": 2135,
      "patine": 2136,
      "enneigé": 2137,
      "poubelle": 2138,
      "achè": 2139,
      "doigts": 2140,
      "gobe": 2141,
      "descendent": 2142,
      "écoute": 2143,
      "examin": 2144,
      "examine": 2145,
      "lumière": 2146,
      "lumières": 2147,
      "bondée": 2148,
      "dirige": 2149,
      "enthousi": 2150,
      "dus": 2151,
      "ié": 2152,
      "imm": 2153,
      "men": 2154,
      "pon": 2155,
      "st": 2156,
      "sho": 2157,
      "tt": 2158,
      "way": 2159,
      "yor": 2160,
      "école": 2161,
      "andes": 2162,
      "mment": 2163,
      "arti": 2164,
      "surve": 2165,
      "tré": 2166,
      "gare": 2167,
      "peignant": 2168,
      "neaux": 2169,
      "sais": 2170,
      "matique": 2171,
      "rade": 2172,
      "docu": 2173,
      "penché": 2174,
      "passag": 2175,
      "moment": 2176,
      "pantalons": 2177,
      "militaire": 2178,
      "utilisent": 2179,
      "équipement": 2180,
      "glissant": 2181,
      "mettant": 2182,
      "joye": 2183,
      "balaie": 2184,
      "jambes": 2185,
      "cowboy": 2186,
      "participent": 2187,
      "gymnaste": 2188,
      "navig": 2189,
      "certains": 2190,
      "soldats": 2191,
      "gonflable": 2192,
      "façade": 2193,
      "cra": 2194,
      "fs": 2195,
      "lanç": 2196,
      "mout": 2197,
      "mand": 2198,
      "nette": 2199,
      "étre": 2200,
      "deurs": 2201,
      "inté": 2202,
      "alpin": 2203,
      "new": 2204,
      "marteau": 2205,
      "pris": 2206,
      "prati": 2207,
      "plat": 2208,
      "fresque": 2209,
      "acro": 2210,
      "divers": 2211,
      "corps": 2212,
      "guitariste": 2213,
      "chevau": 2214,
      "hautes": 2215,
      "cherche": 2216,
      "bondé": 2217,
      "shorts": 2218,
      "jetée": 2219,
      "manteaux": 2220,
      "adverse": 2221,
      "américains": 2222,
      "affront": 2223,
      "retourn": 2224,
      "figures": 2225,
      "grima": 2226,
      "lanceur": 2227,
      "photograph": 2228,
      "type": 2229,
      "pompier": 2230,
      "montent": 2231,
      "randonneur": 2232,
      "randonneurs": 2233,
      "écoutant": 2234,
      "éloigne": 2235,
      "aéro": 2236,
      "obstacle": 2237,
      "york": 2238,
      "lançant": 2239,
      "gée": 2240,
      "née": 2241,
      "zz": 2242,
      "écu": 2243,
      "écos": 2244,
      "arri": 2245,
      "chiot": 2246,
      "quad": 2247,
      "surface": 2248,
      "alle": 2249,
      "queue": 2250,
      "parcours": 2251,
      "outils": 2252,
      "tabour": 2253,
      "oiseaux": 2254,
      "couvre": 2255,
      "couché": 2256,
      "travaux": 2257,
      "monde": 2258,
      "lég": 2259,
      "luge": 2260,
      "éci": 2261,
      "méd": 2262,
      "sourire": 2263,
      "livres": 2264,
      "vision": 2265,
      "estation": 2266,
      "américaine": 2267,
      "compag": 2268,
      "partie": 2269,
      "profite": 2270,
      "rassemblés": 2271,
      "vache": 2272,
      "ruban": 2273,
      "animaux": 2274,
      "étang": 2275,
      "appuie": 2276,
      "autom": 2277,
      "linge": 2278,
      "réparer": 2279,
      "supermarché": 2280,
      "traditionnels": 2281,
      "festival": 2282,
      "nouveau": 2283,
      "bagages": 2284,
      "articles": 2285,
      "tabouret": 2286,
      "cteur": 2287,
      "dr": 2288,
      "el": 2289,
      "imp": 2290,
      "ke": 2291,
      "pée": 2292,
      "sar": 2293,
      "ycle": 2294,
      "ôle": 2295,
      "blouse": 2296,
      "prise": 2297,
      "coulo": 2298,
      "dépla": 2299,
      "plateau": 2300,
      "voy": 2301,
      "tentent": 2302,
      "ordures": 2303,
      "chantent": 2304,
      "buis": 2305,
      "téléphon": 2306,
      "salto": 2307,
      "ramass": 2308,
      "publique": 2309,
      "comment": 2310,
      "rug": 2311,
      "toute": 2312,
      "grimp": 2313,
      "circulation": 2314,
      "tatouage": 2315,
      "mousta": 2316,
      "brandit": 2317,
      "étrang": 2318,
      "athlète": 2319,
      "langue": 2320,
      "offic": 2321,
      "saxophone": 2322,
      "acroba": 2323,
      "couloir": 2324,
      "far": 2325,
      "jap": 2326,
      "opé": 2327,
      "spor": 2328,
      "èque": 2329,
      "ens": 2330,
      "chez": 2331,
      "tape": 2332,
      "illon": 2333,
      "troisième": 2334,
      "vidéo": 2335,
      "voile": 2336,
      "monticule": 2337,
      "confé": 2338,
      "trottin": 2339,
      "réfléch": 2340,
      "térieure": 2341,
      "lière": 2342,
      "pian": 2343,
      "trait": 2344,
      "cial": 2345,
      "ouvre": 2346,
      "magn": 2347,
      "militaires": 2348,
      "salo": 2349,
      "pluies": 2350,
      "frappant": 2351,
      "parapluies": 2352,
      "jogging": 2353,
      "mini": 2354,
      "observe": 2355,
      "passerelle": 2356,
      "éclaboussures": 2357,
      "bandan": 2358,
      "coté": 2359,
      "image": 2360,
      "cavalier": 2361,
      "ambulant": 2362,
      "nouve": 2363,
      "applaud": 2364,
      "affrontent": 2365,
      "japon": 2366,
      "ados": 2367,
      "cri": 2368,
      "don": 2369,
      "gs": 2370,
      "gant": 2371,
      "gale": 2372,
      "ivement": 2373,
      "key": 2374,
      "sin": 2375,
      "suit": 2376,
      "thé": 2377,
      "uant": 2378,
      "ules": 2379,
      "vic": 2380,
      "vtt": 2381,
      "éch": 2382,
      "élè": 2383,
      "œur": 2384,
      "oure": 2385,
      "ouvert": 2386,
      "oufla": 2387,
      "chor": 2388,
      "ancien": 2389,
      "pli": 2390,
      "tambour": 2391,
      "tét": 2392,
      "lette": 2393,
      "cad": 2394,
      "chevauche": 2395,
      "camoufla": 2396,
      "mide": 2397,
      "motos": 2398,
      "feuille": 2399,
      "escalator": 2400,
      "chanteur": 2401,
      "touristes": 2402,
      "pattes": 2403,
      "balai": 2404,
      "cadeau": 2405,
      "pavé": 2406,
      "rapide": 2407,
      "rollers": 2408,
      "oreilles": 2409,
      "amusent": 2410,
      "tombe": 2411,
      "pyjam": 2412,
      "dîner": 2413,
      "rugby": 2414,
      "salopette": 2415,
      "camouflage": 2416,
      "cass": 2417,
      "cus": 2418,
      "fus": 2419,
      "pè": 2420,
      "rés": 2421,
      "rence": 2422,
      "talon": 2423,
      "ymp": 2424,
      "ze": 2425,
      "essent": 2426,
      "arène": 2427,
      "isses": 2428,
      "chir": 2429,
      "rece": 2430,
      "quent": 2431,
      "danser": 2432,
      "orig": 2433,
      "riz": 2434,
      "verres": 2435,
      "bré": 2436,
      "illent": 2437,
      "mate": 2438,
      "déten": 2439,
      "soft": 2440,
      "boi": 2441,
      "boire": 2442,
      "béret": 2443,
      "tentant": 2444,
      "clav": 2445,
      "dio": 2446,
      "chambre": 2447,
      "rayures": 2448,
      "rambarde": 2449,
      "siège": 2450,
      "accro": 2451,
      "foncée": 2452,
      "mettre": 2453,
      "jupes": 2454,
      "ordinateurs": 2455,
      "flaque": 2456,
      "tracteur": 2457,
      "différents": 2458,
      "humide": 2459,
      "atteindre": 2460,
      "crois": 2461,
      "amusant": 2462,
      "creus": 2463,
      "serviette": 2464,
      "attentivement": 2465,
      "pneu": 2466,
      "alimentaire": 2467,
      "récupé": 2468,
      "joyeusement": 2469,
      "piano": 2470,
      "élèves": 2471,
      "pyjama": 2472,
      "softball": 2473,
      "basse": 2474,
      "cend": 2475,
      "die": 2476,
      "emp": 2477,
      "flu": 2478,
      "file": 2479,
      "ga": 2480,
      "huit": 2481,
      "murs": 2482,
      "mine": 2483,
      "tée": 2484,
      "quit": 2485,
      "blou": 2486,
      "aines": 2487,
      "outre": 2488,
      "porter": 2489,
      "prin": 2490,
      "podi": 2491,
      "bru": 2492,
      "veur": 2493,
      "termin": 2494,
      "côtés": 2495,
      "chac": 2496,
      "pulent": 2497,
      "exposition": 2498,
      "skis": 2499,
      "ressemble": 2500,
      "imposant": 2501,
      "canard": 2502,
      "battant": 2503,
      "affa": 2504,
      "danseuse": 2505,
      "parachute": 2506,
      "dormant": 2507,
      "iffe": 2508,
      "marié": 2509,
      "descendre": 2510,
      "embrasse": 2511,
      "pancartes": 2512,
      "surfant": 2513,
      "tribu": 2514,
      "attaché": 2515,
      "transportant": 2516,
      "éclairée": 2517,
      "déserte": 2518,
      "flottant": 2519,
      "conduisant": 2520,
      "professionnel": 2521,
      "câlin": 2522,
      "employés": 2523,
      "chaussettes": 2524,
      "footballeurs": 2525,
      "manifest": 2526,
      "palm": 2527,
      "commercial": 2528,
      "assiette": 2529,
      "rassemblement": 2530,
      "radeau": 2531,
      "bandana": 2532,
      "talons": 2533,
      "boivent": 2534,
      "clavier": 2535,
      "podium": 2536,
      "acou": 2537,
      "bm": 2538,
      "ffe": 2539,
      "gle": 2540,
      "hèque": 2541,
      "jol": 2542,
      "kit": 2543,
      "lar": 2544,
      "mal": 2545,
      "na": 2546,
      "pige": 2547,
      "sil": 2548,
      "wi": 2549,
      "èche": 2550,
      "envir": 2551,
      "arc": 2552,
      "ours": 2553,
      "rock": 2554,
      "rique": 2555,
      "ieux": 2556,
      "verses": 2557,
      "plant": 2558,
      "regard": 2559,
      "balles": 2560,
      "coudre": 2561,
      "appar": 2562,
      "mais": 2563,
      "ceint": 2564,
      "vives": 2565,
      "contrac": 2566,
      "herbes": 2567,
      "boug": 2568,
      "sert": 2569,
      "trom": 2570,
      "tirer": 2571,
      "tirent": 2572,
      "camionnette": 2573,
      "publicité": 2574,
      "brique": 2575,
      "clôtur": 2576,
      "fermés": 2577,
      "balade": 2578,
      "fréquenté": 2579,
      "professionnelle": 2580,
      "chaussée": 2581,
      "footballeur": 2582,
      "natation": 2583,
      "poussière": 2584,
      "apprêtant": 2585,
      "club": 2586,
      "gamin": 2587,
      "chevauchant": 2588,
      "allemand": 2589,
      "légère": 2590,
      "conférence": 2591,
      "trottinette": 2592,
      "cussion": 2593,
      "acoustique": 2594,
      "bass": 2595,
      "cur": 2596,
      "lés": 2597,
      "pend": 2598,
      "poutre": 2599,
      "rus": 2600,
      "situ": 2601,
      "âtre": 2602,
      "ûte": 2603,
      "rebord": 2604,
      "tran": 2605,
      "trap": 2606,
      "trouv": 2607,
      "garage": 2608,
      "allu": 2609,
      "blo": 2610,
      "perche": 2611,
      "marine": 2612,
      "coéqui": 2613,
      "sapin": 2614,
      "pointe": 2615,
      "grad": 2616,
      "grandes": 2617,
      "brillant": 2618,
      "illés": 2619,
      "appe": 2620,
      "locks": 2621,
      "prot": 2622,
      "agri": 2623,
      "cab": 2624,
      "fron": 2625,
      "foin": 2626,
      "répare": 2627,
      "action": 2628,
      "corpulent": 2629,
      "cartes": 2630,
      "visages": 2631,
      "mani": 2632,
      "lèvent": 2633,
      "profitent": 2634,
      "discuter": 2635,
      "poissons": 2636,
      "participe": 2637,
      "circuit": 2638,
      "monter": 2639,
      "indienne": 2640,
      "certaines": 2641,
      "embrassant": 2642,
      "aéri": 2643,
      "glaces": 2644,
      "blocs": 2645,
      "basketteur": 2646,
      "échafaudage": 2647,
      "chaîne": 2648,
      "aéroport": 2649,
      "buissons": 2650,
      "blouson": 2651,
      "jolie": 2652,
      "trouvent": 2653,
      "gradins": 2654,
      "ceaux": 2655,
      "din": 2656,
      "fan": 2657,
      "his": 2658,
      "joc": 2659,
      "ket": 2660,
      "lée": 2661,
      "lier": 2662,
      "mord": 2663,
      "non": 2664,
      "ok": 2665,
      "pic": 2666,
      "soule": 2667,
      "veau": 2668,
      "wag": 2669,
      "lev": 2670,
      "levant": 2671,
      "rif": 2672,
      "rier": 2673,
      "coiffe": 2674,
      "verdo": 2675,
      "tenu": 2676,
      "oise": 2677,
      "poin": 2678,
      "poil": 2679,
      "couv": 2680,
      "déjeune": 2681,
      "plaque": 2682,
      "bateaux": 2683,
      "casquettes": 2684,
      "lut": 2685,
      "écri": 2686,
      "forma": 2687,
      "posés": 2688,
      "choses": 2689,
      "corne": 2690,
      "liques": 2691,
      "pile": 2692,
      "habit": 2693,
      "bancs": 2694,
      "rayon": 2695,
      "rame": 2696,
      "aidant": 2697,
      "adlocks": 2698,
      "bijou": 2699,
      "colores": 2700,
      "allongés": 2701,
      "danseurs": 2702,
      "olymp": 2703,
      "péri": 2704,
      "fémin": 2705,
      "dreadlocks": 2706,
      "soulève": 2707,
      "mouillé": 2708,
      "nettoyer": 2709,
      "bordé": 2710,
      "paga": 2711,
      "bouteilles": 2712,
      "droit": 2713,
      "éclairé": 2714,
      "berger": 2715,
      "multicolores": 2716,
      "africains": 2717,
      "aliments": 2718,
      "brandissant": 2719,
      "employé": 2720,
      "manifestation": 2721,
      "harn": 2722,
      "marchandises": 2723,
      "appuyé": 2724,
      "individus": 2725,
      "kios": 2726,
      "attractions": 2727,
      "identiques": 2728,
      "gobelet": 2729,
      "enthousias": 2730,
      "automne": 2731,
      "fluo": 2732,
      "jockey": 2733,
      "verdoyant": 2734,
      "bur": 2735,
      "dune": 2736,
      "fri": 2737,
      "fraî": 2738,
      "réci": 2739,
      "vous": 2740,
      "venant": 2741,
      "èges": 2742,
      "év": 2743,
      "épa": 2744,
      "ani": 2745,
      "aus": 2746,
      "incend": 2747,
      "jeans": 2748,
      "portrait": 2749,
      "pression": 2750,
      "pliant": 2751,
      "toire": 2752,
      "brill": 2753,
      "pourchass": 2754,
      "cônes": 2755,
      "plafond": 2756,
      "rase": 2757,
      "planches": 2758,
      "pleure": 2759,
      "exer": 2760,
      "méde": 2761,
      "posée": 2762,
      "ressemblant": 2763,
      "carte": 2764,
      "sièges": 2765,
      "discours": 2766,
      "utiliser": 2767,
      "adversaire": 2768,
      "travailleurs": 2769,
      "danseuses": 2770,
      "dormir": 2771,
      "péd": 2772,
      "chaussure": 2773,
      "publicitaire": 2774,
      "accroch": 2775,
      "accroche": 2776,
      "toucher": 2777,
      "arrête": 2778,
      "fauteuils": 2779,
      "cuisinant": 2780,
      "chefs": 2781,
      "oreille": 2782,
      "motards": 2783,
      "tomber": 2784,
      "bandero": 2785,
      "iblement": 2786,
      "vitesse": 2787,
      "gazon": 2788,
      "passagers": 2789,
      "alpiniste": 2790,
      "voyage": 2791,
      "étranger": 2792,
      "magnifique": 2793,
      "chacun": 2794,
      "affaires": 2795,
      "bmx": 2796,
      "wagon": 2797,
      "déjeuner": 2798,
      "kiosque": 2799,
      "récipi": 2800,
      "incendie": 2801,
      "ajuste": 2802,
      "bla": 2803,
      "bam": 2804,
      "cont": 2805,
      "da": 2806,
      "dur": 2807,
      "emm": 2808,
      "hou": 2809,
      "ides": 2810,
      "mâ": 2811,
      "mam": 2812,
      "nagent": 2813,
      "smas": 2814,
      "vaste": 2815,
      "village": 2816,
      "yo": 2817,
      "étro": 2818,
      "artif": 2819,
      "tement": 2820,
      "parta": 2821,
      "atterr": 2822,
      "attrap": 2823,
      "portables": 2824,
      "faite": 2825,
      "cola": 2826,
      "colon": 2827,
      "tax": 2828,
      "balanc": 2829,
      "décontrac": 2830,
      "vétét": 2831,
      "vérif": 2832,
      "voil": 2833,
      "agitant": 2834,
      "caban": 2835,
      "lév": 2836,
      "écar": 2837,
      "mél": 2838,
      "poser": 2839,
      "chanter": 2840,
      "scient": 2841,
      "baller": 2842,
      "moteur": 2843,
      "télévision": 2844,
      "chaude": 2845,
      "charge": 2846,
      "aider": 2847,
      "sortant": 2848,
      "sup": 2849,
      "partielle": 2850,
      "commence": 2851,
      "basketball": 2852,
      "tourno": 2853,
      "métalliques": 2854,
      "préparer": 2855,
      "combinaisons": 2856,
      "entraînement": 2857,
      "véhicules": 2858,
      "cuisinier": 2859,
      "montrent": 2860,
      "enseigne": 2861,
      "sandwi": 2862,
      "embrassent": 2863,
      "section": 2864,
      "éléph": 2865,
      "urbaine": 2866,
      "prêts": 2867,
      "patinoire": 2868,
      "pital": 2869,
      "tombé": 2870,
      "acheter": 2871,
      "artisan": 2872,
      "jongle": 2873,
      "approche": 2874,
      "frais": 2875,
      "magazine": 2876,
      "récupérer": 2877,
      "silhou": 2878,
      "légèrement": 2879,
      "harnais": 2880,
      "ail": 2881,
      "atique": 2882,
      "ham": 2883,
      "ium": 2884,
      "jun": 2885,
      "kil": 2886,
      "mob": 2887,
      "nau": 2888,
      "sée": 2889,
      "zer": 2890,
      "ére": 2891,
      "anni": 2892,
      "encour": 2893,
      "envoie": 2894,
      "isson": 2895,
      "chans": 2896,
      "reposent": 2897,
      "entret": 2898,
      "quoise": 2899,
      "tel": 2900,
      "tem": 2901,
      "lamp": 2902,
      "inf": 2903,
      "peindre": 2904,
      "blement": 2905,
      "bliot": 2906,
      "parents": 2907,
      "portes": 2908,
      "poign": 2909,
      "groupes": 2910,
      "cep": 2911,
      "lop": 2912,
      "défen": 2913,
      "déplace": 2914,
      "velop": 2915,
      "membre": 2916,
      "proté": 2917,
      "projec": 2918,
      "ration": 2919,
      "posées": 2920,
      "boisé": 2921,
      "palet": 2922,
      "paix": 2923,
      "serre": 2924,
      "cident": 2925,
      "camping": 2926,
      "impli": 2927,
      "musée": 2928,
      "battre": 2929,
      "isselle": 2930,
      "admir": 2931,
      "bibliot": 2932,
      "doré": 2933,
      "ations": 2934,
      "épée": 2935,
      "papa": 2936,
      "crête": 2937,
      "vaisselle": 2938,
      "pilot": 2939,
      "œuvre": 2940,
      "œufs": 2941,
      "automatique": 2942,
      "filets": 2943,
      "observent": 2944,
      "hula": 2945,
      "gravier": 2946,
      "naval": 2947,
      "heureuse": 2948,
      "lasso": 2949,
      "froid": 2950,
      "étrange": 2951,
      "pâte": 2952,
      "achetant": 2953,
      "cartons": 2954,
      "tisser": 2955,
      "poussiére": 2956,
      "appréciant": 2957,
      "entraîneur": 2958,
      "alignés": 2959,
      "documents": 2960,
      "téléphonique": 2961,
      "grimpant": 2962,
      "crime": 2963,
      "rapidement": 2964,
      "origine": 2965,
      "trompette": 2966,
      "vététiste": 2967,
      "mélange": 2968,
      "partiellement": 2969,
      "jungle": 2970,
      "bibliothèque": 2971,
      "billard": 2972,
      "cric": 2973,
      "cœur": 2974,
      "flanc": 2975,
      "fix": 2976,
      "lavant": 2977,
      "mbe": 2978,
      "nière": 2979,
      "pre": 2980,
      "pus": 2981,
      "pés": 2982,
      "pins": 2983,
      "stu": 2984,
      "vitre": 2985,
      "wa": 2986,
      "dem": 2987,
      "envelop": 2988,
      "escrime": 2989,
      "lever": 2990,
      "arro": 2991,
      "arme": 2992,
      "ets": 2993,
      "hoop": 2994,
      "horiz": 2995,
      "quille": 2996,
      "lampe": 2997,
      "neuse": 2998,
      "assor": 2999,
      "faiblement": 3000,
      "griller": 3001,
      "bra": 3002,
      "cône": 3003,
      "chaque": 3004,
      "plancher": 3005,
      "tube": 3006,
      "foire": 3007,
      "atelier": 3008,
      "obsc": 3009,
      "serrant": 3010,
      "caresse": 3011,
      "carnaval": 3012,
      "journaux": 3013,
      "distribu": 3014,
      "artistes": 3015,
      "torses": 3016,
      "panneaux": 3017,
      "microphone": 3018,
      "tiré": 3019,
      "chanteuse": 3020,
      "maisons": 3021,
      "pouce": 3022,
      "borde": 3023,
      "photographi": 3024,
      "gymnas": 3025,
      "géant": 3026,
      "collant": 3027,
      "accroupie": 3028,
      "intersection": 3029,
      "indiens": 3030,
      "suspend": 3031,
      "plongeant": 3032,
      "boueuse": 3033,
      "africaine": 3034,
      "agenouillée": 3035,
      "tramway": 3036,
      "athlètes": 3037,
      "maquillage": 3038,
      "souffle": 3039,
      "branche": 3040,
      "apprêtent": 3041,
      "poitrine": 3042,
      "hôpital": 3043,
      "coiffure": 3044,
      "grimace": 3045,
      "écossa": 3046,
      "médic": 3047,
      "moustache": 3048,
      "opération": 3049,
      "accroché": 3050,
      "large": 3051,
      "bassin": 3052,
      "manipu": 3053,
      "aérienne": 3054,
      "bijoux": 3055,
      "animé": 3056,
      "récipient": 3057,
      "maman": 3058,
      "cabane": 3059,
      "sandwich": 3060,
      "nautique": 3061,
      "anniversaire": 3062,
      "chanson": 3063,
      "cricket": 3064,
      "abri": 3065,
      "asure": 3066,
      "cat": 3067,
      "faux": 3068,
      "lot": 3069,
      "lisent": 3070,
      "mit": 3071,
      "nous": 3072,
      "od": 3073,
      "ole": 3074,
      "oit": 3075,
      "sy": 3076,
      "sim": 3077,
      "xe": 3078,
      "ïs": 3079,
      "unique": 3080,
      "dedans": 3081,
      "envers": 3082,
      "urg": 3083,
      "arriv": 3084,
      "chi": 3085,
      "chou": 3086,
      "reç": 3087,
      "reposant": 3088,
      "relig": 3089,
      "incl": 3090,
      "seaux": 3091,
      "garde": 3092,
      "aller": 3093,
      "roues": 3094,
      "partout": 3095,
      "illeux": 3096,
      "ielle": 3097,
      "iens": 3098,
      "amuse": 3099,
      "couche": 3100,
      "bron": 3101,
      "bret": 3102,
      "beach": 3103,
      "local": 3104,
      "bac": 3105,
      "break": 3106,
      "ager": 3107,
      "caisses": 3108,
      "barres": 3109,
      "exécu": 3110,
      "expéri": 3111,
      "rées": 3112,
      "clés": 3113,
      "fort": 3114,
      "accompag": 3115,
      "boisée": 3116,
      "tongs": 3117,
      "bouquet": 3118,
      "pati": 3119,
      "paire": 3120,
      "patient": 3121,
      "pizz": 3122,
      "blondes": 3123,
      "bons": 3124,
      "fonction": 3125,
      "dispu": 3126,
      "cerf": 3127,
      "équipements": 3128,
      "paniers": 3129,
      "vente": 3130,
      "commen": 3131,
      "patau": 3132,
      "papillon": 3133,
      "flâ": 3134,
      "rocheux": 3135,
      "pêcheur": 3136,
      "tronçon": 3137,
      "embrasure": 3138,
      "audit": 3139,
      "attachés": 3140,
      "étudiant": 3141,
      "lave": 3142,
      "montgolf": 3143,
      "tatouages": 3144,
      "oreiller": 3145,
      "ombrelle": 3146,
      "creuse": 3147,
      "conducteur": 3148,
      "brouette": 3149,
      "savoure": 3150,
      "menu": 3151,
      "adossé": 3152,
      "victoire": 3153,
      "fusil": 3154,
      "palmiers": 3155,
      "nacelle": 3156,
      "cabine": 3157,
      "attrapant": 3158,
      "lampad": 3159,
      "infir": 3160,
      "gymnastique": 3161,
      "benne": 3162,
      "cage": 3163,
      "dure": 3164,
      "honne": 3165,
      "king": 3166,
      "ss": 3167,
      "ste": 3168,
      "sign": 3169,
      "tau": 3170,
      "tures": 3171,
      "ventre": 3172,
      "wal": 3173,
      "étal": 3174,
      "ôt": 3175,
      "unes": 3176,
      "oue": 3177,
      "levé": 3178,
      "isé": 3179,
      "isser": 3180,
      "isation": 3181,
      "château": 3182,
      "eth": 3183,
      "ecs": 3184,
      "aspir": 3185,
      "ties": 3186,
      "tive": 3187,
      "permé": 3188,
      "partag": 3189,
      "parquet": 3190,
      "ature": 3191,
      "outil": 3192,
      "outchou": 3193,
      "marbre": 3194,
      "ieuse": 3195,
      "usine": 3196,
      "ienne": 3197,
      "toge": 3198,
      "toges": 3199,
      "ama": 3200,
      "poteaux": 3201,
      "mac": 3202,
      "maïs": 3203,
      "déla": 3204,
      "ignoire": 3205,
      "bagu": 3206,
      "baignoire": 3207,
      "volent": 3208,
      "voies": 3209,
      "jaill": 3210,
      "caoutchou": 3211,
      "monoc": 3212,
      "derne": 3213,
      "derby": 3214,
      "métier": 3215,
      "skieurs": 3216,
      "rég": 3217,
      "foraine": 3218,
      "acti": 3219,
      "liqui": 3220,
      "camp": 3221,
      "campe": 3222,
      "moderne": 3223,
      "impermé": 3224,
      "chaud": 3225,
      "manche": 3226,
      "nourrisson": 3227,
      "rasant": 3228,
      "ador": 3229,
      "sortie": 3230,
      "claire": 3231,
      "univers": 3232,
      "allongées": 3233,
      "camions": 3234,
      "vendeurs": 3235,
      "crème": 3236,
      "joli": 3237,
      "bonnets": 3238,
      "flûte": 3239,
      "fumée": 3240,
      "graph": 3241,
      "nettoient": 3242,
      "circulant": 3243,
      "entraînant": 3244,
      "dames": 3245,
      "transport": 3246,
      "laverie": 3247,
      "interag": 3248,
      "électron": 3249,
      "arrêtent": 3250,
      "réparant": 3251,
      "écoutent": 3252,
      "agenouillé": 3253,
      "éloignant": 3254,
      "girl": 3255,
      "engag": 3256,
      "hauteur": 3257,
      "crépus": 3258,
      "artistique": 3259,
      "déguisés": 3260,
      "poids": 3261,
      "traîneau": 3262,
      "style": 3263,
      "contrôle": 3264,
      "achètent": 3265,
      "examinant": 3266,
      "craie": 3267,
      "impri": 3268,
      "fare": 3269,
      "receveur": 3270,
      "matelas": 3271,
      "pigeons": 3272,
      "bougies": 3273,
      "clôturée": 3274,
      "fanfare": 3275,
      "levés": 3276,
      "couvrant": 3277,
      "écrivant": 3278,
      "banderole": 3279,
      "taxi": 3280,
      "décontractée": 3281,
      "horizon": 3282,
      "écossaise": 3283,
      "arrivée": 3284,
      "patio": 3285,
      "infirmi": 3286,
      "honneur": 3287,
      "caoutchouc": 3288,
      "crépuscule": 3289,
      "12": 3290,
      "bille": 3291,
      "bés": 3292,
      "crie": 3293,
      "eu": 3294,
      "fans": 3295,
      "hal": 3296,
      "hall": 3297,
      "ibles": 3298,
      "là": 3299,
      "lou": 3300,
      "mu": 3301,
      "rette": 3302,
      "sang": 3303,
      "th": 3304,
      "tâ": 3305,
      "vée": 3306,
      "xy": 3307,
      "zar": 3308,
      "deuse": 3309,
      "enla": 3310,
      "esur": 3311,
      "chasse": 3312,
      "hot": 3313,
      "ref": 3314,
      "auds": 3315,
      "quin": 3316,
      "tech": 3317,
      "inten": 3318,
      "asie": 3319,
      "garni": 3320,
      "marquer": 3321,
      "cool": 3322,
      "plante": 3323,
      "toile": 3324,
      "tendu": 3325,
      "grille": 3326,
      "grat": 3327,
      "bris": 3328,
      "celui": 3329,
      "dés": 3330,
      "découpe": 3331,
      "ignes": 3332,
      "vitr": 3333,
      "proba": 3334,
      "baiss": 3335,
      "voler": 3336,
      "cuill": 3337,
      "agite": 3338,
      "cale": 3339,
      "tentes": 3340,
      "exc": 3341,
      "extérieure": 3342,
      "récol": 3343,
      "pisto": 3344,
      "penchée": 3345,
      "scout": 3346,
      "scie": 3347,
      "boutique": 3348,
      "divert": 3349,
      "bulle": 3350,
      "geste": 3351,
      "passants": 3352,
      "bonbons": 3353,
      "mix": 3354,
      "manne": 3355,
      "cerceau": 3356,
      "lèche": 3357,
      "lèvres": 3358,
      "violets": 3359,
      "escaladent": 3360,
      "appareils": 3361,
      "professe": 3362,
      "crâne": 3363,
      "poupée": 3364,
      "discute": 3365,
      "machines": 3366,
      "plongée": 3367,
      "agents": 3368,
      "laver": 3369,
      "décoré": 3370,
      "réunissent": 3371,
      "gravissant": 3372,
      "scolaire": 3373,
      "embrasser": 3374,
      "valise": 3375,
      "bandeau": 3376,
      "flotte": 3377,
      "dessinant": 3378,
      "donner": 3379,
      "froide": 3380,
      "engin": 3381,
      "nature": 3382,
      "branches": 3383,
      "inspecte": 3384,
      "individu": 3385,
      "produisant": 3386,
      "produisent": 3387,
      "badauds": 3388,
      "achète": 3389,
      "immense": 3390,
      "intéres": 3391,
      "pratiquent": 3392,
      "ramassant": 3393,
      "sportif": 3394,
      "applaudissent": 3395,
      "chirurg": 3396,
      "détendent": 3397,
      "creusant": 3398,
      "kitesur": 3399,
      "ceinture": 3400,
      "féminin": 3401,
      "pagaie": 3402,
      "médecin": 3403,
      "écartés": 3404,
      "silhouette": 3405,
      "arrosage": 3406,
      "lampadaire": 3407,
      "monocycle": 3408,
      "région": 3409,
      "liquide": 3410,
      "électronique": 3411,
      "probablement": 3412,
      "20": 3413,
      "ab": 3414,
      "abo": 3415,
      "dri": 3416,
      "dia": 3417,
      "dance": 3418,
      "gan": 3419,
      "gre": 3420,
      "gag": 3421,
      "gues": 3422,
      "gestes": 3423,
      "mc": 3424,
      "mè": 3425,
      "mun": 3426,
      "nœu": 3427,
      "nager": 3428,
      "pées": 3429,
      "rur": 3430,
      "rest": 3431,
      "sir": 3432,
      "sèche": 3433,
      "évent": 3434,
      "écol": 3435,
      "égale": 3436,
      "êtres": 3437,
      "œil": 3438,
      "estier": 3439,
      "lequel": 3440,
      "arrose": 3441,
      "châ": 3442,
      "chois": 3443,
      "ente": 3444,
      "entass": 3445,
      "garé": 3446,
      "garés": 3447,
      "rouler": 3448,
      "uel": 3449,
      "attente": 3450,
      "ots": 3451,
      "ances": 3452,
      "amie": 3453,
      "couteau": 3454,
      "gré": 3455,
      "grue": 3456,
      "cel": 3457,
      "ceuse": 3458,
      "dégarni": 3459,
      "ica": 3460,
      "melles": 3461,
      "proch": 3462,
      "plais": 3463,
      "raquettes": 3464,
      "back": 3465,
      "cuire": 3466,
      "monos": 3467,
      "cons": 3468,
      "contenant": 3469,
      "barri": 3470,
      "expl": 3471,
      "médi": 3472,
      "skie": 3473,
      "répè": 3474,
      "form": 3475,
      "forestier": 3476,
      "accident": 3477,
      "penchant": 3478,
      "bouée": 3479,
      "boueux": 3480,
      "diverses": 3481,
      "servant": 3482,
      "citrou": 3483,
      "citron": 3484,
      "bull": 3485,
      "cani": 3486,
      "charrette": 3487,
      "plumes": 3488,
      "affron": 3489,
      "collè": 3490,
      "fenêtres": 3491,
      "baskets": 3492,
      "retir": 3493,
      "retour": 3494,
      "onné": 3495,
      "nageurs": 3496,
      "entourés": 3497,
      "ferrée": 3498,
      "frisés": 3499,
      "compl": 3500,
      "composé": 3501,
      "construisant": 3502,
      "entraînent": 3503,
      "capot": 3504,
      "présentation": 3505,
      "gos": 3506,
      "œuvres": 3507,
      "rapides": 3508,
      "cuisinière": 3509,
      "argenté": 3510,
      "tombant": 3511,
      "câbles": 3512,
      "glacée": 3513,
      "service": 3514,
      "vités": 3515,
      "pneus": 3516,
      "tricycle": 3517,
      "collection": 3518,
      "nuageux": 3519,
      "intégr": 3520,
      "retournant": 3521,
      "arrive": 3522,
      "japonais": 3523,
      "théâtre": 3524,
      "chorale": 3525,
      "russes": 3526,
      "coéquipier": 3527,
      "olympiques": 3528,
      "évier": 3529,
      "aussi": 3530,
      "partageant": 3531,
      "scientifique": 3532,
      "éléphant": 3533,
      "protéger": 3534,
      "studio": 3535,
      "bordeaux": 3536,
      "collants": 3537,
      "aspirateur": 3538,
      "partagent": 3539,
      "imperméable": 3540,
      "professeur": 3541,
      "également": 3542,
      "ait": 3543,
      "abru": 3544,
      "bro": 3545,
      "clé": 3546,
      "disant": 3547,
      "fourr": 3548,
      "gile": 3549,
      "ice": 3550,
      "land": 3551,
      "mis": 3552,
      "mau": 3553,
      "mbr": 3554,
      "ope": 3555,
      "pte": 3556,
      "pleurs": 3557,
      "ry": 3558,
      "ring": 3559,
      "ument": 3560,
      "vra": 3561,
      "zo": 3562,
      "essu": 3563,
      "espag": 3564,
      "lement": 3565,
      "isée": 3566,
      "chè": 3567,
      "tee": 3568,
      "suréle": 3569,
      "lamm": 3570,
      "laine": 3571,
      "laires": 3572,
      "intérieure": 3573,
      "asc": 3574,
      "ités": 3575,
      "garée": 3576,
      "blous": 3577,
      "perron": 3578,
      "perru": 3579,
      "perceuse": 3580,
      "perform": 3581,
      "partir": 3582,
      "marque": 3583,
      "fabri": 3584,
      "plô": 3585,
      "pomme": 3586,
      "courte": 3587,
      "grill": 3588,
      "gratte": 3589,
      "londres": 3590,
      "découp": 3591,
      "départ": 3592,
      "débris": 3593,
      "vements": 3594,
      "icien": 3595,
      "mex": 3596,
      "rails": 3597,
      "bébés": 3598,
      "monument": 3599,
      "concent": 3600,
      "dessine": 3601,
      "baril": 3602,
      "écrire": 3603,
      "pul": 3604,
      "ards": 3605,
      "tondeuse": 3606,
      "paquet": 3607,
      "diplô": 3608,
      "live": 3609,
      "cherchant": 3610,
      "grosses": 3611,
      "jetant": 3612,
      "ramasse": 3613,
      "couples": 3614,
      "discussion": 3615,
      "chargeant": 3616,
      "issement": 3617,
      "magasins": 3618,
      "aident": 3619,
      "bizar": 3620,
      "bains": 3621,
      "tirée": 3622,
      "escalader": 3623,
      "guer": 3624,
      "peints": 3625,
      "mettent": 3626,
      "commun": 3627,
      "past": 3628,
      "épic": 3629,
      "hip": 3630,
      "pêcher": 3631,
      "justau": 3632,
      "banan": 3633,
      "morceaux": 3634,
      "mouvements": 3635,
      "série": 3636,
      "golden": 3637,
      "tatoué": 3638,
      "première": 3639,
      "réunion": 3640,
      "turban": 3641,
      "croix": 3642,
      "sauvage": 3643,
      "renvers": 3644,
      "orientale": 3645,
      "mousse": 3646,
      "pâle": 3647,
      "poterie": 3648,
      "apprécient": 3649,
      "savour": 3650,
      "parasols": 3651,
      "assiettes": 3652,
      "étoile": 3653,
      "hôtel": 3654,
      "basketteurs": 3655,
      "texto": 3656,
      "stylo": 3657,
      "magazines": 3658,
      "dirigeant": 3659,
      "document": 3660,
      "mouton": 3661,
      "moutons": 3662,
      "écume": 3663,
      "chiots": 3664,
      "acrobatie": 3665,
      "réfléchissant": 3666,
      "caddie": 3667,
      "manifestants": 3668,
      "cornemuse": 3669,
      "fraîche": 3670,
      "brillante": 3671,
      "kilt": 3672,
      "ception": 3673,
      "reçoit": 3674,
      "bretelles": 3675,
      "disputent": 3676,
      "commencer": 3677,
      "cuillère": 3678,
      "munici": 3679,
      "espagno": 3680,
      "blouses": 3681,
      "performance": 3682,
      "justaucorps": 3683,
      "aqu": 3684,
      "aille": 3685,
      "cue": 3686,
      "dj": 3687,
      "drap": 3688,
      "fle": 3689,
      "gis": 3690,
      "gor": 3691,
      "gro": 3692,
      "hn": 3693,
      "nées": 3694,
      "pha": 3695,
      "sto": 3696,
      "sés": 3697,
      "smo": 3698,
      "the": 3699,
      "uent": 3700,
      "vu": 3701,
      "vest": 3702,
      "vise": 3703,
      "vac": 3704,
      "yc": 3705,
      "yent": 3706,
      "état": 3707,
      "étire": 3708,
      "encom": 3709,
      "arche": 3710,
      "armée": 3711,
      "argile": 3712,
      "isme": 3713,
      "rela": 3714,
      "entrer": 3715,
      "quée": 3716,
      "quilles": 3717,
      "surpoids": 3718,
      "ind": 3719,
      "organ": 3720,
      "asper": 3721,
      "itié": 3722,
      "garées": 3723,
      "riers": 3724,
      "percu": 3725,
      "paral": 3726,
      "joué": 3727,
      "mart": 3728,
      "porche": 3729,
      "pres": 3730,
      "presque": 3731,
      "tail": 3732,
      "enfon": 3733,
      "enflamm": 3734,
      "tées": 3735,
      "poê": 3736,
      "pommes": 3737,
      "poing": 3738,
      "brû": 3739,
      "belles": 3740,
      "détend": 3741,
      "soci": 3742,
      "sombres": 3743,
      "vér": 3744,
      "bombe": 3745,
      "lettres": 3746,
      "cape": 3747,
      "mono": 3748,
      "frère": 3749,
      "lumine": 3750,
      "exposé": 3751,
      "tond": 3752,
      "lanter": 3753,
      "herbeux": 3754,
      "boules": 3755,
      "bouclés": 3756,
      "rond": 3757,
      "ronde": 3758,
      "cible": 3759,
      "bordure": 3760,
      "moitié": 3761,
      "canot": 3762,
      "remet": 3763,
      "nuages": 3764,
      "sales": 3765,
      "rayés": 3766,
      "chauff": 3767,
      "coups": 3768,
      "disque": 3769,
      "contrebas": 3770,
      "tropic": 3771,
      "parade": 3772,
      "dorée": 3773,
      "dorment": 3774,
      "couvertures": 3775,
      "essayer": 3776,
      "glisser": 3777,
      "commande": 3778,
      "ifiques": 3779,
      "pièces": 3780,
      "jumelles": 3781,
      "papiers": 3782,
      "john": 3783,
      "nageur": 3784,
      "soude": 3785,
      "banjo": 3786,
      "ferme": 3787,
      "carrelage": 3788,
      "athlé": 3789,
      "balayant": 3790,
      "borne": 3791,
      "hockeyeurs": 3792,
      "arrê": 3793,
      "bureaux": 3794,
      "allure": 3795,
      "types": 3796,
      "présente": 3797,
      "goû": 3798,
      "attachée": 3799,
      "indiennes": 3800,
      "éclairage": 3801,
      "plongeoir": 3802,
      "gravit": 3803,
      "bondit": 3804,
      "tombée": 3805,
      "éclaboussant": 3806,
      "renif": 3807,
      "oriental": 3808,
      "tourner": 3809,
      "obstacles": 3810,
      "images": 3811,
      "attention": 3812,
      "lignes": 3813,
      "chets": 3814,
      "badge": 3815,
      "texas": 3816,
      "attraction": 3817,
      "patineurs": 3818,
      "shop": 3819,
      "surveille": 3820,
      "étreignent": 3821,
      "nouvellement": 3822,
      "galerie": 3823,
      "casser": 3824,
      "croisés": 3825,
      "environ": 3826,
      "tranquille": 3827,
      "protège": 3828,
      "formation": 3829,
      "pédal": 3830,
      "yoga": 3831,
      "étroite": 3832,
      "entretien": 3833,
      "poignée": 3834,
      "défense": 3835,
      "inclin": 3836,
      "breakdance": 3837,
      "tronçonneuse": 3838,
      "signal": 3839,
      "baguettes": 3840,
      "engagés": 3841,
      "baissée": 3842,
      "mannequin": 3843,
      "retourne": 3844,
      "abrupte": 3845,
      "fourrure": 3846,
      "pulvér": 3847,
      "société": 3848,
      "abe": 3849,
      "aise": 3850,
      "ajus": 3851,
      "ailes": 3852,
      "cs": 3853,
      "crayon": 3854,
      "fas": 3855,
      "ks": 3856,
      "ker": 3857,
      "lie": 3858,
      "ms": 3859,
      "sen": 3860,
      "umin": 3861,
      "vien": 3862,
      "èle": 3863,
      "éte": 3864,
      "étag": 3865,
      "ébrou": 3866,
      "enre": 3867,
      "oux": 3868,
      "uration": 3869,
      "are": 3870,
      "chette": 3871,
      "reposer": 3872,
      "ino": 3873,
      "allant": 3874,
      "alcool": 3875,
      "tien": 3876,
      "tigu": 3877,
      "peignent": 3878,
      "uelle": 3879,
      "rive": 3880,
      "percussion": 3881,
      "ates": 3882,
      "iellement": 3883,
      "fatigu": 3884,
      "coca": 3885,
      "tam": 3886,
      "tation": 3887,
      "tachet": 3888,
      "tendant": 3889,
      "brass": 3890,
      "brée": 3891,
      "illumin": 3892,
      "beig": 3893,
      "apprend": 3894,
      "poursuit": 3895,
      "joueuses": 3896,
      "découper": 3897,
      "décolle": 3898,
      "déchets": 3899,
      "plats": 3900,
      "plaqué": 3901,
      "rament": 3902,
      "raft": 3903,
      "bols": 3904,
      "dog": 3905,
      "conf": 3906,
      "filme": 3907,
      "food": 3908,
      "plexe": 3909,
      "explo": 3910,
      "extré": 3911,
      "réuni": 3912,
      "réception": 3913,
      "poste": 3914,
      "sauté": 3915,
      "acier": 3916,
      "reste": 3917,
      "hache": 3918,
      "haie": 3919,
      "serve": 3920,
      "phal": 3921,
      "buff": 3922,
      "impression": 3923,
      "bonne": 3924,
      "visible": 3925,
      "canal": 3926,
      "doss": 3927,
      "chameaux": 3928,
      "rayons": 3929,
      "ramant": 3930,
      "nombreuse": 3931,
      "lancé": 3932,
      "lancent": 3933,
      "plupart": 3934,
      "sortir": 3935,
      "violettes": 3936,
      "embar": 3937,
      "calme": 3938,
      "gui": 3939,
      "sub": 3940,
      "remplis": 3941,
      "crée": 3942,
      "pêchant": 3943,
      "ake": 3944,
      "adolescente": 3945,
      "construire": 3946,
      "circule": 3947,
      "étudie": 3948,
      "trice": 3949,
      "appuyant": 3950,
      "célé": 3951,
      "célè": 3952,
      "géante": 3953,
      "accroupis": 3954,
      "accroupit": 3955,
      "observant": 3956,
      "plongeur": 3957,
      "violoncelle": 3958,
      "turquoise": 3959,
      "immeubles": 3960,
      "partition": 3961,
      "traditionnelle": 3962,
      "tourné": 3963,
      "fleurie": 3964,
      "installant": 3965,
      "occupe": 3966,
      "combattant": 3967,
      "cavaliers": 3968,
      "jonglant": 3969,
      "directions": 3970,
      "étoffe": 3971,
      "alignées": 3972,
      "nuageuse": 3973,
      "meute": 3974,
      "meubles": 3975,
      "gobelets": 3976,
      "enthousiaste": 3977,
      "saisit": 3978,
      "navigue": 3979,
      "pratiquant": 3980,
      "grimaces": 3981,
      "écossais": 3982,
      "déplacent": 3983,
      "déplaçant": 3984,
      "donal": 3985,
      "échecs": 3986,
      "choré": 3987,
      "essentiellement": 3988,
      "enthousiastes": 3989,
      "enthousiasme": 3990,
      "friand": 3991,
      "épaisse": 3992,
      "pliante": 3993,
      "smash": 3994,
      "artific": 3995,
      "colonnes": 3996,
      "voilier": 3997,
      "lévriers": 3998,
      "ballerine": 3999,
      "chargement": 4000,
      "tournoi": 4001,
      "poussiéreux": 4002,
      "enveloppé": 4003,
      "suspendue": 4004,
      "simi": 4005,
      "montgolfière": 4006,
      "graphie": 4007,
      "imprimé": 4008,
      "scouts": 4009,
      "2012": 4010,
      "écoliers": 4011,
      "barrières": 4012,
      "affrontant": 4013,
      "intégrale": 4014,
      "bizarre": 4015,
      "épicerie": 4016,
      "municipal": 4017,
      "phase": 4018,
      "smoking": 4019,
      "enregis": 4020,
      "rafting": 4021,
      "bin": 4022,
      "bble": 4023,
      "broch": 4024,
      "ct": 4025,
      "cau": 4026,
      "cier": 4027,
      "dy": 4028,
      "ep": 4029,
      "fant": 4030,
      "fau": 4031,
      "fois": 4032,
      "gâ": 4033,
      "gou": 4034,
      "gout": 4035,
      "gers": 4036,
      "lux": 4037,
      "lic": 4038,
      "mass": 4039,
      "mier": 4040,
      "mité": 4041,
      "nie": 4042,
      "pitre": 4043,
      "rir": 4044,
      "rilleux": 4045,
      "sp": 4046,
      "sout": 4047,
      "sli": 4048,
      "uf": 4049,
      "vus": 4050,
      "vont": 4051,
      "éjec": 4052,
      "émer": 4053,
      "établ": 4054,
      "échass": 4055,
      "anch": 4056,
      "oulière": 4057,
      "armes": 4058,
      "arcade": 4059,
      "regrou": 4060,
      "enter": 4061,
      "inde": 4062,
      "intes": 4063,
      "orium": 4064,
      "triste": 4065,
      "asphal": 4066,
      "tige": 4067,
      "times": 4068,
      "peig": 4069,
      "peinte": 4070,
      "uellement": 4071,
      "perdu": 4072,
      "copt": 4073,
      "tapant": 4074,
      "ballet": 4075,
      "poche": 4076,
      "couchée": 4077,
      "gra": 4078,
      "appara": 4079,
      "matiques": 4080,
      "déploy": 4081,
      "icain": 4082,
      "vite": 4083,
      "proche": 4084,
      "cuit": 4085,
      "confor": 4086,
      "concours": 4087,
      "concentre": 4088,
      "film": 4089,
      "écart": 4090,
      "pupitre": 4091,
      "riever": 4092,
      "angle": 4093,
      "hawa": 4094,
      "libre": 4095,
      "licopt": 4096,
      "bascule": 4097,
      "ouvrant": 4098,
      "moins": 4099,
      "canette": 4100,
      "canad": 4101,
      "chameau": 4102,
      "entreprise": 4103,
      "nets": 4104,
      "attendre": 4105,
      "raser": 4106,
      "adverses": 4107,
      "travailleur": 4108,
      "bières": 4109,
      "restauration": 4110,
      "trouver": 4111,
      "collines": 4112,
      "périlleux": 4113,
      "ignon": 4114,
      "essaient": 4115,
      "essaye": 4116,
      "onnement": 4117,
      "remplit": 4118,
      "tremp": 4119,
      "poly": 4120,
      "vendent": 4121,
      "retriever": 4122,
      "blessé": 4123,
      "époux": 4124,
      "joie": 4125,
      "écrans": 4126,
      "mince": 4127,
      "ponton": 4128,
      "poulet": 4129,
      "chariots": 4130,
      "mascul": 4131,
      "touchant": 4132,
      "graffiti": 4133,
      "pellette": 4134,
      "œuf": 4135,
      "rappel": 4136,
      "cuisiner": 4137,
      "argentée": 4138,
      "quarter": 4139,
      "navire": 4140,
      "enseign": 4141,
      "secoue": 4142,
      "écouter": 4143,
      "bandoulière": 4144,
      "hélicopt": 4145,
      "froma": 4146,
      "ative": 4147,
      "boîtes": 4148,
      "fleuri": 4149,
      "dresse": 4150,
      "déguisé": 4151,
      "finir": 4152,
      "seulement": 4153,
      "tricot": 4154,
      "inspectent": 4155,
      "échafaudages": 4156,
      "patineur": 4157,
      "examinent": 4158,
      "sarcelle": 4159,
      "sportive": 4160,
      "nouvelle": 4161,
      "empil": 4162,
      "environnement": 4163,
      "situé": 4164,
      "pointant": 4165,
      "habits": 4166,
      "épais": 4167,
      "blazer": 4168,
      "balancent": 4169,
      "support": 4170,
      "pilotes": 4171,
      "demois": 4172,
      "brace": 4173,
      "obscurité": 4174,
      "manipule": 4175,
      "syn": 4176,
      "religieuse": 4177,
      "expérience": 4178,
      "patauge": 4179,
      "auditorium": 4180,
      "délabré": 4181,
      "reflet": 4182,
      "pistolet": 4183,
      "kitesurf": 4184,
      "gagner": 4185,
      "mcdonal": 4186,
      "nœud": 4187,
      "plaisir": 4188,
      "vacances": 4189,
      "yclette": 4190,
      "parallè": 4191,
      "signalisation": 4192,
      "viennent": 4193,
      "réunies": 4194,
      "célébr": 4195,
      "chorégraphie": 4196,
      "échasses": 4197,
      "asphalte": 4198,
      "hawaï": 4199,
      "hélicoptère": 4200,
      "amar": 4201,
      "atif": 4202,
      "aquar": 4203,
      "bans": 4204,
      "cout": 4205,
      "cing": 4206,
      "durant": 4207,
      "fi": 4208,
      "fic": 4209,
      "ford": 4210,
      "gas": 4211,
      "gal": 4212,
      "han": 4213,
      "iment": 4214,
      "ières": 4215,
      "kart": 4216,
      "mire": 4217,
      "mite": 4218,
      "méc": 4219,
      "mut": 4220,
      "nue": 4221,
      "nappe": 4222,
      "page": 4223,
      "pôt": 4224,
      "rav": 4225,
      "stor": 4226,
      "vallée": 4227,
      "wake": 4228,
      "ânes": 4229,
      "èques": 4230,
      "éla": 4231,
      "éti": 4232,
      "épar": 4233,
      "épi": 4234,
      "échauff": 4235,
      "enir": 4236,
      "anti": 4237,
      "arde": 4238,
      "chic": 4239,
      "chage": 4240,
      "chron": 4241,
      "chiff": 4242,
      "revêtement": 4243,
      "qués": 4244,
      "quoi": 4245,
      "surfer": 4246,
      "infor": 4247,
      "indus": 4248,
      "itou": 4249,
      "feur": 4250,
      "deuxième": 4251,
      "quelle": 4252,
      "nelles": 4253,
      "perles": 4254,
      "jeep": 4255,
      "ata": 4256,
      "nomm": 4257,
      "notes": 4258,
      "assistant": 4259,
      "pratique": 4260,
      "toilet": 4261,
      "couver": 4262,
      "gren": 4263,
      "pourpre": 4264,
      "lowe": 4265,
      "déambu": 4266,
      "découpant": 4267,
      "soigne": 4268,
      "soyeux": 4269,
      "soda": 4270,
      "proches": 4271,
      "propri": 4272,
      "baiser": 4273,
      "bob": 4274,
      "jack": 4275,
      "plane": 4276,
      "cache": 4277,
      "domin": 4278,
      "concur": 4279,
      "foyer": 4280,
      "exhi": 4281,
      "ordre": 4282,
      "réal": 4283,
      "chocola": 4284,
      "serpent": 4285,
      "servir": 4286,
      "serveur": 4287,
      "chercher": 4288,
      "mod": 4289,
      "skateurs": 4290,
      "visibles": 4291,
      "cannes": 4292,
      "midi": 4293,
      "saluant": 4294,
      "rayées": 4295,
      "entrepôt": 4296,
      "sive": 4297,
      "rasé": 4298,
      "amérique": 4299,
      "admire": 4300,
      "class": 4301,
      "vieilles": 4302,
      "lacrosse": 4303,
      "calèche": 4304,
      "piercing": 4305,
      "cheminée": 4306,
      "peintre": 4307,
      "couverts": 4308,
      "complet": 4309,
      "remplissant": 4310,
      "débardeurs": 4311,
      "rassemblant": 4312,
      "retrou": 4313,
      "pelot": 4314,
      "épon": 4315,
      "épouse": 4316,
      "glaci": 4317,
      "poudre": 4318,
      "flan": 4319,
      "balançant": 4320,
      "ièrement": 4321,
      "bannière": 4322,
      "fumer": 4323,
      "ferrées": 4324,
      "tendus": 4325,
      "sécher": 4326,
      "boys": 4327,
      "moyenne": 4328,
      "circulent": 4329,
      "défilent": 4330,
      "mêmes": 4331,
      "roulants": 4332,
      "intervie": 4333,
      "jardinage": 4334,
      "décorations": 4335,
      "bikinis": 4336,
      "tombent": 4337,
      "réparent": 4338,
      "agenouillés": 4339,
      "effectuent": 4340,
      "europe": 4341,
      "prix": 4342,
      "chinoises": 4343,
      "pots": 4344,
      "maquille": 4345,
      "brouillard": 4346,
      "douche": 4347,
      "marchandise": 4348,
      "boxe": 4349,
      "suivant": 4350,
      "suivent": 4351,
      "surveillent": 4352,
      "naviguant": 4353,
      "photographes": 4354,
      "drôle": 4355,
      "elmo": 4356,
      "moustachu": 4357,
      "miniature": 4358,
      "princi": 4359,
      "canards": 4360,
      "manifestant": 4361,
      "appartement": 4362,
      "ceintures": 4363,
      "curieux": 4364,
      "agricole": 4365,
      "corpulente": 4366,
      "formations": 4367,
      "verdoyante": 4368,
      "pourchassant": 4369,
      "emmitou": 4370,
      "artifice": 4371,
      "vérifie": 4372,
      "lévrier": 4373,
      "moby": 4374,
      "encourage": 4375,
      "temple": 4376,
      "projecteur": 4377,
      "impliquant": 4378,
      "distributeur": 4379,
      "photographié": 4380,
      "médical": 4381,
      "exécutent": 4382,
      "pizza": 4383,
      "flânant": 4384,
      "oreillers": 4385,
      "steak": 4386,
      "infirmières": 4387,
      "billets": 4388,
      "hallowe": 4389,
      "éventail": 4390,
      "cellu": 4391,
      "monospace": 4392,
      "constr": 4393,
      "explor": 4394,
      "mauva": 4395,
      "chèvre": 4396,
      "perruque": 4397,
      "mexicain": 4398,
      "pastèques": 4399,
      "savourent": 4400,
      "gorge": 4401,
      "veston": 4402,
      "tacheté": 4403,
      "buffet": 4404,
      "enregistre": 4405,
      "gâteaux": 4406,
      "peignoir": 4407,
      "fromage": 4408,
      "synchron": 4409,
      "mcdonald": 4410,
      "aquarium": 4411,
      "informatique": 4412,
      "industr": 4413,
      "concurrent": 4414,
      "halloween": 4415,
      "00": 4416,
      "bû": 4417,
      "bav": 4418,
      "bross": 4419,
      "cis": 4420,
      "cils": 4421,
      "ctur": 4422,
      "crosse": 4423,
      "das": 4424,
      "dal": 4425,
      "dée": 4426,
      "gi": 4427,
      "gonn": 4428,
      "hand": 4429,
      "ivre": 4430,
      "lins": 4431,
      "mû": 4432,
      "mène": 4433,
      "nés": 4434,
      "of": 4435,
      "oles": 4436,
      "osa": 4437,
      "oquoise": 4438,
      "omac": 4439,
      "oeu": 4440,
      "ombr": 4441,
      "pun": 4442,
      "ples": 4443,
      "rat": 4444,
      "réc": 4445,
      "sw": 4446,
      "spr": 4447,
      "sieurs": 4448,
      "ston": 4449,
      "stre": 4450,
      "sens": 4451,
      "ssin": 4452,
      "sprin": 4453,
      "signes": 4454,
      "tan": 4455,
      "tle": 4456,
      "tissant": 4457,
      "up": 4458,
      "uer": 4459,
      "éva": 4460,
      "étendu": 4461,
      "delà": 4462,
      "envo": 4463,
      "ension": 4464,
      "enlève": 4465,
      "enlever": 4466,
      "escar": 4467,
      "ouverts": 4468,
      "urgen": 4469,
      "arros": 4470,
      "aride": 4471,
      "chine": 4472,
      "chton": 4473,
      "ere": 4474,
      "ert": 4475,
      "rebond": 4476,
      "teuse": 4477,
      "avent": 4478,
      "survêtement": 4479,
      "lait": 4480,
      "lages": 4481,
      "lapin": 4482,
      "destin": 4483,
      "incon": 4484,
      "insc": 4485,
      "ingré": 4486,
      "orné": 4487,
      "iroquoise": 4488,
      "iter": 4489,
      "ital": 4490,
      "feux": 4491,
      "garder": 4492,
      "cheur": 4493,
      "tière": 4494,
      "tiers": 4495,
      "roulé": 4496,
      "estomac": 4497,
      "neuf": 4498,
      "blot": 4499,
      "rip": 4500,
      "parent": 4501,
      "ats": 4502,
      "marin": 4503,
      "maréc": 4504,
      "marmite": 4505,
      "noix": 4506,
      "porté": 4507,
      "prête": 4508,
      "core": 4509,
      "coff": 4510,
      "cock": 4511,
      "tale": 4512,
      "tailler": 4513,
      "tomat": 4514,
      "pop": 4515,
      "polit": 4516,
      "couvertes": 4517,
      "coussin": 4518,
      "illées": 4519,
      "illères": 4520,
      "maî": 4521,
      "lophone": 4522,
      "déf": 4523,
      "dég": 4524,
      "démons": 4525,
      "déchir": 4526,
      "végé": 4527,
      "vitres": 4528,
      "plaquer": 4529,
      "rail": 4530,
      "raide": 4531,
      "casino": 4532,
      "cah": 4533,
      "monica": 4534,
      "tuba": 4535,
      "contenu": 4536,
      "dessins": 4537,
      "barbus": 4538,
      "filmant": 4539,
      "filmer": 4540,
      "lutte": 4541,
      "pub": 4542,
      "expression": 4543,
      "skiant": 4544,
      "répara": 4545,
      "clar": 4546,
      "forces": 4547,
      "versant": 4548,
      "obile": 4549,
      "oney": 4550,
      "utre": 4551,
      "boucher": 4552,
      "boulang": 4553,
      "dients": 4554,
      "murale": 4555,
      "guitares": 4556,
      "tration": 4557,
      "trafic": 4558,
      "cice": 4559,
      "cherchent": 4560,
      "truck": 4561,
      "messieurs": 4562,
      "issants": 4563,
      "passion": 4564,
      "bords": 4565,
      "mode": 4566,
      "matin": 4567,
      "cares": 4568,
      "visite": 4569,
      "visière": 4570,
      "salue": 4571,
      "saluent": 4572,
      "prélas": 4573,
      "manière": 4574,
      "coupent": 4575,
      "batman": 4576,
      "nourrit": 4577,
      "cerceaux": 4578,
      "poussent": 4579,
      "champs": 4580,
      "souriants": 4581,
      "calmes": 4582,
      "montagneux": 4583,
      "essayent": 4584,
      "vention": 4585,
      "command": 4586,
      "genouillères": 4587,
      "touriste": 4588,
      "juges": 4589,
      "frisé": 4590,
      "adolescentes": 4591,
      "nettoy": 4592,
      "pinata": 4593,
      "musical": 4594,
      "compris": 4595,
      "cadeaux": 4596,
      "pagayant": 4597,
      "trib": 4598,
      "trio": 4599,
      "triques": 4600,
      "tabliers": 4601,
      "sauc": 4602,
      "enceinte": 4603,
      "cuisinent": 4604,
      "attache": 4605,
      "collation": 4606,
      "transporte": 4607,
      "autochton": 4608,
      "lavent": 4609,
      "peupl": 4610,
      "plongeurs": 4611,
      "stationnement": 4612,
      "clos": 4613,
      "atteint": 4614,
      "sculptures": 4615,
      "pauvre": 4616,
      "secour": 4617,
      "ongles": 4618,
      "agenouille": 4619,
      "kayaks": 4620,
      "câble": 4621,
      "clowns": 4622,
      "glacier": 4623,
      "patinent": 4624,
      "endroits": 4625,
      "harmonica": 4626,
      "cotte": 4627,
      "dirig": 4628,
      "jours": 4629,
      "occupés": 4630,
      "double": 4631,
      "fourgonn": 4632,
      "savon": 4633,
      "gazonné": 4634,
      "muselière": 4635,
      "appuyée": 4636,
      "déguisée": 4637,
      "inspectant": 4638,
      "approchant": 4639,
      "traînant": 4640,
      "contrer": 4641,
      "trépied": 4642,
      "passager": 4643,
      "étreint": 4644,
      "étreignant": 4645,
      "retourné": 4646,
      "photographier": 4647,
      "grimpent": 4648,
      "officielle": 4649,
      "acrobaties": 4650,
      "singe": 4651,
      "détendant": 4652,
      "accrochant": 4653,
      "croisées": 4654,
      "creusent": 4655,
      "quitte": 4656,
      "palmier": 4657,
      "pigeon": 4658,
      "plantant": 4659,
      "bougie": 4660,
      "clôturé": 4661,
      "située": 4662,
      "bloquer": 4663,
      "appelé": 4664,
      "dinosa": 4665,
      "histor": 4666,
      "hispan": 4667,
      "coiffeur": 4668,
      "luttent": 4669,
      "olympique": 4670,
      "brillantes": 4671,
      "pourchassé": 4672,
      "exercice": 4673,
      "accrochés": 4674,
      "bambou": 4675,
      "contain": 4676,
      "mâche": 4677,
      "étroit": 4678,
      "atterrir": 4679,
      "ballerines": 4680,
      "hamac": 4681,
      "encouragent": 4682,
      "admirant": 4683,
      "poussiéreuse": 4684,
      "demande": 4685,
      "obscure": 4686,
      "catcheur": 4687,
      "bronz": 4688,
      "accompagné": 4689,
      "flânent": 4690,
      "walmart": 4691,
      "ethnique": 4692,
      "activités": 4693,
      "universitaire": 4694,
      "tâche": 4695,
      "xylophone": 4696,
      "chirurgic": 4697,
      "dribble": 4698,
      "rurale": 4699,
      "châle": 4700,
      "prochain": 4701,
      "répète": 4702,
      "citrouille": 4703,
      "caniche": 4704,
      "surélevée": 4705,
      "ascension": 4706,
      "guerre": 4707,
      "espagnol": 4708,
      "poêle": 4709,
      "monopoly": 4710,
      "lanternes": 4711,
      "goûter": 4712,
      "shopping": 4713,
      "casserole": 4714,
      "fatigué": 4715,
      "beiges": 4716,
      "extrémité": 4717,
      "serveuse": 4718,
      "fantais": 4719,
      "établissement": 4720,
      "quarterback": 4721,
      "demoiselles": 4722,
      "bracelet": 4723,
      "mécan": 4724,
      "mutuellement": 4725,
      "wakeboard": 4726,
      "chocolat": 4727,
      "éponge": 4728,
      "flanelle": 4729,
      "construit": 4730,
      "brossant": 4731,
      "street": 4732,
      "urgence": 4733,
      "ingrédients": 4734,
      "marécage": 4735,
      "coffre": 4736,
      "tomates": 4737,
      "démonstration": 4738,
      "fourgonnette": 4739,
      "alet": 4740,
      "bic": 4741,
      "cic": 4742,
      "cath": 4743,
      "cross": 4744,
      "crayons": 4745,
      "flor": 4746,
      "frire": 4747,
      "gge": 4748,
      "gne": 4749,
      "gap": 4750,
      "hur": 4751,
      "ipo": 4752,
      "jav": 4753,
      "jeng": 4754,
      "ka": 4755,
      "kic": 4756,
      "kler": 4757,
      "mec": 4758,
      "mper": 4759,
      "mie": 4760,
      "mbo": 4761,
      "ning": 4762,
      "nages": 4763,
      "olo": 4764,
      "piers": 4765,
      "poney": 4766,
      "rall": 4767,
      "souv": 4768,
      "squar": 4769,
      "spon": 4770,
      "tar": 4771,
      "tus": 4772,
      "titu": 4773,
      "vette": 4774,
      "vité": 4775,
      "vateur": 4776,
      "wer": 4777,
      "was": 4778,
      "ys": 4779,
      "yon": 4780,
      "zé": 4781,
      "ça": 4782,
      "épo": 4783,
      "échant": 4784,
      "édra": 4785,
      "égout": 4786,
      "unis": 4787,
      "demi": 4788,
      "anneau": 4789,
      "ench": 4790,
      "enclu": 4791,
      "esso": 4792,
      "oute": 4793,
      "onze": 4794,
      "ish": 4795,
      "ister": 4796,
      "istique": 4797,
      "chon": 4798,
      "chand": 4799,
      "chap": 4800,
      "chées": 4801,
      "chut": 4802,
      "eria": 4803,
      "ettis": 4804,
      "red": 4805,
      "auvent": 4806,
      "entrent": 4807,
      "teint": 4808,
      "ave": 4809,
      "lateur": 4810,
      "laquelle": 4811,
      "infé": 4812,
      "inclu": 4813,
      "inhabit": 4814,
      "orang": 4815,
      "oroute": 4816,
      "assur": 4817,
      "itation": 4818,
      "feutre": 4819,
      "tigre": 4820,
      "roca": 4821,
      "pard": 4822,
      "parce": 4823,
      "jeun": 4824,
      "ainsi": 4825,
      "ater": 4826,
      "marion": 4827,
      "personnages": 4828,
      "porta": 4829,
      "oters": 4830,
      "prises": 4831,
      "presse": 4832,
      "famil": 4833,
      "fabrique": 4834,
      "copes": 4835,
      "verti": 4836,
      "verdure": 4837,
      "autoroute": 4838,
      "taches": 4839,
      "tension": 4840,
      "téri": 4841,
      "télés": 4842,
      "amer": 4843,
      "amique": 4844,
      "amies": 4845,
      "courbé": 4846,
      "coud": 4847,
      "brit": 4848,
      "illons": 4849,
      "apple": 4850,
      "maj": 4851,
      "maquette": 4852,
      "logo": 4853,
      "démar": 4854,
      "déneige": 4855,
      "désar": 4856,
      "déjeun": 4857,
      "soon": 4858,
      "trains": 4859,
      "plac": 4860,
      "radio": 4861,
      "baisse": 4862,
      "bâche": 4863,
      "casca": 4864,
      "agée": 4865,
      "tableaux": 4866,
      "fruit": 4867,
      "franch": 4868,
      "barque": 4869,
      "lées": 4870,
      "maine": 4871,
      "angeant": 4872,
      "écrasant": 4873,
      "mélang": 4874,
      "rosser": 4875,
      "sourcils": 4876,
      "répon": 4877,
      "posit": 4878,
      "accompl": 4879,
      "choir": 4880,
      "âges": 4881,
      "iale": 4882,
      "fontaines": 4883,
      "herbeuse": 4884,
      "patron": 4885,
      "serrent": 4886,
      "corn": 4887,
      "liv": 4888,
      "phée": 4889,
      "muret": 4890,
      "chevalet": 4891,
      "issière": 4892,
      "ouvrir": 4893,
      "molle": 4894,
      "remuant": 4895,
      "musul": 4896,
      "musclé": 4897,
      "chauffe": 4898,
      "manœu": 4899,
      "bataille": 4900,
      "chargé": 4901,
      "souriantes": 4902,
      "amér": 4903,
      "toral": 4904,
      "tales": 4905,
      "talent": 4906,
      "spectateur": 4907,
      "sortent": 4908,
      "littoral": 4909,
      "trophée": 4910,
      "afin": 4911,
      "guide": 4912,
      "sud": 4913,
      "suite": 4914,
      "sucette": 4915,
      "beaux": 4916,
      "ctions": 4917,
      "apprenant": 4918,
      "instructions": 4919,
      "débarr": 4920,
      "venir": 4921,
      "rassemblée": 4922,
      "retire": 4923,
      "patins": 4924,
      "crê": 4925,
      "pêchent": 4926,
      "jogge": 4927,
      "entourant": 4928,
      "entourent": 4929,
      "entourées": 4930,
      "soutien": 4931,
      "mariés": 4932,
      "rentrer": 4933,
      "poutres": 4934,
      "banlie": 4935,
      "fermier": 4936,
      "mort": 4937,
      "polos": 4938,
      "étin": 4939,
      "masques": 4940,
      "mascotte": 4941,
      "balais": 4942,
      "flammes": 4943,
      "moulant": 4944,
      "mouillée": 4945,
      "touchent": 4946,
      "toujours": 4947,
      "rocheuses": 4948,
      "tendue": 4949,
      "sément": 4950,
      "séance": 4951,
      "effor": 4952,
      "pinceau": 4953,
      "pilier": 4954,
      "composée": 4955,
      "construisent": 4956,
      "numérique": 4957,
      "circulaire": 4958,
      "défilant": 4959,
      "pagay": 4960,
      "sports": 4961,
      "pelleteuse": 4962,
      "cigare": 4963,
      "cuisiniers": 4964,
      "niche": 4965,
      "niques": 4966,
      "niveau": 4967,
      "brunes": 4968,
      "étudiante": 4969,
      "tatouée": 4970,
      "observer": 4971,
      "électriques": 4972,
      "berge": 4973,
      "bermu": 4974,
      "gravissent": 4975,
      "scooters": 4976,
      "attelage": 4977,
      "amuser": 4978,
      "élég": 4979,
      "élévateur": 4980,
      "flottent": 4981,
      "rencontre": 4982,
      "dessiner": 4983,
      "écharpes": 4984,
      "europé": 4985,
      "pâtisser": 4986,
      "tournant": 4987,
      "tournage": 4988,
      "nattes": 4989,
      "voirie": 4990,
      "créer": 4991,
      "installe": 4992,
      "opposé": 4993,
      "occupent": 4994,
      "troncs": 4995,
      "pirate": 4996,
      "tisme": 4997,
      "douce": 4998,
      "gonflables": 4999,
      "alimentaires": 5000,
      "pyram": 5001,
      "canoës": 5002,
      "suivi": 5003,
      "était": 5004,
      "étage": 5005,
      "plateforme": 5006,
      "star": 5007,
      "alpinistes": 5008,
      "automobile": 5009,
      "elot": 5010,
      "téléphones": 5011,
      "officier": 5012,
      "officiel": 5013,
      "réfléchissants": 5014,
      "magnifiques": 5015,
      "applaudit": 5016,
      "donnent": 5017,
      "galets": 5018,
      "quittant": 5019,
      "terminé": 5020,
      "professionnels": 5021,
      "coéquipiers": 5022,
      "agricul": 5023,
      "soulevant": 5024,
      "soulevé": 5025,
      "pagaient": 5026,
      "jockeys": 5027,
      "pliantes": 5028,
      "exercic": 5029,
      "bambin": 5030,
      "vérifiant": 5031,
      "artisanat": 5032,
      "mobile": 5033,
      "mitaines": 5034,
      "chips": 5035,
      "pizzeria": 5036,
      "fonctionner": 5037,
      "interagissent": 5038,
      "infirmière": 5039,
      "enlace": 5040,
      "grattant": 5041,
      "vitrines": 5042,
      "intéress": 5043,
      "bulldo": 5044,
      "collègue": 5045,
      "collègues": 5046,
      "essuie": 5047,
      "bananes": 5048,
      "renversé": 5049,
      "aquatique": 5050,
      "grotte": 5051,
      "stop": 5052,
      "encombrée": 5053,
      "brûlant": 5054,
      "lumineux": 5055,
      "athlétisme": 5056,
      "arrêté": 5057,
      "défenseur": 5058,
      "éteindre": 5059,
      "étagère": 5060,
      "ébroue": 5061,
      "célèbre": 5062,
      "éjecté": 5063,
      "enseignante": 5064,
      "ravin": 5065,
      "éparp": 5066,
      "nommé": 5067,
      "couvercle": 5068,
      "soigneusement": 5069,
      "propriéta": 5070,
      "modèle": 5071,
      "classique": 5072,
      "peloton": 5073,
      "principa": 5074,
      "mobylette": 5075,
      "cellulaire": 5076,
      "industriel": 5077,
      "bavar": 5078,
      "sprinkler": 5079,
      "inscrip": 5080,
      "déchiré": 5081,
      "végétation": 5082,
      "réparations": 5083,
      "peuplé": 5084,
      "dinosaure": 5085,
      "container": 5086,
      "bicyclette": 5087,
      "cathédra": 5088,
      "javelot": 5089,
      "jenga": 5090,
      "kick": 5091,
      "rallye": 5092,
      "souvenir": 5093,
      "square": 5094,
      "sponsor": 5095,
      "époque": 5096,
      "enclume": 5097,
      "chandail": 5098,
      "chapite": 5099,
      "inférie": 5100,
      "désarçon": 5101,
      "manœuv": 5102,
      "exercices": 5103,
      "cathédrale": 5104,
      "10": 5105,
      "ades": 5106,
      "ajou": 5107,
      "aband": 5108,
      "bil": 5109,
      "bavoir": 5110,
      "bœufs": 5111,
      "brosser": 5112,
      "cire": 5113,
      "cag": 5114,
      "cord": 5115,
      "cins": 5116,
      "criant": 5117,
      "ctement": 5118,
      "dd": 5119,
      "fur": 5120,
      "fre": 5121,
      "fée": 5122,
      "fêt": 5123,
      "fier": 5124,
      "fourn": 5125,
      "gau": 5126,
      "gie": 5127,
      "gique": 5128,
      "hut": 5129,
      "ial": 5130,
      "iège": 5131,
      "kie": 5132,
      "ly": 5133,
      "lour": 5134,
      "lion": 5135,
      "mise": 5136,
      "menant": 5137,
      "ny": 5138,
      "nier": 5139,
      "omm": 5140,
      "oti": 5141,
      "ombres": 5142,
      "opard": 5143,
      "pper": 5144,
      "pca": 5145,
      "ral": 5146,
      "san": 5147,
      "sue": 5148,
      "site": 5149,
      "spat": 5150,
      "ssé": 5151,
      "sœur": 5152,
      "tine": 5153,
      "tisse": 5154,
      "tance": 5155,
      "uk": 5156,
      "wing": 5157,
      "él": 5158,
      "éco": 5159,
      "étirant": 5160,
      "ôles": 5161,
      "œurs": 5162,
      "ane": 5163,
      "anneaux": 5164,
      "encore": 5165,
      "legging": 5166,
      "legos": 5167,
      "antié": 5168,
      "urer": 5169,
      "uriant": 5170,
      "arabe": 5171,
      "issa": 5172,
      "isées": 5173,
      "isible": 5174,
      "err": 5175,
      "revers": 5176,
      "recouvrant": 5177,
      "auprès": 5178,
      "entrant": 5179,
      "entièrement": 5180,
      "quoti": 5181,
      "labr": 5182,
      "lapins": 5183,
      "informations": 5184,
      "seat": 5185,
      "trit": 5186,
      "trench": 5187,
      "itée": 5188,
      "timate": 5189,
      "rouillée": 5190,
      "pelles": 5191,
      "robot": 5192,
      "ueux": 5193,
      "ney": 5194,
      "neig": 5195,
      "nements": 5196,
      "rien": 5197,
      "perché": 5198,
      "paressent": 5199,
      "marins": 5200,
      "personnage": 5201,
      "nom": 5202,
      "note": 5203,
      "noctur": 5204,
      "prêtre": 5205,
      "coat": 5206,
      "coco": 5207,
      "vernis": 5208,
      "sala": 5209,
      "taper": 5210,
      "taire": 5211,
      "taillant": 5212,
      "menton": 5213,
      "enfile": 5214,
      "poils": 5215,
      "potier": 5216,
      "grès": 5217,
      "grillage": 5218,
      "brés": 5219,
      "appel": 5220,
      "appelle": 5221,
      "lons": 5222,
      "maid": 5223,
      "locale": 5224,
      "début": 5225,
      "déchargeant": 5226,
      "détrit": 5227,
      "vez": 5228,
      "terrier": 5229,
      "igu": 5230,
      "vides": 5231,
      "propos": 5232,
      "proposant": 5233,
      "provenant": 5234,
      "propre": 5235,
      "baie": 5236,
      "baignent": 5237,
      "voix": 5238,
      "cupca": 5239,
      "body": 5240,
      "semi": 5241,
      "personnels": 5242,
      "casse": 5243,
      "agé": 5244,
      "agne": 5245,
      "agitent": 5246,
      "ions": 5247,
      "cation": 5248,
      "tutu": 5249,
      "tubes": 5250,
      "tumul": 5251,
      "franc": 5252,
      "franç": 5253,
      "condition": 5254,
      "contem": 5255,
      "barmaid": 5256,
      "léopard": 5257,
      "tenter": 5258,
      "pleut": 5259,
      "exper": 5260,
      "expose": 5261,
      "exposés": 5262,
      "exposées": 5263,
      "mées": 5264,
      "ffes": 5265,
      "répé": 5266,
      "réconfor": 5267,
      "foresti": 5268,
      "pistes": 5269,
      "porteur": 5270,
      "ack": 5271,
      "acteurs": 5272,
      "tresses": 5273,
      "ressemblent": 5274,
      "bouc": 5275,
      "patrou": 5276,
      "paisible": 5277,
      "vieillard": 5278,
      "serré": 5279,
      "liber": 5280,
      "rondes": 5281,
      "pipe": 5282,
      "issé": 5283,
      "motif": 5284,
      "mots": 5285,
      "ington": 5286,
      "important": 5287,
      "canyon": 5288,
      "jets": 5289,
      "jeter": 5290,
      "miami": 5291,
      "rampes": 5292,
      "manuel": 5293,
      "siff": 5294,
      "disposit": 5295,
      "charcu": 5296,
      "cerfs": 5297,
      "pousser": 5298,
      "rasoir": 5299,
      "adres": 5300,
      "toresque": 5301,
      "plume": 5302,
      "colori": 5303,
      "colorie": 5304,
      "panor": 5305,
      "sortes": 5306,
      "trop": 5307,
      "tromb": 5308,
      "descente": 5309,
      "colliers": 5310,
      "frappé": 5311,
      "ignée": 5312,
      "publicités": 5313,
      "accesso": 5314,
      "remplissent": 5315,
      "state": 5316,
      "dragon": 5317,
      "buste": 5318,
      "patte": 5319,
      "épées": 5320,
      "onnant": 5321,
      "cris": 5322,
      "ultimate": 5323,
      "nageuse": 5324,
      "vaches": 5325,
      "minton": 5326,
      "minces": 5327,
      "rubans": 5328,
      "souder": 5329,
      "souple": 5330,
      "soudure": 5331,
      "poulets": 5332,
      "poupées": 5333,
      "flou": 5334,
      "floue": 5335,
      "mouettes": 5336,
      "surfeurs": 5337,
      "grimper": 5338,
      "pulls": 5339,
      "combres": 5340,
      "complexe": 5341,
      "construite": 5342,
      "plonger": 5343,
      "typique": 5344,
      "diffic": 5345,
      "tribal": 5346,
      "cigarettes": 5347,
      "rappro": 5348,
      "lavabo": 5349,
      "interro": 5350,
      "tatoueur": 5351,
      "éclairages": 5352,
      "snowboarder": 5353,
      "plongeon": 5354,
      "biker": 5355,
      "décorée": 5356,
      "affiches": 5357,
      "affichage": 5358,
      "boulevers": 5359,
      "enseignant": 5360,
      "enseignes": 5361,
      "africaines": 5362,
      "secours": 5363,
      "valises": 5364,
      "tueuses": 5365,
      "élégant": 5366,
      "éloignent": 5367,
      "dessinée": 5368,
      "effectuer": 5369,
      "volants": 5370,
      "foulards": 5371,
      "priant": 5372,
      "prient": 5373,
      "profondes": 5374,
      "pittoresque": 5375,
      "surplombe": 5376,
      "serviettes": 5377,
      "superman": 5378,
      "acheteurs": 5379,
      "installée": 5380,
      "volks": 5381,
      "tuyaux": 5382,
      "maquillé": 5383,
      "soufflant": 5384,
      "souffleur": 5385,
      "participants": 5386,
      "appuyés": 5387,
      "déguisées": 5388,
      "barreaux": 5389,
      "étoiles": 5390,
      "étoffes": 5391,
      "badminton": 5392,
      "saxophon": 5393,
      "bardeaux": 5394,
      "identif": 5395,
      "étalage": 5396,
      "meuble": 5397,
      "examiner": 5398,
      "immob": 5399,
      "poncho": 5400,
      "trébu": 5401,
      "radeaux": 5402,
      "navigable": 5403,
      "compagnie": 5404,
      "impati": 5405,
      "saris": 5406,
      "buisson": 5407,
      "ramasser": 5408,
      "ramassent": 5409,
      "officiers": 5410,
      "ancienne": 5411,
      "cassé": 5412,
      "cassée": 5413,
      "recevant": 5414,
      "porters": 5415,
      "brume": 5416,
      "terminer": 5417,
      "imposante": 5418,
      "planter": 5419,
      "rustique": 5420,
      "allume": 5421,
      "bloque": 5422,
      "agrip": 5423,
      "cabines": 5424,
      "mordre": 5425,
      "soulever": 5426,
      "levée": 5427,
      "lutteurs": 5428,
      "portraits": 5429,
      "médecins": 5430,
      "pédale": 5431,
      "emmène": 5432,
      "partage": 5433,
      "atterrit": 5434,
      "colonne": 5435,
      "supporters": 5436,
      "éléphants": 5437,
      "projecteurs": 5438,
      "impliqués": 5439,
      "mélangeant": 5440,
      "fixe": 5441,
      "wagen": 5442,
      "suspendus": 5443,
      "médicaux": 5444,
      "manipulant": 5445,
      "fonctionne": 5446,
      "montgolfières": 5447,
      "ethniques": 5448,
      "activité": 5449,
      "campement": 5450,
      "loupe": 5451,
      "tâches": 5452,
      "enlaçant": 5453,
      "technique": 5454,
      "intensément": 5455,
      "gratuits": 5456,
      "chirurgiens": 5457,
      "rural": 5458,
      "entassés": 5459,
      "prochaine": 5460,
      "répètent": 5461,
      "citrouilles": 5462,
      "complè": 5463,
      "ryth": 5464,
      "vraiment": 5465,
      "zoo": 5466,
      "zomb": 5467,
      "fabriquant": 5468,
      "concentré": 5469,
      "banane": 5470,
      "états": 5471,
      "relais": 5472,
      "enflammés": 5473,
      "remettre": 5474,
      "tropicale": 5475,
      "renifle": 5476,
      "pédalant": 5477,
      "confettis": 5478,
      "dossard": 5479,
      "guichet": 5480,
      "friandise": 5481,
      "artificielle": 5482,
      "similaire": 5483,
      "caucas": 5484,
      "cierge": 5485,
      "luxuriant": 5486,
      "spéci": 5487,
      "slip": 5488,
      "regroupés": 5489,
      "hawaïenne": 5490,
      "élastique": 5491,
      "emmitouflé": 5492,
      "synchronisée": 5493,
      "ciseaux": 5494,
      "handic": 5495,
      "envoyant": 5496,
      "destination": 5497,
      "boulangerie": 5498,
      "saucisses": 5499,
      "historique": 5500,
      "fantaisie": 5501,
      "ipod": 5502,
      "incluant": 5503,
      "orangé": 5504,
      "télésiège": 5505,
      "sooners": 5506,
      "banlieue": 5507,
      "pyramide": 5508,
      "bulldozer": 5509,
      "principalement": 5510,
      "inscriptions": 5511,
      "kickbox": 5512,
      "souvenirs": 5513,
      "chapiteau": 5514,
      "hutte": 5515,
      "sueur": 5516,
      "spatule": 5517,
      "quotidien": 5518,
      "seattle": 5519,
      "nocturne": 5520,
      "détritus": 5521,
      "tumultueuses": 5522,
      "forestière": 5523,
      "liberté": 5524,
      "dispositif": 5525,
      "volkswagen": 5526,
      "aises": 5527,
      "agré": 5528,
      "bun": 5529,
      "bill": 5530,
      "cit": 5531,
      "cés": 5532,
      "card": 5533,
      "ccer": 5534,
      "croch": 5535,
      "ctures": 5536,
      "dan": 5537,
      "dau": 5538,
      "dier": 5539,
      "dic": 5540,
      "dron": 5541,
      "day": 5542,
      "edo": 5543,
      "emment": 5544,
      "fes": 5545,
      "fine": 5546,
      "faus": 5547,
      "flèche": 5548,
      "gy": 5549,
      "git": 5550,
      "gés": 5551,
      "gig": 5552,
      "ht": 5553,
      "hy": 5554,
      "hen": 5555,
      "hus": 5556,
      "hington": 5557,
      "ken": 5558,
      "line": 5559,
      "lieux": 5560,
      "lienne": 5561,
      "mans": 5562,
      "mour": 5563,
      "miss": 5564,
      "mecs": 5565,
      "mignon": 5566,
      "naire": 5567,
      "ode": 5568,
      "oin": 5569,
      "pand": 5570,
      "pieu": 5571,
      "puits": 5572,
      "spe": 5573,
      "sque": 5574,
      "sain": 5575,
      "sph": 5576,
      "spi": 5577,
      "sym": 5578,
      "sence": 5579,
      "tit": 5580,
      "tass": 5581,
      "tiste": 5582,
      "uor": 5583,
      "ulé": 5584,
      "vig": 5585,
      "ving": 5586,
      "vues": 5587,
      "vation": 5588,
      "éri": 5589,
      "élève": 5590,
      "éner": 5591,
      "élabor": 5592,
      "évit": 5593,
      "ême": 5594,
      "êcher": 5595,
      "del": 5596,
      "anne": 5597,
      "annon": 5598,
      "années": 5599,
      "envol": 5600,
      "encad": 5601,
      "ond": 5602,
      "hos": 5603,
      "homa": 5604,
      "rembour": 5605,
      "quage": 5606,
      "avance": 5607,
      "avane": 5608,
      "surdi": 5609,
      "lak": 5610,
      "latin": 5611,
      "lahoma": 5612,
      "inette": 5613,
      "incro": 5614,
      "invisible": 5615,
      "ilant": 5616,
      "illages": 5617,
      "selle": 5618,
      "ornement": 5619,
      "ornements": 5620,
      "trie": 5621,
      "trous": 5622,
      "trême": 5623,
      "assembl": 5624,
      "tile": 5625,
      "time": 5626,
      "rolienne": 5627,
      "blé": 5628,
      "ride": 5629,
      "perplexe": 5630,
      "partant": 5631,
      "parvient": 5632,
      "joues": 5633,
      "lessive": 5634,
      "ains": 5635,
      "atter": 5636,
      "marqué": 5637,
      "usten": 5638,
      "noms": 5639,
      "assiste": 5640,
      "porc": 5641,
      "ota": 5642,
      "prun": 5643,
      "ancer": 5644,
      "coun": 5645,
      "coche": 5646,
      "plut": 5647,
      "sacoche": 5648,
      "autob": 5649,
      "tapent": 5650,
      "regardé": 5651,
      "toque": 5652,
      "bouton": 5653,
      "enfilant": 5654,
      "devanture": 5655,
      "poig": 5656,
      "poses": 5657,
      "power": 5658,
      "courtes": 5659,
      "courbe": 5660,
      "couchés": 5661,
      "bring": 5662,
      "illis": 5663,
      "illante": 5664,
      "tesse": 5665,
      "bel": 5666,
      "maille": 5667,
      "maig": 5668,
      "cela": 5669,
      "celles": 5670,
      "cemment": 5671,
      "genre": 5672,
      "los": 5673,
      "déco": 5674,
      "déta": 5675,
      "déball": 5676,
      "démé": 5677,
      "déci": 5678,
      "démo": 5679,
      "délic": 5680,
      "décombres": 5681,
      "iseur": 5682,
      "soccer": 5683,
      "ication": 5684,
      "traineau": 5685,
      "faits": 5686,
      "termine": 5687,
      "meille": 5688,
      "vile": 5689,
      "vivant": 5690,
      "profond": 5691,
      "plaine": 5692,
      "plaquant": 5693,
      "plateaux": 5694,
      "plaquage": 5695,
      "rait": 5696,
      "rafraî": 5697,
      "bale": 5698,
      "bagar": 5699,
      "baigne": 5700,
      "voiles": 5701,
      "culaire": 5702,
      "session": 5703,
      "personnel": 5704,
      "bétail": 5705,
      "monté": 5706,
      "doit": 5707,
      "dogs": 5708,
      "fres": 5709,
      "converse": 5710,
      "barils": 5711,
      "derman": 5712,
      "dernière": 5713,
      "fossé": 5714,
      "pleurer": 5715,
      "puisse": 5716,
      "trotte": 5717,
      "expri": 5718,
      "extrême": 5719,
      "tiquement": 5720,
      "réag": 5721,
      "rétro": 5722,
      "récemment": 5723,
      "footing": 5724,
      "clou": 5725,
      "forment": 5726,
      "former": 5727,
      "post": 5728,
      "verser": 5729,
      "act": 5730,
      "tressés": 5731,
      "obtenir": 5732,
      "obama": 5733,
      "respec": 5734,
      "respir": 5735,
      "boucle": 5736,
      "boucles": 5737,
      "haw": 5738,
      "haies": 5739,
      "paon": 5740,
      "pala": 5741,
      "diz": 5742,
      "quatuor": 5743,
      "servic": 5744,
      "cornes": 5745,
      "corniche": 5746,
      "lières": 5747,
      "guitaristes": 5748,
      "piques": 5749,
      "trace": 5750,
      "cimet": 5751,
      "civile": 5752,
      "bascu": 5753,
      "truc": 5754,
      "bucks": 5755,
      "passé": 5756,
      "moine": 5757,
      "caric": 5758,
      "caravane": 5759,
      "bonhomme": 5760,
      "canon": 5761,
      "canin": 5762,
      "canettes": 5763,
      "remue": 5764,
      "nuée": 5765,
      "jeté": 5766,
      "jettent": 5767,
      "grises": 5768,
      "prépara": 5769,
      "side": 5770,
      "discot": 5771,
      "dispon": 5772,
      "distance": 5773,
      "disney": 5774,
      "chargent": 5775,
      "champagne": 5776,
      "aime": 5777,
      "cycla": 5778,
      "adversa": 5779,
      "torche": 5780,
      "torches": 5781,
      "tortue": 5782,
      "contrebasse": 5783,
      "talents": 5784,
      "lente": 5785,
      "skateboards": 5786,
      "trouvant": 5787,
      "embal": 5788,
      "emball": 5789,
      "emprun": 5790,
      "lacets": 5791,
      "frappent": 5792,
      "parachut": 5793,
      "structures": 5794,
      "dorés": 5795,
      "dorées": 5796,
      "pétales": 5797,
      "ifs": 5798,
      "portée": 5799,
      "touristique": 5800,
      "nageuses": 5801,
      "enneigées": 5802,
      "ruines": 5803,
      "ruade": 5804,
      "besoin": 5805,
      "soupe": 5806,
      "pouces": 5807,
      "banquette": 5808,
      "morte": 5809,
      "stands": 5810,
      "flambo": 5811,
      "mouillés": 5812,
      "pêcheurs": 5813,
      "sépar": 5814,
      "achats": 5815,
      "pince": 5816,
      "participer": 5817,
      "piles": 5818,
      "cafétéri": 5819,
      "numéros": 5820,
      "poussettes": 5821,
      "tyrolienne": 5822,
      "capit": 5823,
      "drome": 5824,
      "nike": 5825,
      "géantes": 5826,
      "transparent": 5827,
      "snowboardeurs": 5828,
      "stationné": 5829,
      "tempête": 5830,
      "amish": 5831,
      "lingerie": 5832,
      "caméras": 5833,
      "violoniste": 5834,
      "cliente": 5835,
      "ombrelles": 5836,
      "gonfle": 5837,
      "sculpte": 5838,
      "sculpteur": 5839,
      "rangées": 5840,
      "microscopes": 5841,
      "quantité": 5842,
      "arrêtant": 5843,
      "arrêter": 5844,
      "arrêtée": 5845,
      "rouleau": 5846,
      "crev": 5847,
      "bandeaux": 5848,
      "éclabousse": 5849,
      "kayakiste": 5850,
      "conduire": 5851,
      "professionnelles": 5852,
      "bandés": 5853,
      "câlins": 5854,
      "frotte": 5855,
      "engage": 5856,
      "engins": 5857,
      "promener": 5858,
      "marathonienne": 5859,
      "chats": 5860,
      "endormie": 5861,
      "protec": 5862,
      "projetant": 5863,
      "projetée": 5864,
      "superbe": 5865,
      "représentation": 5866,
      "créant": 5867,
      "création": 5868,
      "harpe": 5869,
      "installent": 5870,
      "installés": 5871,
      "souffler": 5872,
      "indiquant": 5873,
      "apprécie": 5874,
      "paysan": 5875,
      "douze": 5876,
      "fourneaux": 5877,
      "fourchette": 5878,
      "artistiques": 5879,
      "céréales": 5880,
      "museau": 5881,
      "muselés": 5882,
      "ligue": 5883,
      "nouilles": 5884,
      "boxant": 5885,
      "boxeur": 5886,
      "saleté": 5887,
      "pingou": 5888,
      "approchent": 5889,
      "produire": 5890,
      "hôtesse": 5891,
      "grilla": 5892,
      "suivre": 5893,
      "kimonos": 5894,
      "dentaire": 5895,
      "collec": 5896,
      "chaînes": 5897,
      "étages": 5898,
      "coiffé": 5899,
      "récupère": 5900,
      "mension": 5901,
      "stitu": 5902,
      "show": 5903,
      "shoote": 5904,
      "shooter": 5905,
      "surveillant": 5906,
      "crache": 5907,
      "moutarde": 5908,
      "chevauchent": 5909,
      "photographie": 5910,
      "photographient": 5911,
      "aérosol": 5912,
      "arrivant": 5913,
      "arrières": 5914,
      "tabourets": 5915,
      "drôles": 5916,
      "déplacer": 5917,
      "applaudissant": 5918,
      "japonaise": 5919,
      "adossée": 5920,
      "échappe": 5921,
      "ouverture": 5922,
      "fusils": 5923,
      "empêcher": 5924,
      "quittent": 5925,
      "malheureux": 5926,
      "trompet": 5927,
      "bassine": 5928,
      "tranches": 5929,
      "protest": 5930,
      "dinde": 5931,
      "oklahoma": 5932,
      "pointes": 5933,
      "accrochées": 5934,
      "banderoles": 5935,
      "mâcher": 5936,
      "smashe": 5937,
      "balancer": 5938,
      "silhouettes": 5939,
      "hambur": 5940,
      "admirent": 5941,
      "assortiment": 5942,
      "assorties": 5943,
      "religieux": 5944,
      "bronze": 5945,
      "exécute": 5946,
      "expériment": 5947,
      "fortune": 5948,
      "auditoire": 5949,
      "jaillir": 5950,
      "jaillissant": 5951,
      "campeurs": 5952,
      "adorable": 5953,
      "université": 5954,
      "interagit": 5955,
      "billet": 5956,
      "intense": 5957,
      "désord": 5958,
      "vitrée": 5959,
      "excité": 5960,
      "pistolets": 5961,
      "mixage": 5962,
      "intéressant": 5963,
      "kitesurfeur": 5964,
      "green": 5965,
      "mèches": 5966,
      "mètre": 5967,
      "restant": 5968,
      "rester": 5969,
      "arroseur": 5970,
      "choisissant": 5971,
      "entassées": 5972,
      "médiéva": 5973,
      "caniches": 5974,
      "essuyant": 5975,
      "surélevé": 5976,
      "ascense": 5977,
      "marqueur": 5978,
      "hippo": 5979,
      "fraîchement": 5980,
      "aqua": 5981,
      "flex": 5982,
      "encombré": 5983,
      "indig": 5984,
      "lumineuse": 5985,
      "tropical": 5986,
      "reniflant": 5987,
      "incliné": 5988,
      "pulvérise": 5989,
      "ajustant": 5990,
      "seni": 5991,
      "brassards": 5992,
      "subway": 5993,
      "friandises": 5994,
      "smashant": 5995,
      "similaires": 5996,
      "trempé": 5997,
      "masculine": 5998,
      "tricoté": 5999,
      "empilées": 6000,
      "parallèles": 6001,
      "couture": 6002,
      "hanches": 6003,
      "karting": 6004,
      "stores": 6005,
      "chiffon": 6006,
      "toilettes": 6007,
      "déambulateur": 6008,
      "dominos": 6009,
      "exhibe": 6010,
      "glacières": 6011,
      "interview": 6012,
      "encourageant": 6013,
      "steaks": 6014,
      "mauvaises": 6015,
      "dalles": 6016,
      "récré": 6017,
      "sprinte": 6018,
      "aventure": 6019,
      "inconnue": 6020,
      "maître": 6021,
      "défend": 6022,
      "dégus": 6023,
      "cahier": 6024,
      "clarinette": 6025,
      "caressant": 6026,
      "prélassant": 6027,
      "nettoyage": 6028,
      "hispanique": 6029,
      "titude": 6030,
      "washington": 6031,
      "échantillon": 6032,
      "rocailleux": 6033,
      "marionnette": 6034,
      "démarrer": 6035,
      "cascades": 6036,
      "franchit": 6037,
      "débarrasse": 6038,
      "effort": 6039,
      "bermuda": 6040,
      "starbucks": 6041,
      "sprinklers": 6042,
      "inférieure": 6043,
      "leggings": 6044,
      "antiémeute": 6045,
      "issade": 6046,
      "labrador": 6047,
      "répétant": 6048,
      "sifflet": 6049,
      "coloriage": 6050,
      "trombone": 6051,
      "impatiemment": 6052,
      "rythme": 6053,
      "caucasien": 6054,
      "handicap": 6055,
      "kickboxing": 6056,
      "dauph": 6057,
      "fausses": 6058,
      "husk": 6059,
      "speedo": 6060,
      "spiderman": 6061,
      "symbo": 6062,
      "éviter": 6063,
      "annonce": 6064,
      "surdimension": 6065,
      "incroy": 6066,
      "plutôt": 6067,
      "autobus": 6068,
      "maigre": 6069,
      "services": 6070,
      "cimetière": 6071,
      "discothèque": 6072,
      "disponibles": 6073,
      "adversaires": 6074,
      "flamboyant": 6075,
      "cafétéria": 6076,
      "médiévale": 6077,
      "50": 6078,
      "agr": 6079,
      "ace": 6080,
      "aiss": 6081,
      "aient": 6082,
      "aison": 6083,
      "abat": 6084,
      "ables": 6085,
      "atri": 6086,
      "bant": 6087,
      "bis": 6088,
      "big": 6089,
      "bitu": 6090,
      "bassiste": 6091,
      "cée": 6092,
      "crue": 6093,
      "cure": 6094,
      "caux": 6095,
      "cros": 6096,
      "cœurs": 6097,
      "dar": 6098,
      "dage": 6099,
      "dalle": 6100,
      "ed": 6101,
      "euse": 6102,
      "fis": 6103,
      "fav": 6104,
      "fit": 6105,
      "frou": 6106,
      "flo": 6107,
      "got": 6108,
      "gay": 6109,
      "hon": 6110,
      "hir": 6111,
      "house": 6112,
      "hét": 6113,
      "ive": 6114,
      "idi": 6115,
      "iquet": 6116,
      "iquant": 6117,
      "jon": 6118,
      "ko": 6119,
      "mend": 6120,
      "mique": 6121,
      "mule": 6122,
      "mères": 6123,
      "nues": 6124,
      "nation": 6125,
      "nante": 6126,
      "natte": 6127,
      "oh": 6128,
      "olive": 6129,
      "pire": 6130,
      "prie": 6131,
      "pong": 6132,
      "rè": 6133,
      "rin": 6134,
      "rend": 6135,
      "sla": 6136,
      "sit": 6137,
      "ssa": 6138,
      "spa": 6139,
      "siles": 6140,
      "tw": 6141,
      "test": 6142,
      "tball": 6143,
      "ttent": 6144,
      "tang": 6145,
      "ulaire": 6146,
      "utie": 6147,
      "vois": 6148,
      "vage": 6149,
      "wo": 6150,
      "won": 6151,
      "water": 6152,
      "xant": 6153,
      "ycles": 6154,
      "yama": 6155,
      "âché": 6156,
      "èse": 6157,
      "émor": 6158,
      "éval": 6159,
      "élas": 6160,
      "ébour": 6161,
      "émiss": 6162,
      "ît": 6163,
      "ung": 6164,
      "dev": 6165,
      "demand": 6166,
      "deere": 6167,
      "anan": 6168,
      "ander": 6169,
      "annique": 6170,
      "enue": 6171,
      "enai": 6172,
      "enlac": 6173,
      "enlevé": 6174,
      "enroulé": 6175,
      "enclos": 6176,
      "espè": 6177,
      "essence": 6178,
      "ouille": 6179,
      "onnes": 6180,
      "arm": 6181,
      "arch": 6182,
      "arra": 6183,
      "arbi": 6184,
      "arbor": 6185,
      "archet": 6186,
      "isiers": 6187,
      "issage": 6188,
      "iserie": 6189,
      "chal": 6190,
      "chiste": 6191,
      "chim": 6192,
      "chenai": 6193,
      "ern": 6194,
      "ero": 6195,
      "erts": 6196,
      "reli": 6197,
      "ention": 6198,
      "quas": 6199,
      "quins": 6200,
      "quatri": 6201,
      "tements": 6202,
      "teck": 6203,
      "lay": 6204,
      "lama": 6205,
      "lamb": 6206,
      "laissant": 6207,
      "latine": 6208,
      "design": 6209,
      "inon": 6210,
      "inant": 6211,
      "insol": 6212,
      "invités": 6213,
      "information": 6214,
      "ecte": 6215,
      "sea": 6216,
      "sexy": 6217,
      "orage": 6218,
      "ornée": 6219,
      "try": 6220,
      "triant": 6221,
      "ast": 6222,
      "assemble": 6223,
      "irl": 6224,
      "ites": 6225,
      "gelé": 6226,
      "gelée": 6227,
      "garden": 6228,
      "alu": 6229,
      "alla": 6230,
      "albu": 6231,
      "chevé": 6232,
      "chewing": 6233,
      "tiges": 6234,
      "tiens": 6235,
      "tiare": 6236,
      "peine": 6237,
      "peintes": 6238,
      "roi": 6239,
      "uels": 6240,
      "blue": 6241,
      "riole": 6242,
      "perd": 6243,
      "peron": 6244,
      "perçant": 6245,
      "parten": 6246,
      "assie": 6247,
      "lesquel": 6248,
      "ainage": 6249,
      "ato": 6250,
      "attir": 6251,
      "marelle": 6252,
      "marcel": 6253,
      "ieusement": 6254,
      "ustré": 6255,
      "nolo": 6256,
      "notre": 6257,
      "porama": 6258,
      "portail": 6259,
      "prestation": 6260,
      "coq": 6261,
      "cote": 6262,
      "cook": 6263,
      "plâtre": 6264,
      "sablon": 6265,
      "auté": 6266,
      "taplane": 6267,
      "ness": 6268,
      "toy": 6269,
      "tomate": 6270,
      "bouts": 6271,
      "boutons": 6272,
      "amour": 6273,
      "amoure": 6274,
      "pole": 6275,
      "poir": 6276,
      "poches": 6277,
      "fillette": 6278,
      "couronnes": 6279,
      "coude": 6280,
      "couchant": 6281,
      "brent": 6282,
      "brille": 6283,
      "brise": 6284,
      "brairie": 6285,
      "illi": 6286,
      "beauté": 6287,
      "sham": 6288,
      "longe": 6289,
      "maçon": 6290,
      "maire": 6291,
      "pourchasse": 6292,
      "cef": 6293,
      "ceux": 6294,
      "low": 6295,
      "loge": 6296,
      "détient": 6297,
      "déballe": 6298,
      "dépose": 6299,
      "déambulant": 6300,
      "débla": 6301,
      "décapot": 6302,
      "soin": 6303,
      "solo": 6304,
      "sombr": 6305,
      "vel": 6306,
      "veut": 6307,
      "vegas": 6308,
      "travention": 6309,
      "ters": 6310,
      "igan": 6311,
      "melons": 6312,
      "propres": 6313,
      "plas": 6314,
      "play": 6315,
      "raff": 6316,
      "rateur": 6317,
      "voû": 6318,
      "voient": 6319,
      "cuve": 6320,
      "culent": 6321,
      "cuivre": 6322,
      "cuvette": 6323,
      "bosse": 6324,
      "book": 6325,
      "boston": 6326,
      "nthét": 6327,
      "jazz": 6328,
      "isante": 6329,
      "casion": 6330,
      "ballot": 6331,
      "endomm": 6332,
      "agitée": 6333,
      "béné": 6334,
      "béquilles": 6335,
      "cafe": 6336,
      "camar": 6337,
      "tuiles": 6338,
      "tutus": 6339,
      "doo": 6340,
      "doll": 6341,
      "domic": 6342,
      "consu": 6343,
      "convention": 6344,
      "congrès": 6345,
      "constitu": 6346,
      "contravention": 6347,
      "bardes": 6348,
      "léchant": 6349,
      "angeles": 6350,
      "lution": 6351,
      "fosse": 6352,
      "écrase": 6353,
      "puces": 6354,
      "puzz": 6355,
      "marcheurs": 6356,
      "lunette": 6357,
      "exposant": 6358,
      "expres": 6359,
      "extension": 6360,
      "skier": 6361,
      "réd": 6362,
      "réno": 6363,
      "réduit": 6364,
      "réfu": 6365,
      "réfri": 6366,
      "clous": 6367,
      "formé": 6368,
      "forger": 6369,
      "formée": 6370,
      "postérieur": 6371,
      "sauts": 6372,
      "versent": 6373,
      "acci": 6374,
      "accla": 6375,
      "actue": 6376,
      "obèse": 6377,
      "ènement": 6378,
      "tondant": 6379,
      "pense": 6380,
      "penchent": 6381,
      "penchés": 6382,
      "penchées": 6383,
      "sciant": 6384,
      "paper": 6385,
      "pations": 6386,
      "dies": 6387,
      "instant": 6388,
      "servent": 6389,
      "serrés": 6390,
      "cornets": 6391,
      "librairie": 6392,
      "phar": 6393,
      "phys": 6394,
      "occasion": 6395,
      "intitu": 6396,
      "bud": 6397,
      "bugg": 6398,
      "gesticule": 6399,
      "mos": 6400,
      "moque": 6401,
      "mosa": 6402,
      "motion": 6403,
      "moquette": 6404,
      "cara": 6405,
      "carré": 6406,
      "carrés": 6407,
      "caressent": 6408,
      "carriole": 6409,
      "marrons": 6410,
      "magique": 6411,
      "bongos": 6412,
      "télécommand": 6413,
      "saluer": 6414,
      "entrelac": 6415,
      "raman": 6416,
      "rameurs": 6417,
      "rambardes": 6418,
      "préfé": 6419,
      "mickey": 6420,
      "coupé": 6421,
      "siques": 6422,
      "disent": 6423,
      "disposés": 6424,
      "charbon": 6425,
      "charpente": 6426,
      "charger": 6427,
      "cerisiers": 6428,
      "poussé": 6429,
      "cygne": 6430,
      "pluvie": 6431,
      "spectaculaire": 6432,
      "afrique": 6433,
      "clas": 6434,
      "uniques": 6435,
      "unicef": 6436,
      "tirés": 6437,
      "trouble": 6438,
      "troupeau": 6439,
      "ciné": 6440,
      "collie": 6441,
      "gum": 6442,
      "guid": 6443,
      "guirl": 6444,
      "parachu": 6445,
      "montagneuse": 6446,
      "sumo": 6447,
      "sujet": 6448,
      "péré": 6449,
      "pétro": 6450,
      "publics": 6451,
      "compte": 6452,
      "accue": 6453,
      "accélé": 6454,
      "accél": 6455,
      "vages": 6456,
      "cente": 6457,
      "central": 6458,
      "apparemment": 6459,
      "pleines": 6460,
      "issante": 6461,
      "glissière": 6462,
      "treillis": 6463,
      "mets": 6464,
      "parties": 6465,
      "particul": 6466,
      "gueules": 6467,
      "commandes": 6468,
      "commémor": 6469,
      "commander": 6470,
      "venue": 6471,
      "figur": 6472,
      "éping": 6473,
      "joyeux": 6474,
      "oires": 6475,
      "vapor": 6476,
      "vatrice": 6477,
      "minaire": 6478,
      "minutie": 6479,
      "inachevé": 6480,
      "soulèvent": 6481,
      "poubelles": 6482,
      "pouvez": 6483,
      "bandes": 6484,
      "banni": 6485,
      "fermé": 6486,
      "mortes": 6487,
      "mordant": 6488,
      "morts": 6489,
      "carrefour": 6490,
      "masqué": 6491,
      "mascara": 6492,
      "balaye": 6493,
      "flag": 6494,
      "moue": 6495,
      "mouette": 6496,
      "touff": 6497,
      "paysa": 6498,
      "cesse": 6499,
      "cession": 6500,
      "cirer": 6501,
      "bordant": 6502,
      "séminaire": 6503,
      "pinces": 6504,
      "pinçant": 6505,
      "musicales": 6506,
      "arrange": 6507,
      "culture": 6508,
      "préser": 6509,
      "ensoleillé": 6510,
      "plongent": 6511,
      "vendus": 6512,
      "étui": 6513,
      "sommets": 6514,
      "pompes": 6515,
      "bétonnière": 6516,
      "goûte": 6517,
      "statues": 6518,
      "triangle": 6519,
      "tricote": 6520,
      "clairsem": 6521,
      "négl": 6522,
      "sauvages": 6523,
      "pelletant": 6524,
      "pellettent": 6525,
      "golfeur": 6526,
      "rapporte": 6527,
      "céens": 6528,
      "fouille": 6529,
      "géants": 6530,
      "attachent": 6531,
      "colère": 6532,
      "boarder": 6533,
      "automatiques": 6534,
      "montrer": 6535,
      "internet": 6536,
      "interdit": 6537,
      "légume": 6538,
      "peuvent": 6539,
      "bienvenue": 6540,
      "humaine": 6541,
      "antesque": 6542,
      "piétonne": 6543,
      "piétonnier": 6544,
      "stationnée": 6545,
      "caméraman": 6546,
      "décorative": 6547,
      "randonneuse": 6548,
      "gravir": 6549,
      "gonflé": 6550,
      "sculptant": 6551,
      "bousculent": 6552,
      "croisent": 6553,
      "traditionnelles": 6554,
      "embrassé": 6555,
      "bondissant": 6556,
      "osier": 6557,
      "échelles": 6558,
      "ongle": 6559,
      "élévatrice": 6560,
      "renaiss": 6561,
      "dessiné": 6562,
      "kayakistes": 6563,
      "conduisent": 6564,
      "direct": 6565,
      "étranges": 6566,
      "cravates": 6567,
      "glacé": 6568,
      "primaire": 6569,
      "chaton": 6570,
      "électricien": 6571,
      "chinoise": 6572,
      "tourniquet": 6573,
      "endort": 6574,
      "endormis": 6575,
      "palissade": 6576,
      "voirs": 6577,
      "installé": 6578,
      "opposées": 6579,
      "occupées": 6580,
      "occupations": 6581,
      "pirates": 6582,
      "santé": 6583,
      "tunique": 6584,
      "commerç": 6585,
      "commerçant": 6586,
      "sauveteurs": 6587,
      "protections": 6588,
      "broussa": 6589,
      "énormes": 6590,
      "dressée": 6591,
      "jongler": 6592,
      "muselé": 6593,
      "muselières": 6594,
      "appuyées": 6595,
      "light": 6596,
      "boxer": 6597,
      "boxeurs": 6598,
      "applique": 6599,
      "gamins": 6600,
      "offre": 6601,
      "balcons": 6602,
      "traînent": 6603,
      "suivie": 6604,
      "nouveaux": 6605,
      "paintball": 6606,
      "identique": 6607,
      "contrô": 6608,
      "patineuse": 6609,
      "stance": 6610,
      "saisissant": 6611,
      "joyeuses": 6612,
      "crabe": 6613,
      "méda": 6614,
      "compagnon": 6615,
      "drainage": 6616,
      "voyagent": 6617,
      "acrobatiques": 6618,
      "farine": 6619,
      "trottinettes": 6620,
      "réfléchit": 6621,
      "japonaises": 6622,
      "crier": 6623,
      "tétine": 6624,
      "réser": 6625,
      "recevoir": 6626,
      "origin": 6627,
      "croisière": 6628,
      "pneumatiques": 6629,
      "terminant": 6630,
      "chacune": 6631,
      "kitchenai": 6632,
      "larges": 6633,
      "appartenant": 6634,
      "apparence": 6635,
      "appartements": 6636,
      "situation": 6637,
      "allumée": 6638,
      "bloqué": 6639,
      "protestation": 6640,
      "frontale": 6641,
      "aérien": 6642,
      "pick": 6643,
      "coiffeuse": 6644,
      "pointu": 6645,
      "poilu": 6646,
      "lutteur": 6647,
      "période": 6648,
      "féminine": 6649,
      "dunes": 6650,
      "exerçant": 6651,
      "accrochent": 6652,
      "accrochée": 6653,
      "voyageant": 6654,
      "voyageurs": 6655,
      "contin": 6656,
      "villageois": 6657,
      "atterrissage": 6658,
      "taxis": 6659,
      "voiliers": 6660,
      "scientifiques": 6661,
      "tournoyer": 6662,
      "kilts": 6663,
      "projection": 6664,
      "pilotant": 6665,
      "fixes": 6666,
      "enveloppée": 6667,
      "photographiée": 6668,
      "catch": 6669,
      "synthét": 6670,
      "accompagnée": 6671,
      "patiente": 6672,
      "disputant": 6673,
      "menuisier": 6674,
      "levées": 6675,
      "baguette": 6676,
      "jaillit": 6677,
      "jolies": 6678,
      "hotdogs": 6679,
      "reflets": 6680,
      "technolo": 6681,
      "récolte": 6682,
      "récoltes": 6683,
      "divertir": 6684,
      "divertit": 6685,
      "mixte": 6686,
      "aboyant": 6687,
      "diable": 6688,
      "diaporama": 6689,
      "mètres": 6690,
      "nœuds": 6691,
      "restent": 6692,
      "sirot": 6693,
      "sirène": 6694,
      "choisissent": 6695,
      "explique": 6696,
      "citrons": 6697,
      "retiré": 6698,
      "chèvres": 6699,
      "perruques": 6700,
      "découpé": 6701,
      "diplômé": 6702,
      "hippique": 6703,
      "savourant": 6704,
      "textos": 6705,
      "cueille": 6706,
      "viseur": 6707,
      "relaxant": 6708,
      "percute": 6709,
      "percuter": 6710,
      "enfonce": 6711,
      "enfonçant": 6712,
      "poêles": 6713,
      "lanterne": 6714,
      "rondins": 6715,
      "pédalo": 6716,
      "défenseurs": 6717,
      "ajuster": 6718,
      "fast": 6719,
      "étagères": 6720,
      "illuminé": 6721,
      "explosion": 6722,
      "impressionnant": 6723,
      "substance": 6724,
      "célèbrent": 6725,
      "combattants": 6726,
      "artificiel": 6727,
      "smokings": 6728,
      "brochure": 6729,
      "faucon": 6730,
      "fausse": 6731,
      "gouver": 6732,
      "goudron": 6733,
      "spéc": 6734,
      "souterr": 6735,
      "slide": 6736,
      "émerve": 6737,
      "grammes": 6738,
      "déployées": 6739,
      "confortable": 6740,
      "canadien": 6741,
      "célébrant": 6742,
      "hawaïen": 6743,
      "amarré": 6744,
      "coutur": 6745,
      "ficelle": 6746,
      "épice": 6747,
      "échauffant": 6748,
      "réaliser": 6749,
      "glacière": 6750,
      "enregistrement": 6751,
      "concurrents": 6752,
      "mûr": 6753,
      "oeuvres": 6754,
      "ombragée": 6755,
      "punk": 6756,
      "punch": 6757,
      "ratisse": 6758,
      "rebondir": 6759,
      "cockpit": 6760,
      "boucherie": 6761,
      "matinée": 6762,
      "autochtone": 6763,
      "autochtones": 6764,
      "secouristes": 6765,
      "chirurgicale": 6766,
      "hurlant": 6767,
      "tarte": 6768,
      "zébré": 6769,
      "inhabituelle": 6770,
      "assurer": 6771,
      "verticale": 6772,
      "america": 6773,
      "britannique": 6774,
      "majest": 6775,
      "déjeunent": 6776,
      "placées": 6777,
      "musulmans": 6778,
      "crêpe": 6779,
      "étincelles": 6780,
      "pagaye": 6781,
      "élégante": 6782,
      "européen": 6783,
      "pâtisseries": 6784,
      "agriculteur": 6785,
      "éparpillés": 6786,
      "propriétaire": 6787,
      "bavardent": 6788,
      "cireur": 6789,
      "cagoule": 6790,
      "lycéens": 6791,
      "lourd": 6792,
      "écolière": 6793,
      "neiger": 6794,
      "salade": 6795,
      "brésil": 6796,
      "français": 6797,
      "expert": 6798,
      "patrouille": 6799,
      "vieillards": 6800,
      "charcuterie": 6801,
      "adresse": 6802,
      "panoramique": 6803,
      "accessoires": 6804,
      "cristal": 6805,
      "difficile": 6806,
      "immobil": 6807,
      "trébuche": 6808,
      "complètement": 6809,
      "luxuriante": 6810,
      "spécial": 6811,
      "agréable": 6812,
      "crochet": 6813,
      "fesses": 6814,
      "gigantesque": 6815,
      "henné": 6816,
      "pieuvre": 6817,
      "squelette": 6818,
      "saint": 6819,
      "vingt": 6820,
      "deltaplane": 6821,
      "rideau": 6822,
      "atterri": 6823,
      "ustensiles": 6824,
      "country": 6825,
      "bringé": 6826,
      "décoller": 6827,
      "rafraîch": 6828,
      "palais": 6829,
      "dizaines": 6830,
      "caricature": 6831,
      "emballage": 6832,
      "trompettiste": 6833,
      "hamburgers": 6834,
      "ascenseur": 6835,
      "hippodrome": 6836,
      "seniors": 6837,
      "handicapée": 6838,
      "dauphin": 6839,
      "incroyable": 6840,
      "crosses": 6841,
      "fitness": 6842,
      "hirsu": 6843,
      "slalo": 6844,
      "twister": 6845,
      "yamaha": 6846,
      "demandant": 6847,
      "ananas": 6848,
      "archite": 6849,
      "arbitres": 6850,
      "arborant": 6851,
      "relié": 6852,
      "quatrième": 6853,
      "lambeaux": 6854,
      "album": 6855,
      "assied": 6856,
      "amoureux": 6857,
      "décapotable": 6858,
      "domicile": 6859,
      "puzzle": 6860,
      "réfrigé": 6861,
      "forgeron": 6862,
      "acciden": 6863,
      "actuellement": 6864,
      "physique": 6865,
      "intitulé": 6866,
      "guidon": 6867,
      "parachutes": 6868,
      "accélère": 6869,
      "particulier": 6870,
      "bannières": 6871,
      "renaissance": 6872,
      "kitchenaid": 6873,
      "synthétiseur": 6874,
      "08": 6875,
      "11": 6876,
      "14": 6877,
      "24": 6878,
      "aur": 6879,
      "ala": 6880,
      "abon": 6881,
      "atifs": 6882,
      "aok": 6883,
      "bec": 6884,
      "bit": 6885,
      "bins": 6886,
      "crou": 6887,
      "cram": 6888,
      "cages": 6889,
      "ciale": 6890,
      "dang": 6891,
      "dieu": 6892,
      "dram": 6893,
      "dons": 6894,
      "dgers": 6895,
      "els": 6896,
      "fû": 6897,
      "fun": 6898,
      "fire": 6899,
      "fièrement": 6900,
      "gnes": 6901,
      "gère": 6902,
      "gate": 6903,
      "gères": 6904,
      "gnote": 6905,
      "hone": 6906,
      "io": 6907,
      "ip": 6908,
      "iz": 6909,
      "iqu": 6910,
      "igr": 6911,
      "ifor": 6912,
      "imes": 6913,
      "iateur": 6914,
      "jer": 6915,
      "jim": 6916,
      "kes": 6917,
      "ld": 6918,
      "lois": 6919,
      "liste": 6920,
      "lâché": 6921,
      "muni": 6922,
      "mouse": 6923,
      "mènent": 6924,
      "nin": 6925,
      "nal": 6926,
      "nam": 6927,
      "nap": 6928,
      "néc": 6929,
      "ninten": 6930,
      "nicien": 6931,
      "namique": 6932,
      "ox": 6933,
      "oy": 6934,
      "omé": 6935,
      "oll": 6936,
      "oing": 6937,
      "oient": 6938,
      "ohi": 6939,
      "opin": 6940,
      "pse": 6941,
      "pill": 6942,
      "pac": 6943,
      "pages": 6944,
      "pons": 6945,
      "râ": 6946,
      "ran": 6947,
      "rain": 6948,
      "rène": 6949,
      "rentre": 6950,
      "râteau": 6951,
      "sè": 6952,
      "str": 6953,
      "sat": 6954,
      "sées": 6955,
      "stro": 6956,
      "séqu": 6957,
      "space": 6958,
      "spir": 6959,
      "stét": 6960,
      "tho": 6961,
      "til": 6962,
      "tard": 6963,
      "tha": 6964,
      "tart": 6965,
      "tège": 6966,
      "ute": 6967,
      "uil": 6968,
      "uve": 6969,
      "van": 6970,
      "vins": 6971,
      "veaux": 6972,
      "vare": 6973,
      "wc": 6974,
      "wor": 6975,
      "whe": 6976,
      "wok": 6977,
      "ycl": 6978,
      "çu": 6979,
      "èles": 6980,
      "èze": 6981,
      "ément": 6982,
      "éten": 6983,
      "éra": 6984,
      "éplu": 6985,
      "éné": 6986,
      "érique": 6987,
      "émeute": 6988,
      "éperon": 6989,
      "émotion": 6990,
      "ïque": 6991,
      "una": 6992,
      "unisson": 6993,
      "demment": 6994,
      "devoirs": 6995,
      "any": 6996,
      "enc": 6997,
      "enu": 6998,
      "ences": 6999,
      "envole": 7000,
      "enchaî": 7001,
      "espa": 7002,
      "estra": 7003,
      "essi": 7004,
      "espagne": 7005,
      "ouvant": 7006,
      "onon": 7007,
      "lei": 7008,
      "ley": 7009,
      "lego": 7010,
      "lecture": 7011,
      "lecteur": 7012,
      "mmer": 7013,
      "urre": 7014,
      "ars": 7015,
      "armur": 7016,
      "arché": 7017,
      "armés": 7018,
      "iso": 7019,
      "isla": 7020,
      "ision": 7021,
      "istre": 7022,
      "island": 7023,
      "chan": 7024,
      "chons": 7025,
      "chœur": 7026,
      "eram": 7027,
      "ergé": 7028,
      "eting": 7029,
      "etnam": 7030,
      "holl": 7031,
      "repl": 7032,
      "repos": 7033,
      "rejo": 7034,
      "recule": 7035,
      "recherche": 7036,
      "revenant": 7037,
      "rebondit": 7038,
      "rect": 7039,
      "reintes": 7040,
      "recouvertes": 7041,
      "rectement": 7042,
      "reconstitu": 7043,
      "aube": 7044,
      "auquel": 7045,
      "audi": 7046,
      "aubes": 7047,
      "audio": 7048,
      "entoure": 7049,
      "quées": 7050,
      "quais": 7051,
      "telle": 7052,
      "avir": 7053,
      "avert": 7054,
      "avancer": 7055,
      "aviateur": 7056,
      "survêtements": 7057,
      "survolant": 7058,
      "lame": 7059,
      "labour": 7060,
      "latex": 7061,
      "lamment": 7062,
      "intr": 7063,
      "informe": 7064,
      "sel": 7065,
      "seins": 7066,
      "ora": 7067,
      "orce": 7068,
      "orgue": 7069,
      "trient": 7070,
      "trapé": 7071,
      "astron": 7072,
      "assure": 7073,
      "itures": 7074,
      "ourdes": 7075,
      "gardes": 7076,
      "alé": 7077,
      "alli": 7078,
      "alignent": 7079,
      "algues": 7080,
      "altitude": 7081,
      "allow": 7082,
      "ticu": 7083,
      "tives": 7084,
      "tick": 7085,
      "rouillé": 7086,
      "roulée": 7087,
      "peur": 7088,
      "pelet": 7089,
      "peigne": 7090,
      "pelage": 7091,
      "rovi": 7092,
      "roll": 7093,
      "robuste": 7094,
      "blant": 7095,
      "blème": 7096,
      "rible": 7097,
      "rican": 7098,
      "ridic": 7099,
      "perman": 7100,
      "percer": 7101,
      "parois": 7102,
      "parcelle": 7103,
      "assoit": 7104,
      "assaison": 7105,
      "assoient": 7106,
      "illeuse": 7107,
      "ator": 7108,
      "attire": 7109,
      "attabl": 7110,
      "attrapé": 7111,
      "mare": 7112,
      "mark": 7113,
      "marit": 7114,
      "marie": 7115,
      "maria": 7116,
      "marteaux": 7117,
      "marais": 7118,
      "market": 7119,
      "usa": 7120,
      "nos": 7121,
      "nombres": 7122,
      "noeu": 7123,
      "assisent": 7124,
      "poraire": 7125,
      "porcs": 7126,
      "portière": 7127,
      "préci": 7128,
      "pressent": 7129,
      "pronon": 7130,
      "fac": 7131,
      "faci": 7132,
      "facteur": 7133,
      "coc": 7134,
      "coqu": 7135,
      "codi": 7136,
      "como": 7137,
      "colley": 7138,
      "duisante": 7139,
      "samour": 7140,
      "sauna": 7141,
      "taillés": 7142,
      "tabac": 7143,
      "nesol": 7144,
      "top": 7145,
      "tenus": 7146,
      "boutonnée": 7147,
      "enfu": 7148,
      "tér": 7149,
      "témo": 7150,
      "amic": 7151,
      "amph": 7152,
      "ampli": 7153,
      "pote": 7154,
      "poker": 7155,
      "pooing": 7156,
      "couronne": 7157,
      "coul": 7158,
      "couette": 7159,
      "couteaux": 7160,
      "cousant": 7161,
      "couss": 7162,
      "graines": 7163,
      "grains": 7164,
      "brasse": 7165,
      "brillent": 7166,
      "teste": 7167,
      "beag": 7168,
      "beurre": 7169,
      "apprendre": 7170,
      "lonné": 7171,
      "mala": 7172,
      "maje": 7173,
      "pourrait": 7174,
      "love": 7175,
      "loint": 7176,
      "locaux": 7177,
      "locomo": 7178,
      "dément": 7179,
      "déra": 7180,
      "dépan": 7181,
      "dépasse": 7182,
      "démê": 7183,
      "déroule": 7184,
      "dépasser": 7185,
      "dépri": 7186,
      "déroulent": 7187,
      "déchaî": 7188,
      "détourne": 7189,
      "défile": 7190,
      "décident": 7191,
      "démène": 7192,
      "détournant": 7193,
      "déformée": 7194,
      "déneiger": 7195,
      "sodas": 7196,
      "velu": 7197,
      "ications": 7198,
      "icots": 7199,
      "faites": 7200,
      "igh": 7201,
      "meur": 7202,
      "melle": 7203,
      "meeting": 7204,
      "vérand": 7205,
      "vivement": 7206,
      "viking": 7207,
      "vietnam": 7208,
      "profil": 7209,
      "propose": 7210,
      "prospec": 7211,
      "propan": 7212,
      "provision": 7213,
      "horn": 7214,
      "horloge": 7215,
      "plates": 7216,
      "plaisant": 7217,
      "plaques": 7218,
      "plaquent": 7219,
      "race": 7220,
      "racon": 7221,
      "raides": 7222,
      "baille": 7223,
      "baign": 7224,
      "baissant": 7225,
      "vote": 7226,
      "voles": 7227,
      "voyer": 7228,
      "culation": 7229,
      "culière": 7230,
      "boa": 7231,
      "bote": 7232,
      "bolo": 7233,
      "bosco": 7234,
      "iteur": 7235,
      "itement": 7236,
      "chages": 7237,
      "chapelet": 7238,
      "bâches": 7239,
      "jab": 7240,
      "planeur": 7241,
      "sembla": 7242,
      "castro": 7243,
      "ballots": 7244,
      "breu": 7245,
      "agil": 7246,
      "caill": 7247,
      "cacher": 7248,
      "cachent": 7249,
      "cadres": 7250,
      "caissière": 7251,
      "tuli": 7252,
      "dojo": 7253,
      "down": 7254,
      "fran": 7255,
      "frant": 7256,
      "franges": 7257,
      "frustré": 7258,
      "fréné": 7259,
      "conse": 7260,
      "conce": 7261,
      "conso": 7262,
      "conser": 7263,
      "coney": 7264,
      "concierge": 7265,
      "concession": 7266,
      "conçu": 7267,
      "dessert": 7268,
      "desserts": 7269,
      "barman": 7270,
      "barbote": 7271,
      "léz": 7272,
      "léger": 7273,
      "igemment": 7274,
      "angels": 7275,
      "folle": 7276,
      "écras": 7277,
      "plement": 7278,
      "pleins": 7279,
      "pleurant": 7280,
      "puma": 7281,
      "putt": 7282,
      "trottant": 7283,
      "exo": 7284,
      "extra": 7285,
      "exem": 7286,
      "mén": 7287,
      "mégap": 7288,
      "ske": 7289,
      "skim": 7290,
      "skater": 7291,
      "réchaud": 7292,
      "forte": 7293,
      "force": 7294,
      "formant": 7295,
      "pissen": 7296,
      "poster": 7297,
      "possession": 7298,
      "accorde": 7299,
      "accep": 7300,
      "chote": 7301,
      "neigeux": 7302,
      "hero": 7303,
      "oneige": 7304,
      "scien": 7305,
      "scint": 7306,
      "scru": 7307,
      "bouv": 7308,
      "boucl": 7309,
      "boutiques": 7310,
      "bouchée": 7311,
      "bouclé": 7312,
      "boudd": 7313,
      "patie": 7314,
      "patric": 7315,
      "patrio": 7316,
      "padd": 7317,
      "dix": 7318,
      "divan": 7319,
      "inspir": 7320,
      "vieillot": 7321,
      "servis": 7322,
      "serrée": 7323,
      "serrer": 7324,
      "serpill": 7325,
      "coré": 7326,
      "cortège": 7327,
      "correctement": 7328,
      "liesse": 7329,
      "limous": 7330,
      "phare": 7331,
      "pio": 7332,
      "pide": 7333,
      "piétin": 7334,
      "chevée": 7335,
      "camés": 7336,
      "cameram": 7337,
      "bases": 7338,
      "trucs": 7339,
      "message": 7340,
      "issés": 7341,
      "bordures": 7342,
      "habiller": 7343,
      "moi": 7344,
      "moire": 7345,
      "moines": 7346,
      "motoneige": 7347,
      "ingham": 7348,
      "cari": 7349,
      "carnet": 7350,
      "caract": 7351,
      "impro": 7352,
      "magiques": 7353,
      "magicien": 7354,
      "bongo": 7355,
      "équipage": 7356,
      "visé": 7357,
      "visée": 7358,
      "visitant": 7359,
      "canine": 7360,
      "chambres": 7361,
      "chamallow": 7362,
      "tagu": 7363,
      "rayant": 7364,
      "entrejambe": 7365,
      "muses": 7366,
      "muscles": 7367,
      "mustang": 7368,
      "musculation": 7369,
      "rames": 7370,
      "ramique": 7371,
      "rampant": 7372,
      "manque": 7373,
      "manie": 7374,
      "manuels": 7375,
      "battue": 7376,
      "nettes": 7377,
      "sif": 7378,
      "sible": 7379,
      "disper": 7380,
      "disques": 7381,
      "distrib": 7382,
      "charri": 7383,
      "chargée": 7384,
      "nourrissant": 7385,
      "dentiste": 7386,
      "chevalier": 7387,
      "cygnes": 7388,
      "lancée": 7389,
      "lancés": 7390,
      "talkie": 7391,
      "bidon": 7392,
      "lentille": 7393,
      "colorier": 7394,
      "lits": 7395,
      "promouvant": 7396,
      "tiroir": 7397,
      "troupe": 7398,
      "troupes": 7399,
      "feuillage": 7400,
      "feuillages": 7401,
      "califor": 7402,
      "escabeau": 7403,
      "danseur": 7404,
      "frappés": 7405,
      "suc": 7406,
      "suis": 7407,
      "supé": 7408,
      "suçant": 7409,
      "équestre": 7410,
      "peintures": 7411,
      "affec": 7412,
      "pélic": 7413,
      "publicitaires": 7414,
      "onneuse": 7415,
      "compéten": 7416,
      "company": 7417,
      "chanteurs": 7418,
      "accrocher": 7419,
      "remplir": 7420,
      "centaines": 7421,
      "féro": 7422,
      "glissent": 7423,
      "foncées": 7424,
      "drags": 7425,
      "particulière": 7426,
      "apprennent": 7427,
      "busines": 7428,
      "profiter": 7429,
      "communi": 7430,
      "communique": 7431,
      "tournesol": 7432,
      "juge": 7433,
      "judo": 7434,
      "jump": 7435,
      "reté": 7436,
      "retra": 7437,
      "retient": 7438,
      "blessée": 7439,
      "pasteur": 7440,
      "hel": 7441,
      "éprou": 7442,
      "papillons": 7443,
      "crus": 7444,
      "cruche": 7445,
      "crânes": 7446,
      "hips": 7447,
      "ultan": 7448,
      "joe": 7449,
      "joker": 7450,
      "valeur": 7451,
      "vaquent": 7452,
      "enneigés": 7453,
      "ordinaire": 7454,
      "ordinaires": 7455,
      "inale": 7456,
      "inable": 7457,
      "inachevée": 7458,
      "souche": 7459,
      "soudeur": 7460,
      "soudage": 7461,
      "rentrant": 7462,
      "poud": 7463,
      "flû": 7464,
      "flic": 7465,
      "flous": 7466,
      "flâne": 7467,
      "avantage": 7468,
      "balançoires": 7469,
      "machette": 7470,
      "bank": 7471,
      "fermée": 7472,
      "ferrovi": 7473,
      "carrelée": 7474,
      "balaient": 7475,
      "balayer": 7476,
      "frisée": 7477,
      "flamme": 7478,
      "mouche": 7479,
      "mouchoir": 7480,
      "cirant": 7481,
      "cirque": 7482,
      "grignote": 7483,
      "policière": 7484,
      "border": 7485,
      "séchant": 7486,
      "séjour": 7487,
      "séduisante": 7488,
      "effrayée": 7489,
      "effets": 7490,
      "piliers": 7491,
      "comique": 7492,
      "comprend": 7493,
      "comprenant": 7494,
      "arrangeant": 7495,
      "culti": 7496,
      "caden": 7497,
      "traces": 7498,
      "parka": 7499,
      "étudier": 7500,
      "surfent": 7501,
      "barbelés": 7502,
      "pompons": 7503,
      "capu": 7504,
      "capes": 7505,
      "présentant": 7506,
      "présentent": 7507,
      "gosse": 7508,
      "pavés": 7509,
      "pavillon": 7510,
      "pompe": 7511,
      "aderie": 7512,
      "clairière": 7513,
      "audition": 7514,
      "appuient": 7515,
      "sauce": 7516,
      "saumon": 7517,
      "journaliste": 7518,
      "rapport": 7519,
      "sécur": 7520,
      "céramique": 7521,
      "nid": 7522,
      "niveaux": 7523,
      "fouillant": 7524,
      "fougères": 7525,
      "géné": 7526,
      "géomé": 7527,
      "argentés": 7528,
      "attachant": 7529,
      "colis": 7530,
      "classeur": 7531,
      "botte": 7532,
      "autocollants": 7533,
      "étudient": 7534,
      "laveur": 7535,
      "intervenant": 7536,
      "observ": 7537,
      "observé": 7538,
      "suspen": 7539,
      "équilibré": 7540,
      "éclairées": 7541,
      "huttes": 7542,
      "humor": 7543,
      "examen": 7544,
      "longueur": 7545,
      "décorant": 7546,
      "décoratif": 7547,
      "berlin": 7548,
      "bergers": 7549,
      "turbans": 7550,
      "grave": 7551,
      "navette": 7552,
      "multiples": 7553,
      "sculpté": 7554,
      "croise": 7555,
      "crocs": 7556,
      "crocodi": 7557,
      "sandale": 7558,
      "bowl": 7559,
      "rangs": 7560,
      "motocyclette": 7561,
      "motocycl": 7562,
      "secs": 7563,
      "second": 7564,
      "vallonné": 7565,
      "monster": 7566,
      "matéri": 7567,
      "élément": 7568,
      "élégants": 7569,
      "avions": 7570,
      "positionne": 7571,
      "flotteurs": 7572,
      "flotteur": 7573,
      "éclabousser": 7574,
      "éclaboussée": 7575,
      "renvoyer": 7576,
      "rituelle": 7577,
      "orientaux": 7578,
      "orientales": 7579,
      "dessinent": 7580,
      "dessinées": 7581,
      "umeau": 7582,
      "conduite": 7583,
      "pelucheux": 7584,
      "chuchote": 7585,
      "chinato": 7586,
      "volante": 7587,
      "employée": 7588,
      "employées": 7589,
      "directement": 7590,
      "marathoniens": 7591,
      "urbains": 7592,
      "profondément": 7593,
      "barbie": 7594,
      "sortis": 7595,
      "patinant": 7596,
      "patinage": 7597,
      "pâques": 7598,
      "tournent": 7599,
      "recouverts": 7600,
      "projeté": 7601,
      "iffés": 7602,
      "palourdes": 7603,
      "piqueur": 7604,
      "représente": 7605,
      "miroirs": 7606,
      "fleuris": 7607,
      "haricots": 7608,
      "installer": 7609,
      "installées": 7610,
      "dirait": 7611,
      "déguiser": 7612,
      "suspendues": 7613,
      "opposée": 7614,
      "maquiller": 7615,
      "maquillées": 7616,
      "occupé": 7617,
      "occupée": 7618,
      "souffre": 7619,
      "soufflent": 7620,
      "tissage": 7621,
      "apprécier": 7622,
      "commerce": 7623,
      "commerciale": 7624,
      "fourre": 7625,
      "fourgon": 7626,
      "seuls": 7627,
      "branchages": 7628,
      "cavalière": 7629,
      "ambulance": 7630,
      "jongleur": 7631,
      "karaok": 7632,
      "alimentation": 7633,
      "chasser": 7634,
      "tricoter": 7635,
      "tricycles": 7636,
      "appliquant": 7637,
      "gamba": 7638,
      "textile": 7639,
      "façonne": 7640,
      "dînent": 7641,
      "kimono": 7642,
      "pains": 7643,
      "fléchettes": 7644,
      "fraise": 7645,
      "coiffer": 7646,
      "coiffée": 7647,
      "tournevis": 7648,
      "immergé": 7649,
      "menus": 7650,
      "ponce": 7651,
      "stème": 7652,
      "surveill": 7653,
      "saisir": 7654,
      "cowboys": 7655,
      "naviguent": 7656,
      "étreinte": 7657,
      "pratiquer": 7658,
      "affronter": 7659,
      "retournée": 7660,
      "méditant": 7661,
      "compagne": 7662,
      "impéri": 7663,
      "sari": 7664,
      "téléphoniques": 7665,
      "étrangers": 7666,
      "couloirs": 7667,
      "sportifs": 7668,
      "conféren": 7669,
      "minium": 7670,
      "nouvel": 7671,
      "nouvelles": 7672,
      "sinistre": 7673,
      "échiqu": 7674,
      "oureusement": 7675,
      "anciens": 7676,
      "tambours": 7677,
      "tambourin": 7678,
      "caddies": 7679,
      "pèse": 7680,
      "origines": 7681,
      "détendre": 7682,
      "bérets": 7683,
      "pneumatique": 7684,
      "récupéré": 7685,
      "récupérant": 7686,
      "empile": 7687,
      "empreintes": 7688,
      "quités": 7689,
      "printemps": 7690,
      "terminent": 7691,
      "affair": 7692,
      "bmw": 7693,
      "ffee": 7694,
      "kitty": 7695,
      "mallette": 7696,
      "wii": 7697,
      "plantés": 7698,
      "contractant": 7699,
      "allemands": 7700,
      "tranchée": 7701,
      "trapèze": 7702,
      "allumé": 7703,
      "allumer": 7704,
      "dindes": 7705,
      "histoire": 7706,
      "couvrent": 7707,
      "couvrir": 7708,
      "luttant": 7709,
      "écrivent": 7710,
      "cornemuses": 7711,
      "bijouterie": 7712,
      "verdoyantes": 7713,
      "burq": 7714,
      "burger": 7715,
      "frite": 7716,
      "évaux": 7717,
      "évènement": 7718,
      "pourchassent": 7719,
      "voyageur": 7720,
      "récipients": 7721,
      "bambous": 7722,
      "mâle": 7723,
      "smasher": 7724,
      "attrapent": 7725,
      "balancelle": 7726,
      "vérifier": 7727,
      "voilées": 7728,
      "chaudement": 7729,
      "artisanale": 7730,
      "temporaire": 7731,
      "poignées": 7732,
      "protégée": 7733,
      "enveloppe": 7734,
      "escrimeurs": 7735,
      "assorti": 7736,
      "assortis": 7737,
      "distribuant": 7738,
      "photographiés": 7739,
      "médicale": 7740,
      "animées": 7741,
      "lots": 7742,
      "loterie": 7743,
      "mités": 7744,
      "système": 7745,
      "simplement": 7746,
      "simultan": 7747,
      "uniquement": 7748,
      "inclinable": 7749,
      "bacs": 7750,
      "accompagne": 7751,
      "pataugent": 7752,
      "pataugeant": 7753,
      "savoureux": 7754,
      "menuiserie": 7755,
      "walk": 7756,
      "walkie": 7757,
      "étals": 7758,
      "délabrée": 7759,
      "joliment": 7760,
      "graphique": 7761,
      "interagissant": 7762,
      "imprimée": 7763,
      "half": 7764,
      "louche": 7765,
      "sangle": 7766,
      "thanne": 7767,
      "technicien": 7768,
      "tendues": 7769,
      "désordre": 7770,
      "vitrées": 7771,
      "caleçon": 7772,
      "excitant": 7773,
      "récoltent": 7774,
      "divertissant": 7775,
      "mixeur": 7776,
      "mannequins": 7777,
      "drible": 7778,
      "sirote": 7779,
      "écolier": 7780,
      "médiéval": 7781,
      "médiévaux": 7782,
      "retirer": 7783,
      "broad": 7784,
      "fabriqué": 7785,
      "découpés": 7786,
      "mexique": 7787,
      "concentrés": 7788,
      "diplôme": 7789,
      "guerrier": 7790,
      "pastèque": 7791,
      "renversée": 7792,
      "réfléchissantes": 7793,
      "espagnole": 7794,
      "cueillant": 7795,
      "drapée": 7796,
      "store": 7797,
      "aspergé": 7798,
      "enflammé": 7799,
      "poings": 7800,
      "athlétiques": 7801,
      "arrêtés": 7802,
      "casseroles": 7803,
      "inclinée": 7804,
      "abeille": 7805,
      "percussions": 7806,
      "brassière": 7807,
      "illuminée": 7808,
      "beignets": 7809,
      "extrémités": 7810,
      "embarcation": 7811,
      "brochettes": 7812,
      "cause": 7813,
      "cierges": 7814,
      "dynamique": 7815,
      "luxe": 7816,
      "massues": 7817,
      "émerge": 7818,
      "regroupées": 7819,
      "enterré": 7820,
      "index": 7821,
      "apparaît": 7822,
      "déployé": 7823,
      "canadiens": 7824,
      "masculin": 7825,
      "empilés": 7826,
      "supports": 7827,
      "pataugeoire": 7828,
      "parallèlement": 7829,
      "célébrer": 7830,
      "galope": 7831,
      "hangar": 7832,
      "story": 7833,
      "étiquette": 7834,
      "étiquettes": 7835,
      "échauffer": 7836,
      "antiquités": 7837,
      "chiffons": 7838,
      "assistante": 7839,
      "toilette": 7840,
      "grenouille": 7841,
      "exhibant": 7842,
      "réalise": 7843,
      "piercings": 7844,
      "retrouve": 7845,
      "interviewe": 7846,
      "emmitoufl": 7847,
      "explorant": 7848,
      "explorateur": 7849,
      "enregistreuse": 7850,
      "bûche": 7851,
      "bûcher": 7852,
      "dalma": 7853,
      "oeuvre": 7854,
      "ombragé": 7855,
      "évacu": 7856,
      "escarpée": 7857,
      "ereusement": 7858,
      "inconnu": 7859,
      "popcorn": 7860,
      "politique": 7861,
      "politiques": 7862,
      "cahiers": 7863,
      "passionné": 7864,
      "caresser": 7865,
      "prélassent": 7866,
      "tribunes": 7867,
      "dirigés": 7868,
      "hispaniques": 7869,
      "bronzant": 7870,
      "chirurgical": 7871,
      "mécanique": 7872,
      "mécanicien": 7873,
      "familles": 7874,
      "major": 7875,
      "déjeunant": 7876,
      "mélanger": 7877,
      "mélangent": 7878,
      "répond": 7879,
      "mollet": 7880,
      "musulman": 7881,
      "amérindiens": 7882,
      "crêpes": 7883,
      "joggeurs": 7884,
      "moulante": 7885,
      "moulants": 7886,
      "élégantes": 7887,
      "pâtisserie": 7888,
      "doucement": 7889,
      "officiels": 7890,
      "agriculteurs": 7891,
      "intéressantes": 7892,
      "éparpillées": 7893,
      "propriétaires": 7894,
      "bavarder": 7895,
      "sponsorisé": 7896,
      "désarçonner": 7897,
      "manœuvrant": 7898,
      "abandonné": 7899,
      "fournitures": 7900,
      "sanitaires": 7901,
      "ukulé": 7902,
      "igué": 7903,
      "cupcake": 7904,
      "cupcakes": 7905,
      "conditions": 7906,
      "contemplant": 7907,
      "réconfortant": 7908,
      "importante": 7909,
      "bouleversé": 7910,
      "bouleversée": 7911,
      "ponchos": 7912,
      "agrippe": 7913,
      "agrippant": 7914,
      "zombie": 7915,
      "zombies": 7916,
      "bunker": 7917,
      "citoy": 7918,
      "cardia": 7919,
      "hydr": 7920,
      "panda": 7921,
      "tasses": 7922,
      "vigoureusement": 7923,
      "énergique": 7924,
      "encadrées": 7925,
      "hoscope": 7926,
      "rembourré": 7927,
      "lakers": 7928,
      "assemblée": 7929,
      "poignets": 7930,
      "powerpoint": 7931,
      "maillet": 7932,
      "déballant": 7933,
      "décider": 7934,
      "délicieuse": 7935,
      "meilleure": 7936,
      "bagarre": 7937,
      "exprime": 7938,
      "basculer": 7939,
      "préparation": 7940,
      "cyclable": 7941,
      "lentement": 7942,
      "parachutiste": 7943,
      "capitaine": 7944,
      "crevettes": 7945,
      "engagement": 7946,
      "protecteurs": 7947,
      "pingouin": 7948,
      "grillades": 7949,
      "showgirl": 7950,
      "expérimenté": 7951,
      "désordonné": 7952,
      "husky": 7953,
      "symbole": 7954,
      "agressi": 7955,
      "bitume": 7956,
      "favor": 7957,
      "idiot": 7958,
      "jonché": 7959,
      "mendiant": 7960,
      "nationaux": 7961,
      "règle": 7962,
      "rendre": 7963,
      "situe": 7964,
      "wood": 7965,
      "élasthanne": 7966,
      "ébouriffés": 7967,
      "émission": 7968,
      "enlacent": 7969,
      "espèce": 7970,
      "armure": 7971,
      "chalumeau": 7972,
      "teckel": 7973,
      "insolite": 7974,
      "aluminium": 7975,
      "partenaire": 7976,
      "lesquels": 7977,
      "cookies": 7978,
      "sablonneuse": 7979,
      "toyota": 7980,
      "shampooing": 7981,
      "sombrero": 7982,
      "plastron": 7983,
      "bénévoles": 7984,
      "camarades": 7985,
      "consul": 7986,
      "rédige": 7987,
      "paperasse": 7988,
      "pharmac": 7989,
      "buggy": 7990,
      "mosquée": 7991,
      "mosaïque": 7992,
      "télécommandé": 7993,
      "entrelacés": 7994,
      "préféré": 7995,
      "pluvieuse": 7996,
      "classiques": 7997,
      "guirlandes": 7998,
      "pétrole": 7999,
      "accueille": 8000,
      "accélérant": 8001,
      "figurines": 8002,
      "touffue": 8003,
      "préserva": 8004,
      "commerçante": 8005,
      "contrôler": 8006,
      "médailles": 8007,
      "originaire": 8008,
      "technologie": 8009,
      "sirotant": 8010,
      "goudronnée": 8011,
      "confortablement": 8012,
      "couturière": 8013,
      "majestue": 8014,
      "réfrigérateur": 8015,
      "accidenté": 8016,
      "croupier": 8017,
      "crampons": 8018,
      "dangereusement": 8019,
      "dramatique": 8020,
      "fûts": 8021,
      "nécessa": 8022,
      "nintendo": 8023,
      "oxford": 8024,
      "ollie": 8025,
      "ohio": 8026,
      "opinions": 8027,
      "strobosco": 8028,
      "stéthoscope": 8029,
      "tartan": 8030,
      "varech": 8031,
      "estrade": 8032,
      "archéolo": 8033,
      "hollister": 8034,
      "replié": 8035,
      "rectang": 8036,
      "aviron": 8037,
      "avertissement": 8038,
      "intrigué": 8039,
      "astronaute": 8040,
      "mariachi": 8041,
      "samoura": 8042,
      "témoin": 8043,
      "amicale": 8044,
      "coussins": 8045,
      "beagle": 8046,
      "dérape": 8047,
      "dépanneuse": 8048,
      "véranda": 8049,
      "vietnamien": 8050,
      "prospectus": 8051,
      "propane": 8052,
      "provisions": 8053,
      "raconte": 8054,
      "tulipes": 8055,
      "frénétiquement": 8056,
      "conserves": 8057,
      "mégaphone": 8058,
      "patiemment": 8059,
      "patrick": 8060,
      "inspiration": 8061,
      "limousine": 8062,
      "piétiné": 8063,
      "caractères": 8064,
      "distribue": 8065,
      "compétences": 8066,
      "business": 8067,
      "crocodile": 8068,
      "chinatown": 8069,
      "karaoké": 8070,
      "échiquier": 8071,
      "simultanément": 8072,
      "ukulélé": 8073,
      "citoyens": 8074,
      "stroboscopiques": 8075,
      "..": 8076,
      "25": 8077,
      "28": 8078,
      "30": 8079,
      "38": 8080,
      "4x": 8081,
      "63": 8082,
      "80": 8083,
      "95": 8084,
      "96": 8085,
      "ax": 8086,
      "aî": 8087,
      "ache": 8088,
      "ament": 8089,
      "acas": 8090,
      "ader": 8091,
      "ails": 8092,
      "ahe": 8093,
      "aborde": 8094,
      "agra": 8095,
      "aigu": 8096,
      "bée": 8097,
      "bère": 8098,
      "bap": 8099,
      "biste": 8100,
      "bing": 8101,
      "bbon": 8102,
      "bient": 8103,
      "bison": 8104,
      "bym": 8105,
      "bst": 8106,
      "bœuf": 8107,
      "cd": 8108,
      "cun": 8109,
      "cand": 8110,
      "clon": 8111,
      "cès": 8112,
      "ctique": 8113,
      "cray": 8114,
      "crient": 8115,
      "citer": 8116,
      "dh": 8117,
      "dô": 8118,
      "dun": 8119,
      "dav": 8120,
      "danc": 8121,
      "dirt": 8122,
      "dig": 8123,
      "doule": 8124,
      "diss": 8125,
      "dru": 8126,
      "dger": 8127,
      "dable": 8128,
      "duel": 8129,
      "dica": 8130,
      "ef": 8131,
      "ek": 8132,
      "ez": 8133,
      "eil": 8134,
      "eine": 8135,
      "euses": 8136,
      "eiffe": 8137,
      "east": 8138,
      "fâ": 8139,
      "fles": 8140,
      "fie": 8141,
      "fous": 8142,
      "flui": 8143,
      "flè": 8144,
      "fines": 8145,
      "fid": 8146,
      "fish": 8147,
      "finale": 8148,
      "gê": 8149,
      "gles": 8150,
      "glo": 8151,
      "gène": 8152,
      "gient": 8153,
      "gad": 8154,
      "gway": 8155,
      "gets": 8156,
      "hâ": 8157,
      "hin": 8158,
      "has": 8159,
      "hill": 8160,
      "hers": 8161,
      "hang": 8162,
      "hart": 8163,
      "hul": 8164,
      "iée": 8165,
      "ipa": 8166,
      "iphone": 8167,
      "ivres": 8168,
      "ize": 8169,
      "ioles": 8170,
      "idoo": 8171,
      "jà": 8172,
      "jar": 8173,
      "jas": 8174,
      "jés": 8175,
      "kle": 8176,
      "ksh": 8177,
      "karts": 8178,
      "képi": 8179,
      "lô": 8180,
      "lun": 8181,
      "lis": 8182,
      "lco": 8183,
      "lissent": 8184,
      "lence": 8185,
      "louvre": 8186,
      "lurg": 8187,
      "lyc": 8188,
      "mno": 8189,
      "mois": 8190,
      "mill": 8191,
      "moule": 8192,
      "masse": 8193,
      "meaux": 8194,
      "mys": 8195,
      "nè": 8196,
      "nar": 8197,
      "nit": 8198,
      "niture": 8199,
      "nia": 8200,
      "niers": 8201,
      "nies": 8202,
      "naires": 8203,
      "nack": 8204,
      "ola": 8205,
      "ose": 8206,
      "obl": 8207,
      "oper": 8208,
      "oce": 8209,
      "oia": 8210,
      "open": 8211,
      "oak": 8212,
      "oies": 8213,
      "ops": 8214,
      "oxy": 8215,
      "ovation": 8216,
      "omique": 8217,
      "oeil": 8218,
      "pti": 8219,
      "prière": 8220,
      "paux": 8221,
      "poule": 8222,
      "pouv": 8223,
      "pavant": 8224,
      "priv": 8225,
      "pack": 8226,
      "run": 8227,
      "ris": 8228,
      "rure": 8229,
      "rité": 8230,
      "rattraper": 8231,
      "raté": 8232,
      "rôle": 8233,
      "ranch": 8234,
      "sun": 8235,
      "sle": 8236,
      "sses": 8237,
      "sing": 8238,
      "spare": 8239,
      "spin": 8240,
      "spag": 8241,
      "stri": 8242,
      "signant": 8243,
      "snor": 8244,
      "symp": 8245,
      "schi": 8246,
      "siens": 8247,
      "smart": 8248,
      "sœurs": 8249,
      "snack": 8250,
      "tv": 8251,
      "tot": 8252,
      "tande": 8253,
      "trempl": 8254,
      "tissent": 8255,
      "tôle": 8256,
      "tains": 8257,
      "tuniques": 8258,
      "uz": 8259,
      "ulent": 8260,
      "ucure": 8261,
      "udemment": 8262,
      "vas": 8263,
      "vain": 8264,
      "vot": 8265,
      "vire": 8266,
      "visant": 8267,
      "vador": 8268,
      "vreté": 8269,
      "wan": 8270,
      "wis": 8271,
      "west": 8272,
      "wall": 8273,
      "xes": 8274,
      "ya": 8275,
      "yan": 8276,
      "yal": 8277,
      "zune": 8278,
      "zig": 8279,
      "zag": 8280,
      "zaine": 8281,
      "çage": 8282,
      "ède": 8283,
      "ènes": 8284,
      "ètres": 8285,
      "èrent": 8286,
      "ègent": 8287,
      "édi": 8288,
      "éli": 8289,
      "épuis": 8290,
      "étirent": 8291,
      "étendant": 8292,
      "élancent": 8293,
      "échauffe": 8294,
      "égy": 8295,
      "êtr": 8296,
      "ître": 8297,
      "unou": 8298,
      "unie": 8299,
      "union": 8300,
      "dement": 8301,
      "devra": 8302,
      "anes": 8303,
      "anor": 8304,
      "anad": 8305,
      "année": 8306,
      "ena": 8307,
      "enge": 8308,
      "enses": 8309,
      "enchev": 8310,
      "ennu": 8311,
      "endent": 8312,
      "enva": 8313,
      "enroule": 8314,
      "encre": 8315,
      "encadre": 8316,
      "enlèvent": 8317,
      "enlevant": 8318,
      "engren": 8319,
      "ensuite": 8320,
      "enroll": 8321,
      "esqui": 8322,
      "espé": 8323,
      "espres": 8324,
      "espoir": 8325,
      "ouvertes": 8326,
      "ondu": 8327,
      "ondul": 8328,
      "lem": 8329,
      "lex": 8330,
      "leure": 8331,
      "lebron": 8332,
      "lectique": 8333,
      "antique": 8334,
      "mma": 8335,
      "mmage": 8336,
      "ura": 8337,
      "urin": 8338,
      "urette": 8339,
      "urgent": 8340,
      "ara": 8341,
      "ardes": 8342,
      "artérie": 8343,
      "arbus": 8344,
      "arié": 8345,
      "arides": 8346,
      "armées": 8347,
      "isco": 8348,
      "isés": 8349,
      "isra": 8350,
      "isha": 8351,
      "istra": 8352,
      "isol": 8353,
      "chère": 8354,
      "chers": 8355,
      "change": 8356,
      "chande": 8357,
      "chall": 8358,
      "chigan": 8359,
      "erne": 8360,
      "eries": 8361,
      "erback": 8362,
      "erland": 8363,
      "etch": 8364,
      "etti": 8365,
      "hodo": 8366,
      "hotel": 8367,
      "hopper": 8368,
      "hoops": 8369,
      "repasse": 8370,
      "reprenant": 8371,
      "repasser": 8372,
      "revient": 8373,
      "remontant": 8374,
      "relevant": 8375,
      "relevé": 8376,
      "recue": 8377,
      "reporta": 8378,
      "recycla": 8379,
      "repéré": 8380,
      "recouvrent": 8381,
      "aujour": 8382,
      "entaine": 8383,
      "entrain": 8384,
      "entendent": 8385,
      "quois": 8386,
      "quaire": 8387,
      "quants": 8388,
      "quante": 8389,
      "teux": 8390,
      "team": 8391,
      "teils": 8392,
      "tels": 8393,
      "avis": 8394,
      "aval": 8395,
      "avia": 8396,
      "averse": 8397,
      "aveu": 8398,
      "avenir": 8399,
      "surée": 8400,
      "survole": 8401,
      "surpris": 8402,
      "survolent": 8403,
      "surchargé": 8404,
      "laille": 8405,
      "laté": 8406,
      "lasse": 8407,
      "laissent": 8408,
      "lations": 8409,
      "laisses": 8410,
      "laisser": 8411,
      "lapse": 8412,
      "deste": 8413,
      "destre": 8414,
      "inn": 8415,
      "iné": 8416,
      "inche": 8417,
      "inti": 8418,
      "inno": 8419,
      "indé": 8420,
      "intres": 8421,
      "invit": 8422,
      "ilder": 8423,
      "illac": 8424,
      "illamment": 8425,
      "ectes": 8426,
      "sein": 8427,
      "sell": 8428,
      "sexe": 8429,
      "segway": 8430,
      "ores": 8431,
      "orateur": 8432,
      "orsion": 8433,
      "orioles": 8434,
      "orteils": 8435,
      "trè": 8436,
      "trer": 8437,
      "trique": 8438,
      "triture": 8439,
      "tristes": 8440,
      "trines": 8441,
      "trente": 8442,
      "truelle": 8443,
      "trentaine": 8444,
      "asy": 8445,
      "ascar": 8446,
      "assemblent": 8447,
      "aspire": 8448,
      "sono": 8449,
      "irway": 8450,
      "irland": 8451,
      "irrité": 8452,
      "ity": 8453,
      "itul": 8454,
      "ithé": 8455,
      "feurs": 8456,
      "geish": 8457,
      "geisha": 8458,
      "gard": 8459,
      "gardant": 8460,
      "gardée": 8461,
      "garniture": 8462,
      "alité": 8463,
      "alentour": 8464,
      "allonge": 8465,
      "chees": 8466,
      "chement": 8467,
      "tim": 8468,
      "tice": 8469,
      "timo": 8470,
      "tivement": 8471,
      "tiquer": 8472,
      "tiquaire": 8473,
      "rouet": 8474,
      "rouille": 8475,
      "routes": 8476,
      "routier": 8477,
      "routine": 8478,
      "peurs": 8479,
      "peace": 8480,
      "peintres": 8481,
      "queues": 8482,
      "roie": 8483,
      "rolet": 8484,
      "roquet": 8485,
      "rocks": 8486,
      "rodgers": 8487,
      "esty": 8488,
      "neur": 8489,
      "need": 8490,
      "blindé": 8491,
      "rigo": 8492,
      "ribbon": 8493,
      "perle": 8494,
      "perdant": 8495,
      "permet": 8496,
      "percée": 8497,
      "perchiste": 8498,
      "perroquet": 8499,
      "paris": 8500,
      "parap": 8501,
      "partiment": 8502,
      "parleurs": 8503,
      "partent": 8504,
      "pardessus": 8505,
      "parcourt": 8506,
      "parleur": 8507,
      "parterre": 8508,
      "parcourent": 8509,
      "parfu": 8510,
      "party": 8511,
      "paresse": 8512,
      "asses": 8513,
      "assou": 8514,
      "jouit": 8515,
      "jouissant": 8516,
      "att": 8517,
      "atv": 8518,
      "atlant": 8519,
      "atures": 8520,
      "marx": 8521,
      "marier": 8522,
      "marient": 8523,
      "marquant": 8524,
      "martin": 8525,
      "maracas": 8526,
      "ielles": 8527,
      "ieuses": 8528,
      "usag": 8529,
      "noble": 8530,
      "nota": 8531,
      "nounou": 8532,
      "assister": 8533,
      "assistent": 8534,
      "porce": 8535,
      "portu": 8536,
      "portés": 8537,
      "otte": 8538,
      "pren": 8539,
      "préc": 8540,
      "prudemment": 8541,
      "ancard": 8542,
      "anciers": 8543,
      "fais": 8544,
      "faim": 8545,
      "faible": 8546,
      "fairway": 8547,
      "coli": 8548,
      "combre": 8549,
      "cocher": 8550,
      "comes": 8551,
      "copie": 8552,
      "coûte": 8553,
      "cochon": 8554,
      "coffee": 8555,
      "verglacée": 8556,
      "verglacé": 8557,
      "plent": 8558,
      "plient": 8559,
      "sait": 8560,
      "sages": 8561,
      "sables": 8562,
      "sams": 8563,
      "autaire": 8564,
      "tache": 8565,
      "tacle": 8566,
      "tailles": 8567,
      "talement": 8568,
      "tatiquement": 8569,
      "tapote": 8570,
      "nesota": 8571,
      "regards": 8572,
      "regardés": 8573,
      "mentée": 8574,
      "toast": 8575,
      "tenance": 8576,
      "baltimo": 8577,
      "enfer": 8578,
      "enfour": 8579,
      "debouts": 8580,
      "ame": 8581,
      "ams": 8582,
      "amas": 8583,
      "ampu": 8584,
      "amateur": 8585,
      "ambré": 8586,
      "urst": 8587,
      "peter": 8588,
      "pomé": 8589,
      "pops": 8590,
      "poke": 8591,
      "pochette": 8592,
      "groucho": 8593,
      "courrier": 8594,
      "courbée": 8595,
      "courroie": 8596,
      "coudes": 8597,
      "coucou": 8598,
      "coupa": 8599,
      "couches": 8600,
      "couettes": 8601,
      "couler": 8602,
      "couchage": 8603,
      "grette": 8604,
      "grange": 8605,
      "gravant": 8606,
      "grillé": 8607,
      "grillent": 8608,
      "grind": 8609,
      "grinche": 8610,
      "brisant": 8611,
      "brées": 8612,
      "brut": 8613,
      "briser": 8614,
      "brind": 8615,
      "braderie": 8616,
      "brillamment": 8617,
      "brancard": 8618,
      "regardez": 8619,
      "illoire": 8620,
      "beff": 8621,
      "belots": 8622,
      "shire": 8623,
      "apés": 8624,
      "apportent": 8625,
      "london": 8626,
      "mad": 8627,
      "matière": 8628,
      "poursuivent": 8629,
      "poursuivi": 8630,
      "marchande": 8631,
      "ureuil": 8632,
      "loo": 8633,
      "lote": 8634,
      "loop": 8635,
      "dél": 8636,
      "débout": 8637,
      "déso": 8638,
      "déter": 8639,
      "déses": 8640,
      "déli": 8641,
      "déterr": 8642,
      "détru": 8643,
      "dévis": 8644,
      "débat": 8645,
      "désor": 8646,
      "décoll": 8647,
      "déplo": 8648,
      "dépassant": 8649,
      "déroulant": 8650,
      "déverse": 8651,
      "dépot": 8652,
      "déluge": 8653,
      "décharge": 8654,
      "décollant": 8655,
      "démarque": 8656,
      "décore": 8657,
      "déclar": 8658,
      "déchargent": 8659,
      "dégonflé": 8660,
      "dédica": 8661,
      "déjà": 8662,
      "sommes": 8663,
      "soie": 8664,
      "somp": 8665,
      "soins": 8666,
      "soli": 8667,
      "soient": 8668,
      "solaire": 8669,
      "social": 8670,
      "soignée": 8671,
      "somno": 8672,
      "velle": 8673,
      "veler": 8674,
      "veulent": 8675,
      "dante": 8676,
      "ineken": 8677,
      "ican": 8678,
      "travag": 8679,
      "travesti": 8680,
      "côtes": 8681,
      "côtière": 8682,
      "terres": 8683,
      "igno": 8684,
      "igée": 8685,
      "igator": 8686,
      "igloo": 8687,
      "meule": 8688,
      "vélot": 8689,
      "vétér": 8690,
      "via": 8691,
      "vies": 8692,
      "vial": 8693,
      "vivent": 8694,
      "viandes": 8695,
      "projette": 8696,
      "programmes": 8697,
      "problème": 8698,
      "horrif": 8699,
      "horrible": 8700,
      "placer": 8701,
      "placent": 8702,
      "places": 8703,
      "placé": 8704,
      "plaçant": 8705,
      "rac": 8706,
      "rai": 8707,
      "raw": 8708,
      "rale": 8709,
      "raille": 8710,
      "rabo": 8711,
      "raison": 8712,
      "racin": 8713,
      "rabble": 8714,
      "bab": 8715,
      "bay": 8716,
      "bage": 8717,
      "batiment": 8718,
      "bateur": 8719,
      "bague": 8720,
      "bagg": 8721,
      "baies": 8722,
      "baquet": 8723,
      "baby": 8724,
      "bazar": 8725,
      "voyant": 8726,
      "volaille": 8727,
      "cuiss": 8728,
      "cuzz": 8729,
      "cuivres": 8730,
      "bom": 8731,
      "bocal": 8732,
      "ageant": 8733,
      "airway": 8734,
      "sesame": 8735,
      "iteurs": 8736,
      "chalet": 8737,
      "bâille": 8738,
      "jacuzz": 8739,
      "planchiste": 8740,
      "casiers": 8741,
      "casqués": 8742,
      "longboard": 8743,
      "longtemps": 8744,
      "lettre": 8745,
      "agité": 8746,
      "agissant": 8747,
      "tablette": 8748,
      "bécher": 8749,
      "cachant": 8750,
      "cachée": 8751,
      "cake": 8752,
      "cact": 8753,
      "monade": 8754,
      "mongol": 8755,
      "montés": 8756,
      "monna": 8757,
      "monticu": 8758,
      "moniteurs": 8759,
      "tual": 8760,
      "autel": 8761,
      "dober": 8762,
      "domine": 8763,
      "domaine": 8764,
      "frères": 8765,
      "france": 8766,
      "frites": 8767,
      "conn": 8768,
      "contient": 8769,
      "console": 8770,
      "condi": 8771,
      "concer": 8772,
      "concourent": 8773,
      "conif": 8774,
      "congé": 8775,
      "concourir": 8776,
      "confus": 8777,
      "conna": 8778,
      "confort": 8779,
      "conserve": 8780,
      "question": 8781,
      "questions": 8782,
      "maintenant": 8783,
      "maintenance": 8784,
      "files": 8785,
      "filment": 8786,
      "tention": 8787,
      "tentative": 8788,
      "lumin": 8789,
      "écorce": 8790,
      "éclectique": 8791,
      "écureuil": 8792,
      "plexes": 8793,
      "pupi": 8794,
      "puissant": 8795,
      "exu": 8796,
      "excent": 8797,
      "excav": 8798,
      "exception": 8799,
      "extatiquement": 8800,
      "extravag": 8801,
      "médit": 8802,
      "mémoire": 8803,
      "ardoise": 8804,
      "source": 8805,
      "sources": 8806,
      "sourires": 8807,
      "ska": 8808,
      "skieuse": 8809,
      "sketch": 8810,
      "rieur": 8811,
      "trottoirs": 8812,
      "sauteur": 8813,
      "réti": 8814,
      "réus": 8815,
      "réfé": 8816,
      "réseau": 8817,
      "réaction": 8818,
      "réchauff": 8819,
      "répand": 8820,
      "réflex": 8821,
      "chevel": 8822,
      "cli": 8823,
      "clée": 8824,
      "angois": 8825,
      "posture": 8826,
      "posants": 8827,
      "postales": 8828,
      "version": 8829,
      "tressé": 8830,
      "choc": 8831,
      "chope": 8832,
      "choix": 8833,
      "mp3": 8834,
      "boisseau": 8835,
      "oby": 8836,
      "tons": 8837,
      "lante": 8838,
      "penn": 8839,
      "penske": 8840,
      "ressort": 8841,
      "respon": 8842,
      "ressources": 8843,
      "cost": 8844,
      "scier": 8845,
      "scrabble": 8846,
      "bouchant": 8847,
      "bouées": 8848,
      "bouches": 8849,
      "bouchons": 8850,
      "bouilloire": 8851,
      "hachette": 8852,
      "patr": 8853,
      "paissent": 8854,
      "palettes": 8855,
      "pabst": 8856,
      "diant": 8857,
      "didger": 8858,
      "institu": 8859,
      "instit": 8860,
      "insecte": 8861,
      "insectes": 8862,
      "quaterback": 8863,
      "series": 8864,
      "serrées": 8865,
      "serrure": 8866,
      "elleux": 8867,
      "assez": 8868,
      "asseoir": 8869,
      "corri": 8870,
      "corsa": 8871,
      "corbe": 8872,
      "corgi": 8873,
      "lies": 8874,
      "life": 8875,
      "libé": 8876,
      "libère": 8877,
      "limonade": 8878,
      "phérique": 8879,
      "mural": 8880,
      "rons": 8881,
      "rondin": 8882,
      "pies": 8883,
      "trajet": 8884,
      "civ": 8885,
      "cide": 8886,
      "cibles": 8887,
      "costumée": 8888,
      "chevilles": 8889,
      "chevrolet": 8890,
      "terror": 8891,
      "campus": 8892,
      "ocre": 8893,
      "ocass": 8894,
      "occident": 8895,
      "anderie": 8896,
      "basique": 8897,
      "intitul": 8898,
      "mesure": 8899,
      "mesurant": 8900,
      "bute": 8901,
      "bulaire": 8902,
      "builder": 8903,
      "buanderie": 8904,
      "passées": 8905,
      "passoire": 8906,
      "parcmètre": 8907,
      "habille": 8908,
      "habile": 8909,
      "ouvrent": 8910,
      "mohaw": 8911,
      "modeste": 8912,
      "moelleux": 8913,
      "motor": 8914,
      "lls": 8915,
      "mature": 8916,
      "mathé": 8917,
      "matador": 8918,
      "care": 8919,
      "carit": 8920,
      "caraf": 8921,
      "carol": 8922,
      "cargo": 8923,
      "carrée": 8924,
      "carab": 8925,
      "skateboarder": 8926,
      "imite": 8927,
      "imposants": 8928,
      "mante": 8929,
      "bonbon": 8930,
      "mbeau": 8931,
      "équipée": 8932,
      "viser": 8933,
      "visiblement": 8934,
      "ienté": 8935,
      "canapés": 8936,
      "rembarde": 8937,
      "remporter": 8938,
      "nuances": 8939,
      "fonds": 8940,
      "fonçant": 8941,
      "téléviseur": 8942,
      "téléphérique": 8943,
      "taggée": 8944,
      "miche": 8945,
      "mime": 8946,
      "mike": 8947,
      "mixe": 8948,
      "michigan": 8949,
      "grisonn": 8950,
      "entrepren": 8951,
      "musclée": 8952,
      "chaume": 8953,
      "chauves": 8954,
      "violence": 8955,
      "rampent": 8956,
      "prélasse": 8957,
      "manœuvre": 8958,
      "manucure": 8959,
      "bates": 8960,
      "battes": 8961,
      "sibil": 8962,
      "dispar": 8963,
      "distin": 8964,
      "distrait": 8965,
      "disposée": 8966,
      "arting": 8967,
      "charlot": 8968,
      "pect": 8969,
      "nourrir": 8970,
      "nourrissent": 8971,
      "cerise": 8972,
      "certif": 8973,
      "issements": 8974,
      "champignon": 8975,
      "rasée": 8976,
      "aiment": 8977,
      "aimons": 8978,
      "aidée": 8979,
      "aigrette": 8980,
      "cuisses": 8981,
      "pendante": 8982,
      "cinelle": 8983,
      "web": 8984,
      "weiser": 8985,
      "welco": 8986,
      "wells": 8987,
      "cyclon": 8988,
      "admin": 8989,
      "tory": 8990,
      "tortil": 8991,
      "travailleuses": 8992,
      "contreplaqué": 8993,
      "lances": 8994,
      "talus": 8995,
      "biche": 8996,
      "biber": 8997,
      "bibelots": 8998,
      "lèvre": 8999,
      "colorant": 9000,
      "colorient": 9001,
      "sweet": 9002,
      "panache": 9003,
      "sweats": 9004,
      "sorti": 9005,
      "claque": 9006,
      "descent": 9007,
      "tirées": 9008,
      "trouvé": 9009,
      "allongent": 9010,
      "empare": 9011,
      "emplace": 9012,
      "emporter": 9013,
      "calot": 9014,
      "calvin": 9015,
      "collision": 9016,
      "restaurants": 9017,
      "cheminent": 9018,
      "cheminot": 9019,
      "cheminots": 9020,
      "suce": 9021,
      "summer": 9022,
      "équitation": 9023,
      "affalé": 9024,
      "affleure": 9025,
      "dortoir": 9026,
      "pétr": 9027,
      "pénombre": 9028,
      "péné": 9029,
      "péni": 9030,
      "pénè": 9031,
      "pédestre": 9032,
      "ignor": 9033,
      "ignons": 9034,
      "bride": 9035,
      "brico": 9036,
      "jeudi": 9037,
      "remplies": 9038,
      "staff": 9039,
      "stabil": 9040,
      "venti": 9041,
      "buster": 9042,
      "pollution": 9043,
      "vendeuse": 9044,
      "rassemblé": 9045,
      "tours": 9046,
      "tourisme": 9047,
      "juif": 9048,
      "juché": 9049,
      "juifs": 9050,
      "juive": 9051,
      "jumelle": 9052,
      "jumeaux": 9053,
      "rets": 9054,
      "retard": 9055,
      "retrait": 9056,
      "blessures": 9057,
      "pastel": 9058,
      "heal": 9059,
      "heineken": 9060,
      "maisonnette": 9061,
      "onnées": 9062,
      "onniers": 9063,
      "hies": 9064,
      "hibou": 9065,
      "hijab": 9066,
      "métallurg": 9067,
      "préparé": 9068,
      "préparée": 9069,
      "justice": 9070,
      "pesant": 9071,
      "akes": 9072,
      "joint": 9073,
      "joignant": 9074,
      "jointes": 9075,
      "nagement": 9076,
      "eye": 9077,
      "vale": 9078,
      "vais": 9079,
      "vase": 9080,
      "vapeur": 9081,
      "miner": 9082,
      "minnesota": 9083,
      "ruine": 9084,
      "besace": 9085,
      "soudant": 9086,
      "soudent": 9087,
      "soucoupe": 9088,
      "souples": 9089,
      "éclat": 9090,
      "éclatant": 9091,
      "glaçage": 9092,
      "poules": 9093,
      "poulie": 9094,
      "poulies": 9095,
      "flyer": 9096,
      "plomb": 9097,
      "sentant": 9098,
      "sentir": 9099,
      "aler": 9100,
      "alement": 9101,
      "fument": 9102,
      "fuite": 9103,
      "fumé": 9104,
      "fuyant": 9105,
      "fumier": 9106,
      "fermant": 9107,
      "ferry": 9108,
      "ferraille": 9109,
      "mordent": 9110,
      "morial": 9111,
      "masquant": 9112,
      "baladant": 9113,
      "baladent": 9114,
      "balayent": 9115,
      "friser": 9116,
      "frisbe": 9117,
      "flash": 9118,
      "flambeau": 9119,
      "snoop": 9120,
      "touché": 9121,
      "points": 9122,
      "pointée": 9123,
      "cirage": 9124,
      "circus": 9125,
      "grizz": 9126,
      "griffe": 9127,
      "sépare": 9128,
      "effrayé": 9129,
      "effrayant": 9130,
      "voiturette": 9131,
      "ymca": 9132,
      "tronomique": 9133,
      "james": 9134,
      "jambières": 9135,
      "cowgirl": 9136,
[...]
